{
  "version": "1.0",
  "truncation": null,
  "padding": null,
  "added_tokens": [
    {
      "id": 0,
      "content": "<|endoftext|>",
      "single_word": false,
      "lstrip": false,
      "rstrip": false,
      "normalized": false,
      "special": true
    }
  ],
  "normalizer": {
    "type": "NFC"
  },
  "pre_tokenizer": {
    "type": "ByteLevel",
    "add_prefix_space": false,
    "trim_offsets": true,
    "use_regex": true
  },
  "post_processor": {
    "type": "ByteLevel",
    "add_prefix_space": true,
    "trim_offsets": false,
    "use_regex": true
  },
  "decoder": {
    "type": "ByteLevel",
    "add_prefix_space": true,
    "trim_offsets": true,
    "use_regex": true
  },
  "model": {
    "type": "BPE",
    "dropout": null,
    "unk_token": null,
    "continuing_subword_prefix": null,
    "end_of_word_suffix": null,
    "fuse_unk": false,
    "byte_fallback": false,
    "ignore_merges": false,
    "vocab": {
      "<|endoftext|>": 0,
      "!": 1,
      "\"": 2,
      "#": 3,
      "$": 4,
      "%": 5,
      "&": 6,
      "'": 7,
      "(": 8,
      ")": 9,
      "*": 10,
      "+": 11,
      ",": 12,
      "-": 13,
      ".": 14,
      "/": 15,
      "0": 16,
      "1": 17,
      "2": 18,
      "3": 19,
      "4": 20,
      "5": 21,
      "6": 22,
      "7": 23,
      "8": 24,
      "9": 25,
      ":": 26,
      ";": 27,
      "<": 28,
      "=": 29,
      ">": 30,
      "?": 31,
      "@": 32,
      "A": 33,
      "B": 34,
      "C": 35,
      "D": 36,
      "E": 37,
      "F": 38,
      "G": 39,
      "H": 40,
      "I": 41,
      "J": 42,
      "K": 43,
      "L": 44,
      "M": 45,
      "N": 46,
      "O": 47,
      "P": 48,
      "Q": 49,
      "R": 50,
      "S": 51,
      "T": 52,
      "U": 53,
      "V": 54,
      "W": 55,
      "X": 56,
      "Y": 57,
      "Z": 58,
      "[": 59,
      "\\": 60,
      "]": 61,
      "^": 62,
      "_": 63,
      "`": 64,
      "a": 65,
      "b": 66,
      "c": 67,
      "d": 68,
      "e": 69,
      "f": 70,
      "g": 71,
      "h": 72,
      "i": 73,
      "j": 74,
      "k": 75,
      "l": 76,
      "m": 77,
      "n": 78,
      "o": 79,
      "p": 80,
      "q": 81,
      "r": 82,
      "s": 83,
      "t": 84,
      "u": 85,
      "v": 86,
      "w": 87,
      "x": 88,
      "y": 89,
      "z": 90,
      "{": 91,
      "|": 92,
      "}": 93,
      "~": 94,
      "¡": 95,
      "¢": 96,
      "£": 97,
      "¤": 98,
      "¥": 99,
      "¦": 100,
      "§": 101,
      "¨": 102,
      "©": 103,
      "ª": 104,
      "«": 105,
      "¬": 106,
      "®": 107,
      "¯": 108,
      "°": 109,
      "±": 110,
      "²": 111,
      "³": 112,
      "´": 113,
      "µ": 114,
      "¶": 115,
      "·": 116,
      "¸": 117,
      "¹": 118,
      "º": 119,
      "»": 120,
      "¼": 121,
      "½": 122,
      "¾": 123,
      "¿": 124,
      "À": 125,
      "Á": 126,
      "Â": 127,
      "Ã": 128,
      "Ä": 129,
      "Å": 130,
      "Æ": 131,
      "Ç": 132,
      "È": 133,
      "É": 134,
      "Ê": 135,
      "Ë": 136,
      "Ì": 137,
      "Í": 138,
      "Î": 139,
      "Ï": 140,
      "Ð": 141,
      "Ñ": 142,
      "Ò": 143,
      "Ó": 144,
      "Ô": 145,
      "Õ": 146,
      "Ö": 147,
      "×": 148,
      "Ø": 149,
      "Ù": 150,
      "Ú": 151,
      "Û": 152,
      "Ü": 153,
      "Ý": 154,
      "Þ": 155,
      "ß": 156,
      "à": 157,
      "á": 158,
      "â": 159,
      "ã": 160,
      "ä": 161,
      "å": 162,
      "æ": 163,
      "ç": 164,
      "è": 165,
      "é": 166,
      "ê": 167,
      "ë": 168,
      "ì": 169,
      "í": 170,
      "î": 171,
      "ï": 172,
      "ð": 173,
      "ñ": 174,
      "ò": 175,
      "ó": 176,
      "ô": 177,
      "õ": 178,
      "ö": 179,
      "÷": 180,
      "ø": 181,
      "ù": 182,
      "ú": 183,
      "û": 184,
      "ü": 185,
      "ý": 186,
      "þ": 187,
      "ÿ": 188,
      "Ā": 189,
      "ā": 190,
      "Ă": 191,
      "ă": 192,
      "Ą": 193,
      "ą": 194,
      "Ć": 195,
      "ć": 196,
      "Ĉ": 197,
      "ĉ": 198,
      "Ċ": 199,
      "ċ": 200,
      "Č": 201,
      "č": 202,
      "Ď": 203,
      "ď": 204,
      "Đ": 205,
      "đ": 206,
      "Ē": 207,
      "ē": 208,
      "Ĕ": 209,
      "ĕ": 210,
      "Ė": 211,
      "ė": 212,
      "Ę": 213,
      "ę": 214,
      "Ě": 215,
      "ě": 216,
      "Ĝ": 217,
      "ĝ": 218,
      "Ğ": 219,
      "ğ": 220,
      "Ġ": 221,
      "ġ": 222,
      "Ģ": 223,
      "ģ": 224,
      "Ĥ": 225,
      "ĥ": 226,
      "Ħ": 227,
      "ħ": 228,
      "Ĩ": 229,
      "ĩ": 230,
      "Ī": 231,
      "ī": 232,
      "Ĭ": 233,
      "ĭ": 234,
      "Į": 235,
      "į": 236,
      "İ": 237,
      "ı": 238,
      "Ĳ": 239,
      "ĳ": 240,
      "Ĵ": 241,
      "ĵ": 242,
      "Ķ": 243,
      "ķ": 244,
      "ĸ": 245,
      "Ĺ": 246,
      "ĺ": 247,
      "Ļ": 248,
      "ļ": 249,
      "Ľ": 250,
      "ľ": 251,
      "Ŀ": 252,
      "ŀ": 253,
      "Ł": 254,
      "ł": 255,
      "Ń": 256,
      "in": 257,
      "Ġa": 258,
      "Ġt": 259,
      "at": 260,
      "re": 261,
      "on": 262,
      "en": 263,
      "er": 264,
      "al": 265,
      "he": 266,
      "Ġs": 267,
      "Ġo": 268,
      "Ġp": 269,
      "ic": 270,
      "ed": 271,
      "Ġc": 272,
      "is": 273,
      "or": 274,
      "Ġin": 275,
      "it": 276,
      "ro": 277,
      "nd": 278,
      "ion": 279,
      "Ġthe": 280,
      "es": 281,
      "Ġw": 282,
      "Ġof": 283,
      "Ġd": 284,
      "Ġm": 285,
      "Ġand": 286,
      "ent": 287,
      "as": 288,
      "Ġf": 289,
      "ar": 290,
      "an": 291,
      "ing": 292,
      "Ġb": 293,
      "ct": 294,
      "le": 295,
      "Ġ(": 296,
      "ve": 297,
      "ĠA": 298,
      "ation": 299,
      "Ġre": 300,
      "ot": 301,
      "Ġn": 302,
      "Ġto": 303,
      "us": 304,
      "os": 305,
      "Ġe": 306,
      "om": 307,
      "et": 308,
      "ur": 309,
      "ul": 310,
      "LS": 311,
      "ith": 312,
      "Ġl": 313,
      "Ġwith": 314,
      "ĠT": 315,
      "ly": 316,
      "ati": 317,
      "Ġth": 318,
      "im": 319,
      "il": 320,
      "ut": 321,
      "id": 322,
      "ĠS": 323,
      "Ġh": 324,
      "te": 325,
      "Ġpro": 326,
      "ol": 327,
      "res": 328,
      "ĠC": 329,
      "Ġst": 330,
      "ig": 331,
      "ĠALS": 332,
      "if": 333,
      "ph": 334,
      "ents": 335,
      "Ġdis": 336,
      "ce": 337,
      "Ġas": 338,
      "Ġne": 339,
      "gen": 340,
      "cl": 341,
      "Ġfor": 342,
      "Ġwe": 343,
      "ical": 344,
      "Ġde": 345,
      "ud": 346,
      "ase": 347,
      "un": 348,
      "pe": 349,
      "Ġcon": 350,
      "ated": 351,
      "ment": 352,
      "ra": 353,
      "ant": 354,
      "Ġpati": 355,
      "ity": 356,
      "ow": 357,
      "th": 358,
      "ĠM": 359,
      "iv": 360,
      "Ġan": 361,
      "ive": 362,
      "ers": 363,
      "ys": 364,
      "ia": 365,
      "ch": 366,
      "ĠP": 367,
      "Ġex": 368,
      "Ġv": 369,
      "Ġis": 370,
      "ter": 371,
      "od": 372,
      "el": 373,
      "Ġpatients": 374,
      "Ġbe": 375,
      "ction": 376,
      "og": 377,
      "am": 378,
      "ate": 379,
      "osis": 380,
      "ĠI": 381,
      "Ġon": 382,
      "roph": 383,
      "Ġ1": 384,
      "Ġdise": 385,
      "est": 386,
      "ĠThe": 387,
      "oc": 388,
      "ial": 389,
      "eral": 390,
      "ir": 391,
      "ab": 392,
      "Ġsu": 393,
      "ĠR": 394,
      "Ġor": 395,
      "end": 396,
      "ort": 397,
      "Ġthat": 398,
      "fe": 399,
      "rom": 400,
      "ress": 401,
      "Ġcom": 402,
      "ge": 403,
      "red": 404,
      "ĠF": 405,
      "Ġstud": 406,
      "pt": 407,
      "ess": 408,
      "Ġwere": 409,
      "um": 410,
      "lin": 411,
      "Ġwas": 412,
      "se": 413,
      "Ġdisease": 414,
      "op": 415,
      "ath": 416,
      "Ġg": 417,
      "ib": 418,
      "ies": 419,
      "ateral": 420,
      "Ġat": 421,
      "qu": 422,
      "ls": 423,
      "cler": 424,
      "clerosis": 425,
      "ĠD": 426,
      "my": 427,
      "rophic": 428,
      "tic": 429,
      "Ġim": 430,
      "otrophic": 431,
      "Ġby": 432,
      "uro": 433,
      "Ġ2": 434,
      "myotrophic": 435,
      "tr": 436,
      "Ġass": 437,
      "Ġr": 438,
      "ren": 439,
      "Ġgen": 440,
      "ip": 441,
      "ALS": 442,
      "Ġres": 443,
      "Ġch": 444,
      "otor": 445,
      "of": 446,
      "ĠN": 447,
      ").": 448,
      "igh": 449,
      "ad": 450,
      "ations": 451,
      "unction": 452,
      "Ġus": 453,
      "Ġstudy": 454,
      "Ġwh": 455,
      "tex": 456,
      "ult": 457,
      "pp": 458,
      "Ġsclerosis": 459,
      "Ġcomp": 460,
      "ĠW": 461,
      "Ġlateral": 462,
      "Ġse": 463,
      "ore": 464,
      "),": 465,
      "Ġneuro": 466,
      "uron": 467,
      "Ġare": 468,
      "olog": 469,
      "Ġfrom": 470,
      "ĠH": 471,
      "act": 472,
      "und": 473,
      "Ġexp": 474,
      "ific": 475,
      "ain": 476,
      "Ġme": 477,
      "ans": 478,
      "ative": 479,
      "text": 480,
      "orm": 481,
      "Ġmotor": 482,
      "ver": 483,
      "ĠE": 484,
      "ign": 485,
      "cre": 486,
      "ll": 487,
      "ular": 488,
      "ay": 489,
      "|>": 490,
      "endof": 491,
      "<|": 492,
      "endoftext": 493,
      "ĠIn": 494,
      "iz": 495,
      "Ġimp": 496,
      "Ġca": 497,
      "ac": 498,
      "ory": 499,
      "Ġneuron": 500,
      "ure": 501,
      "Ġtr": 502,
      "Ġle": 503,
      "linical": 504,
      "uc": 505,
      "inal": 506,
      "ous": 507,
      "ine": 508,
      "de": 509,
      "ill": 510,
      "reat": 511,
      "up": 512,
      "Ġsp": 513,
      "tro": 514,
      "gn": 515,
      "Ġad": 516,
      "ĠO": 517,
      "ence": 518,
      "Ġpar": 519,
      "fect": 520,
      "usc": 521,
      "oci": 522,
      "Ġprote": 523,
      "Ġper": 524,
      "Ġamyotrophic": 525,
      "ord": 526,
      "ary": 527,
      "OD": 528,
      "Ġpath": 529,
      "Ġhe": 530,
      "ide": 531,
      "ression": 532,
      "Ġclinical": 533,
      "Ġ0": 534,
      "Ġsign": 535,
      "Ġev": 536,
      "ĠB": 537,
      "gener": 538,
      "ist": 539,
      "Ġsh": 540,
      "ffect": 541,
      "ility": 542,
      "Ġco": 543,
      "ases": 544,
      "ĠL": 545,
      "MA": 546,
      "Ġha": 547,
      "Ġmod": 548,
      "Ġ3": 549,
      "ther": 550,
      "ug": 551,
      "ions": 552,
      "ased": 553,
      "Ġac": 554,
      "Ġincl": 555,
      "Ġsc": 556,
      "ĠG": 557,
      "ome": 558,
      "Ġprotein": 559,
      "st": 560,
      "vel": 561,
      "00": 562,
      "Ġph": 563,
      "mon": 564,
      "ri": 565,
      "Ġbet": 566,
      "em": 567,
      "ost": 568,
      "Ġthis": 569,
      "vi": 570,
      "Ġfunction": 571,
      "ect": 572,
      "ON": 573,
      "Ġprog": 574,
      "ĠWe": 575,
      "Ġwill": 576,
      "Ġinv": 577,
      "Ġtreat": 578,
      "we": 579,
      "Ġcel": 580,
      "Ġpre": 581,
      "Ġanal": 582,
      "Ġ-": 583,
      "Ġ=": 584,
      "43": 585,
      "NA": 586,
      "ap": 587,
      "DP": 588,
      "Ġmut": 589,
      "form": 590,
      "ark": 591,
      "Ġab": 592,
      "and": 593,
      "Ġassoci": 594,
      "ens": 595,
      "rent": 596,
      "ear": 597,
      "iagn": 598,
      "ating": 599,
      "ants": 600,
      "Ġind": 601,
      "Ġnot": 602,
      "tem": 603,
      "ĠTh": 604,
      "Ġhave": 605,
      "ag": 606,
      "ance": 607,
      "Ġinter": 608,
      "ind": 609,
      "alu": 610,
      "ween": 611,
      "Ġsub": 612,
      "Ġdif": 613,
      "Ġal": 614,
      "etic": 615,
      "Ġinclud": 616,
      "Ġmusc": 617,
      "Ġy": 618,
      "Ġbetween": 619,
      "ied": 620,
      "erv": 621,
      "able": 622,
      "ition": 623,
      "ym": 624,
      "ron": 625,
      "yp": 626,
      "Ġun": 627,
      "ight": 628,
      "ures": 629,
      "ident": 630,
      "atory": 631,
      "ari": 632,
      "Ġreg": 633,
      "ticip": 634,
      "ich": 635,
      "Ġdiagn": 636,
      "US": 637,
      "low": 638,
      "Ġhigh": 639,
      "Ġtrans": 640,
      "Ġtreatment": 641,
      "ificant": 642,
      "Ġmet": 643,
      "Ġcontro": 644,
      "ulation": 645,
      "gg": 646,
      "ological": 647,
      "age": 648,
      "Ġrep": 649,
      "pect": 650,
      "reg": 651,
      "Ġsur": 652,
      "enc": 653,
      "Ġther": 654,
      "Ġund": 655,
      "ke": 656,
      "ors": 657,
      "Ġsignificant": 658,
      "ose": 659,
      "Ġanalys": 660,
      "rit": 661,
      "degener": 662,
      "ale": 663,
      "72": 664,
      "ual": 665,
      "Ġassess": 666,
      "fic": 667,
      "ogen": 668,
      "ice": 669,
      "Ġbi": 670,
      "Ġmon": 671,
      "Ġit": 672,
      "Ġident": 673,
      "Ġpl": 674,
      "ype": 675,
      "ates": 676,
      "Ġmodel": 677,
      "ast": 678,
      "Ġdat": 679,
      "ject": 680,
      "pec": 681,
      "Ġdiffe": 682,
      "roup": 683,
      "Ġincre": 684,
      "Ġwhich": 685,
      "Ġrec": 686,
      "Ġneurodegener": 687,
      "MN": 688,
      "Ġob": 689,
      "Ġshow": 690,
      "Ġeffect": 691,
      "lect": 692,
      "rel": 693,
      "ew": 694,
      "ĠTDP": 695,
      "ĠSMA": 696,
      "ole": 697,
      "ub": 698,
      "lo": 699,
      "ism": 700,
      "itive": 701,
      "ptom": 702,
      "Ġ4": 703,
      "Ġapp": 704,
      "ard": 705,
      "Ġrel": 706,
      "Ġpres": 707,
      "Ġ5": 708,
      "ized": 709,
      "ĠU": 710,
      "Ġmeas": 711,
      "Ġdet": 712,
      "Ġint": 713,
      "Ġcor": 714,
      "Ġen": 715,
      "Ġusing": 716,
      "oth": 717,
      "ĠThis": 718,
      "ential": 719,
      "ymptom": 720,
      "ugh": 721,
      "Ġidentif": 722,
      "ang": 723,
      "orf": 724,
      "Ġresp": 725,
      "Ġyear": 726,
      "Ġmay": 727,
      "ES": 728,
      "Ġcan": 729,
      "set": 730,
      "oss": 731,
      "Ġqu": 732,
      "kn": 733,
      "Ġcons": 734,
      "Ġassociated": 735,
      "Ġact": 736,
      "rain": 737,
      "ond": 738,
      "Ġspinal": 739,
      "alth": 740,
      "uct": 741,
      "inding": 742,
      "TD": 743,
      "ass": 744,
      "ology": 745,
      "Ġcaus": 746,
      "Ġparticip": 747,
      "Ġresult": 748,
      "ystem": 749,
      "Ġvari": 750,
      "oral": 751,
      "ION": 752,
      "Ġno": 753,
      "ime": 754,
      "Ġbeen": 755,
      "min": 756,
      "Ġhas": 757,
      "'s": 758,
      "ound": 759,
      "Ġdata": 760,
      "ros": 761,
      "one": 762,
      "Ġage": 763,
      "estig": 764,
      "ong": 765,
      "ival": 766,
      "Ġ6": 767,
      "Ġgroup": 768,
      "lic": 769,
      "Ġro": 770,
      "rophy": 771,
      "Ġthese": 772,
      "riter": 773,
      "Ġneurons": 774,
      "Ġacc": 775,
      "ET": 776,
      "out": 777,
      "ND": 778,
      "Ġstudies": 779,
      "Ġpot": 780,
      "Ġra": 781,
      "riteria": 782,
      "Ġdur": 783,
      "ĠSOD": 784,
      "ue": 785,
      "Ġneurodegenerative": 786,
      "Ġris": 787,
      "Ġtheir": 788,
      "vival": 789,
      "velop": 790,
      "Ġanalysis": 791,
      "Ġyears": 792,
      "ared": 793,
      "ach": 794,
      "Ġgene": 795,
      "Ġtest": 796,
      "Ġgenetic": 797,
      "utc": 798,
      "lso": 799,
      "Ġmed": 800,
      "atic": 801,
      "Ġpotential": 802,
      "idence": 803,
      "mun": 804,
      "Ġmuscle": 805,
      "all": 806,
      "Ġmonth": 807,
      "uld": 808,
      "vels": 809,
      "ments": 810,
      "vent": 811,
      "TS": 812,
      "Ġcell": 813,
      "Ġalso": 814,
      "pl": 815,
      "Ġevalu": 816,
      "Ġinvestig": 817,
      "Ġprov": 818,
      "chan": 819,
      "ucle": 820,
      "Ġall": 821,
      "Ġsystem": 822,
      "usion": 823,
      "Ġdevelop": 824,
      "Ġhealth": 825,
      "Ġprogression": 826,
      "Ġlow": 827,
      "Ġlevels": 828,
      "Ġpatient": 829,
      "Ġsurvival": 830,
      "Ġ9": 831,
      "Ġbut": 832,
      "acter": 833,
      "Ġdisord": 834,
      "Ġnon": 835,
      "Ġcond": 836,
      "ays": 837,
      "Ġother": 838,
      "Ġpo": 839,
      "Ġdiseases": 840,
      "Ġsymptom": 841,
      "ox": 842,
      "ront": 843,
      "Ġthan": 844,
      "emp": 845,
      "Ġ20": 846,
      "arg": 847,
      "our": 848,
      "rim": 849,
      "ability": 850,
      "Ġrisk": 851,
      "ile": 852,
      "Ġdys": 853,
      "ange": 854,
      "UL": 855,
      "yt": 856,
      "Ġused": 857,
      "peat": 858,
      "view": 859,
      "ail": 860,
      "Ġperform": 861,
      "Ġtime": 862,
      "Ġma": 863,
      "aracter": 864,
      "fter": 865,
      "Ġactiv": 866,
      "ree": 867,
      "Ġfact": 868,
      "ĠV": 869,
      "ogn": 870,
      "ollow": 871,
      "omark": 872,
      "Ġunder": 873,
      "wo": 874,
      "ite": 875,
      "emporal": 876,
      "Ġcells": 877,
      "tain": 878,
      "Ġincluding": 879,
      "Ġreport": 880,
      "ild": 881,
      "ormal": 882,
      "cent": 883,
      "Ġmonths": 884,
      "yn": 885,
      "Ġmechan": 886,
      "ĠRES": 887,
      "ĠRe": 888,
      "Ġonset": 889,
      "Ġsugg": 890,
      "Ġsuggest": 891,
      "Ġdifferent": 892,
      "fl": 893,
      "Ġatrophy": 894,
      "ĠRESUL": 895,
      "Ġcases": 896,
      "Ġfam": 897,
      "ĠRESULTS": 898,
      "Ġcharacter": 899,
      "umb": 900,
      "ere": 901,
      "str": 902,
      "Ġcontrols": 903,
      "ved": 904,
      "Ġrepeat": 905,
      "Ġappro": 906,
      "Ġmult": 907,
      "cess": 908,
      "Ġdr": 909,
      "Ġsupp": 910,
      "ĠAmyotrophic": 911,
      "ĠMET": 912,
      "HOD": 913,
      "line": 914,
      "cept": 915,
      "Ġcompared": 916,
      "Ġmore": 917,
      "uced": 918,
      "Ġstr": 919,
      "ĠMETHOD": 920,
      "CL": 921,
      "CT": 922,
      "Ġtrial": 923,
      "ape": 924,
      "pecific": 925,
      "Ġboth": 926,
      "Ġdiagnosis": 927,
      "Ġuse": 928,
      "own": 929,
      "ĠSc": 930,
      "Ġfollow": 931,
      "ffic": 932,
      "Ġred": 933,
      "serv": 934,
      "Ġcomple": 935,
      "Ġtherap": 936,
      "ĠPati": 937,
      "anges": 938,
      "Ġresults": 939,
      "ting": 940,
      "ace": 941,
      "mentia": 942,
      "Ġbiomark": 943,
      "Ġmice": 944,
      "ety": 945,
      "Ġdes": 946,
      "ĠMETHODS": 947,
      "Ġprogress": 948,
      "ted": 949,
      "RS": 950,
      "anc": 951,
      "Ġbrain": 952,
      "ever": 953,
      "creen": 954,
      "ise": 955,
      "Ġpred": 956,
      "hed": 957,
      "ire": 958,
      "ital": 959,
      "ian": 960,
      "ised": 961,
      "ivid": 962,
      "Ġobserv": 963,
      "USION": 964,
      "CLUSION": 965,
      "ational": 966,
      "Ġover": 967,
      "ĠCON": 968,
      "apeut": 969,
      "Ġman": 970,
      "Ġform": 971,
      "Ġinvol": 972,
      "king": 973,
      "Ġpathogen": 974,
      "ĠCONCLUSION": 975,
      "otemporal": 976,
      "Ġmutations": 977,
      "ities": 978,
      "apeutic": 979,
      "related": 980,
      "ĠSt": 981,
      "ality": 982,
      "Ġidentified": 983,
      "iratory": 984,
      "ibut": 985,
      "tribut": 986,
      "ĠSclerosis": 987,
      "Ġafter": 988,
      "Ġfound": 989,
      "ric": 990,
      "Ġfe": 991,
      "Ġmechanism": 992,
      "rontotemporal": 993,
      "Ġtwo": 994,
      "IV": 995,
      "ĠLateral": 996,
      "erm": 997,
      "Ġhad": 998,
      "hort": 999,
      "pective": 1000,
      "arget": 1001,
      "Ġduring": 1002,
      "Ġphen": 1003,
      "Ġdiagnos": 1004,
      "Ġmost": 1005,
      "arly": 1006,
      "ically": 1007,
      "air": 1008,
      "Ġwho": 1009,
      "ons": 1010,
      "oph": 1011,
      "urther": 1012,
      "Ġimpro": 1013,
      "asm": 1014,
      "Ġpresent": 1015,
      "Ġcl": 1016,
      "Ġdementia": 1017,
      "ible": 1018,
      "ividual": 1019,
      "Ġcar": 1020,
      "Ġincreased": 1021,
      "FTD": 1022,
      "utcome": 1023,
      "Ġwhe": 1024,
      "arch": 1025,
      "hib": 1026,
      "med": 1027,
      "Ġchanges": 1028,
      "ĠRNA": 1029,
      "Ġfinding": 1030,
      "owever": 1031,
      "Ġexpression": 1032,
      "Ġscore": 1033,
      "Ġtherapeutic": 1034,
      "Ġdegener": 1035,
      "ined": 1036,
      "amm": 1037,
      "ks": 1038,
      "iab": 1039,
      "Ġtra": 1040,
      "per": 1041,
      "ived": 1042,
      "ob": 1043,
      "Ġits": 1044,
      "Ġloss": 1045,
      "sy": 1046,
      "ited": 1047,
      "Ġag": 1048,
      "Ġindic": 1049,
      "istr": 1050,
      "rough": 1051,
      "Ġreview": 1052,
      "Ġext": 1053,
      "Ġsignificantly": 1054,
      "Ġpop": 1055,
      "int": 1056,
      "Ġaut": 1057,
      "rimary": 1058,
      "ization": 1059,
      "ores": 1060,
      "Ġlower": 1061,
      "uscular": 1062,
      "der": 1063,
      "Ġsam": 1064,
      "Ġdrug": 1065,
      "Ġar": 1066,
      "Ġshowed": 1067,
      "pend": 1068,
      "ĠPatients": 1069,
      "otal": 1070,
      "Ġsubject": 1071,
      "Ġcare": 1072,
      "Ġperi": 1073,
      "Ġwithin": 1074,
      "aseline": 1075,
      "RO": 1076,
      "Ġrole": 1077,
      "Ġparticipants": 1078,
      "ĠNe": 1079,
      "AC": 1080,
      "val": 1081,
      "Ġexpans": 1082,
      "ognitive": 1083,
      "Ġlim": 1084,
      "Ġsupport": 1085,
      "Ġant": 1086,
      "ife": 1087,
      "pinal": 1088,
      "ĠCriteria": 1089,
      "its": 1090,
      "Ġkn": 1091,
      "Ġindividual": 1092,
      "Ġadd": 1093,
      "abol": 1094,
      "urrent": 1095,
      "ral": 1096,
      "Ġ7": 1097,
      "Ġhyp": 1098,
      "hod": 1099,
      "Ġaffect": 1100,
      "uman": 1101,
      "cular": 1102,
      "ram": 1103,
      "Ġagg": 1104,
      "10": 1105,
      "art": 1106,
      "Ġmuscular": 1107,
      "Ġtarget": 1108,
      "Ġrem": 1109,
      "irst": 1110,
      "Ġprogressive": 1111,
      "Ġsuch": 1112,
      "Ġphenot": 1113,
      "Ġinto": 1114,
      "mb": 1115,
      "cri": 1116,
      "ency": 1117,
      "Ġhigher": 1118,
      "Ġconf": 1119,
      "veral": 1120,
      "ins": 1121,
      "Ġfindings": 1122,
      "Ġmic": 1123,
      "umber": 1124,
      "clusion": 1125,
      "Ġcohort": 1126,
      "Ġproteins": 1127,
      "Ġwell": 1128,
      "log": 1129,
      "tern": 1130,
      "iss": 1131,
      "Ġdisc": 1132,
      "Ġ8": 1133,
      "Ġexam": 1134,
      "Ġser": 1135,
      "Ġdeath": 1136,
      "af": 1137,
      "ily": 1138,
      "Ġrese": 1139,
      "Ġone": 1140,
      "ĠScale": 1141,
      "port": 1142,
      "ĠSMN": 1143,
      "ĠCh": 1144,
      "Ġmutation": 1145,
      "hes": 1146,
      "ural": 1147,
      "Ġscreen": 1148,
      "function": 1149,
      "ne": 1150,
      "Ġ10": 1151,
      "iqu": 1152,
      "Ġlong": 1153,
      "ech": 1154,
      "FRS": 1155,
      "ĠTo": 1156,
      "ĠMe": 1157,
      "Ġthrough": 1158,
      "Ġdegeneration": 1159,
      "acy": 1160,
      "Ġend": 1161,
      "vement": 1162,
      "cc": 1163,
      "Ġgenes": 1164,
      "Ġfunctional": 1165,
      "Ġaim": 1166,
      "vers": 1167,
      "Ġpredic": 1168,
      "RNA": 1169,
      "Ġcord": 1170,
      "monstr": 1171,
      "ĠThese": 1172,
      "Ġaggreg": 1173,
      "ry": 1174,
      "Ġfirst": 1175,
      "Ġdemonstr": 1176,
      "ha": 1177,
      "Ġcommon": 1178,
      "aging": 1179,
      "Ġest": 1180,
      "raph": 1181,
      "old": 1182,
      "Ġsymptoms": 1183,
      "ked": 1184,
      "RI": 1185,
      "Ġins": 1186,
      "erst": 1187,
      "Ġresearch": 1188,
      "ypes": 1189,
      "Ġearly": 1190,
      "Ġfrontotemporal": 1191,
      "Ġimmun": 1192,
      "ross": 1193,
      "Ġobserved": 1194,
      "Ġthere": 1195,
      "ike": 1196,
      "Ġmodels": 1197,
      "cript": 1198,
      "ĠAl": 1199,
      "Ġdisorders": 1200,
      "ional": 1201,
      "SC": 1202,
      "The": 1203,
      "lood": 1204,
      "Ġour": 1205,
      "93": 1206,
      "fer": 1207,
      "Ġfactors": 1208,
      "ured": 1209,
      "ibility": 1210,
      "Ġnew": 1211,
      "Ġcontrol": 1212,
      "fore": 1213,
      "Ġhuman": 1214,
      "upp": 1215,
      "ĠFunction": 1216,
      "Ġlead": 1217,
      "Ġtype": 1218,
      "Ġ12": 1219,
      "Ġ<": 1220,
      "Ġneed": 1221,
      "vere": 1222,
      "av": 1223,
      "Ġtotal": 1224,
      "Ġfamil": 1225,
      "lig": 1226,
      "ran": 1227,
      "istic": 1228,
      "Ġup": 1229,
      "ĠK": 1230,
      "xim": 1231,
      "Ġpos": 1232,
      "erg": 1233,
      "ĠOur": 1234,
      "adic": 1235,
      "les": 1236,
      "Ġem": 1237,
      "ĠAn": 1238,
      "Ġperformed": 1239,
      "ograph": 1240,
      "Ġrespiratory": 1241,
      "Ġcont": 1242,
      "Ġcol": 1243,
      "Ġevidence": 1244,
      "flamm": 1245,
      "Ġinc": 1246,
      "Ġtherapy": 1247,
      "veal": 1248,
      "SF": 1249,
      "Ġvalu": 1250,
      "Ġcognitive": 1251,
      "ĠHowever": 1252,
      "mong": 1253,
      "Ġpopulation": 1254,
      "Ġmethod": 1255,
      "Ġeffects": 1256,
      "Ġincluded": 1257,
      "Ġimpair": 1258,
      "let": 1259,
      "ep": 1260,
      "ould": 1261,
      "oradic": 1262,
      "afety": 1263,
      "havi": 1264,
      "rence": 1265,
      "cond": 1266,
      "Ġpe": 1267,
      "ust": 1268,
      "Ġreveal": 1269,
      "Ġinform": 1270,
      "Ġunderst": 1271,
      "ĠAs": 1272,
      "based": 1273,
      "Ġpathw": 1274,
      "are": 1275,
      "Ġneurop": 1276,
      "Ġmicro": 1277,
      "requ": 1278,
      "ork": 1279,
      "ex": 1280,
      "ysi": 1281,
      "Ġmetabol": 1282,
      "Ġmole": 1283,
      "Ġdef": 1284,
      "gth": 1285,
      "pendent": 1286,
      "ĠCI": 1287,
      "Ġcould": 1288,
      "ulb": 1289,
      "omp": 1290,
      "Ġimport": 1291,
      "Ġmechanisms": 1292,
      "itional": 1293,
      "fil": 1294,
      "uction": 1295,
      "Ġhealthy": 1296,
      "ough": 1297,
      "Ġspecific": 1298,
      "Ġlife": 1299,
      "LD": 1300,
      "ces": 1301,
      "vised": 1302,
      "Ġnucle": 1303,
      "kin": 1304,
      "ulbar": 1305,
      "Ġmeasure": 1306,
      "over": 1307,
      "ature": 1308,
      "lev": 1309,
      "Ġsporadic": 1310,
      "iple": 1311,
      "Ġstat": 1312,
      "lu": 1313,
      "Ġremain": 1314,
      "Ġneurolog": 1315,
      "normal": 1316,
      "Ġonly": 1317,
      "Ġcorrel": 1318,
      "ination": 1319,
      "Ġwee": 1320,
      "esis": 1321,
      "UND": 1322,
      "Ġreported": 1323,
      "Ġhist": 1324,
      "Ġdysfunction": 1325,
      "Ġblood": 1326,
      "urom": 1327,
      "Ġocc": 1328,
      "Ġnumber": 1329,
      "Ġpost": 1330,
      "Ġbaseline": 1331,
      "Ġcontribut": 1332,
      "Ġdevelopment": 1333,
      "ract": 1334,
      "Ġpathology": 1335,
      "ak": 1336,
      "omes": 1337,
      "och": 1338,
      "ĠFTD": 1339,
      "Ġcyt": 1340,
      "pos": 1341,
      "zole": 1342,
      "Ġprocess": 1343,
      "vious": 1344,
      "AR": 1345,
      "Ġbiomarkers": 1346,
      "Ġsubjects": 1347,
      "Ġvis": 1348,
      "Ġexpansion": 1349,
      "Ġvariants": 1350,
      "In": 1351,
      "ced": 1352,
      "Ġprovid": 1353,
      "Ġinde": 1354,
      "Ġrate": 1355,
      "KG": 1356,
      "Ġchild": 1357,
      "Ġcarri": 1358,
      "Ġidentify": 1359,
      "ĠCONCLUSIONS": 1360,
      "Ġscreening": 1361,
      "Ġexper": 1362,
      "Ġ[": 1363,
      "BAC": 1364,
      "Ġthree": 1365,
      "ocal": 1366,
      "Ġassessed": 1367,
      "Ġscores": 1368,
      "Ġcurrent": 1369,
      "sych": 1370,
      "Ġposs": 1371,
      "ROUND": 1372,
      "KGROUND": 1373,
      "%)": 1374,
      "ĠFUS": 1375,
      "ĠFunctional": 1376,
      "onse": 1377,
      "Ġfrequ": 1378,
      "Ġdecre": 1379,
      "Ġany": 1380,
      "Ġprovide": 1381,
      "01": 1382,
      "Ġgl": 1383,
      "BACKGROUND": 1384,
      "opath": 1385,
      "Ġgroups": 1386,
      "Ġmit": 1387,
      "Ġrece": 1388,
      "uromuscular": 1389,
      "ĠAd": 1390,
      "Ġcriteria": 1391,
      "ĠMeas": 1392,
      "oun": 1393,
      "ilu": 1394,
      "Ġeach": 1395,
      "con": 1396,
      "iluzole": 1397,
      "Ġeffic": 1398,
      "ivity": 1399,
      "IN": 1400,
      "rote": 1401,
      "Ġcent": 1402,
      "AS": 1403,
      "gl": 1404,
      "ics": 1405,
      "ateg": 1406,
      "tered": 1407,
      "ator": 1408,
      "rial": 1409,
      "action": 1410,
      "ulated": 1411,
      "Ġpoly": 1412,
      "Ġsens": 1413,
      "Ġbased": 1414,
      "MS": 1415,
      "atures": 1416,
      "Ġcause": 1417,
      "Ġsim": 1418,
      "Ġstress": 1419,
      "lasm": 1420,
      "Ġelect": 1421,
      "Ġwithout": 1422,
      "ivers": 1423,
      "ouse": 1424,
      "ize": 1425,
      "ired": 1426,
      "ersen": 1427,
      "ĠIt": 1428,
      "Ġthose": 1429,
      "iver": 1430,
      "TLD": 1431,
      "ish": 1432,
      "AT": 1433,
      "ification": 1434,
      "ĠEx": 1435,
      "cr": 1436,
      "ful": 1437,
      "icity": 1438,
      "Ġindividuals": 1439,
      "Ġdist": 1440,
      "Ġactivity": 1441,
      "ient": 1442,
      "Ġprob": 1443,
      "Ġnovel": 1444,
      "upper": 1445,
      "Ġneuronal": 1446,
      "ody": 1447,
      "ĠHere": 1448,
      "Ġperiod": 1449,
      "Ġrequ": 1450,
      "Amyotrophic": 1451,
      "Ġ\\": 1452,
      "Ġlin": 1453,
      "Ġmain": 1454,
      "Ġ95": 1455,
      "ie": 1456,
      "ĠRes": 1457,
      "Ġpers": 1458,
      "ru": 1459,
      "ĠQ": 1460,
      "Ġadmin": 1461,
      "osp": 1462,
      "Ġunderstand": 1463,
      "Ġvent": 1464,
      "Ġdisorder": 1465,
      "Ġinhib": 1466,
      "ior": 1467,
      "cer": 1468,
      "lation": 1469,
      "Ġupper": 1470,
      "ECT": 1471,
      "Ġdiagnostic": 1472,
      "Ġassociation": 1473,
      "ene": 1474,
      "itud": 1475,
      "Ġprom": 1476,
      "Ġabnormal": 1477,
      "Ġtrials": 1478,
      "lled": 1479,
      "Ġamong": 1480,
      "ociated": 1481,
      "ereb": 1482,
      "verse": 1483,
      "Ġrelated": 1484,
      "Ġprimary": 1485,
      "Ġstruct": 1486,
      "Ġbehavi": 1487,
      "ĠWith": 1488,
      "Ġmat": 1489,
      "crib": 1490,
      "Ġintervent": 1491,
      "ĠRating": 1492,
      "ĠThere": 1493,
      "Ġfamilial": 1494,
      "ood": 1495,
      "BJ": 1496,
      "rior": 1497,
      "AP": 1498,
      "arm": 1499,
      "ix": 1500,
      "Ġsequ": 1501,
      "Ġbulbar": 1502,
      "alid": 1503,
      "ĠDNA": 1504,
      "ochond": 1505,
      "BJECT": 1506,
      "BJECTIV": 1507,
      "ingle": 1508,
      "bo": 1509,
      "Ġmark": 1510,
      "Ġquality": 1511,
      "kness": 1512,
      "Ġdays": 1513,
      "Ġimpairment": 1514,
      "Ġfurther": 1515,
      "hem": 1516,
      "Ġresponse": 1517,
      "Ġdose": 1518,
      "reated": 1519,
      "SMA": 1520,
      "Ġpathogenesis": 1521,
      "Ġdo": 1522,
      "/-": 1523,
      "ĠPar": 1524,
      "ndom": 1525,
      "Ġpathological": 1526,
      "Ġmolecular": 1527,
      "11": 1528,
      "Ġmean": 1529,
      "arge": 1530,
      "ĠStud": 1531,
      "Ġcort": 1532,
      "rences": 1533,
      "Ġcap": 1534,
      "Ġpart": 1535,
      "CI": 1536,
      "alys": 1537,
      "Ġmin": 1538,
      "Ġmouse": 1539,
      "Ġ18": 1540,
      "Ġprevious": 1541,
      "ĠDe": 1542,
      "iven": 1543,
      "usin": 1544,
      "Ġmeasures": 1545,
      "Ġfeatures": 1546,
      "ified": 1547,
      "Ġmeasured": 1548,
      "Ġout": 1549,
      "sc": 1550,
      "Ġinte": 1551,
      "ently": 1552,
      "Ġdel": 1553,
      "ospital": 1554,
      "Ġmultiple": 1555,
      "usinersen": 1556,
      "Ġincrease": 1557,
      "lected": 1558,
      "Ġreduced": 1559,
      "SOD": 1560,
      "yz": 1561,
      "Ġdetect": 1562,
      "TDP": 1563,
      "12": 1564,
      "ection": 1565,
      "Ġax": 1566,
      "Ġprod": 1567,
      "Ġinit": 1568,
      "Ġnormal": 1569,
      "Ġknown": 1570,
      "andard": 1571,
      "Ġtox": 1572,
      "Ġpredict": 1573,
      "ĠOutcome": 1574,
      "Ġsyn": 1575,
      "Re": 1576,
      "Ġprior": 1577,
      "Ġconfir": 1578,
      "Ġneuromuscular": 1579,
      "001": 1580,
      "Ġplace": 1581,
      "Ġsm": 1582,
      "associated": 1583,
      "ĠCon": 1584,
      "Ġrandom": 1585,
      "Ġcharacterized": 1586,
      "Ġj": 1587,
      "Ġvalid": 1588,
      "jor": 1589,
      "Ġlevel": 1590,
      "Ġav": 1591,
      "Ġsafety": 1592,
      "Ġdeter": 1593,
      "ople": 1594,
      "Ġoccur": 1595,
      "ording": 1596,
      "iated": 1597,
      "ĠMeasures": 1598,
      "19": 1599,
      "pectively": 1600,
      "OR": 1601,
      "Ġsevere": 1602,
      "Ġcereb": 1603,
      "iving": 1604,
      "ell": 1605,
      "ify": 1606,
      "oplasm": 1607,
      "Ġcal": 1608,
      "Ġta": 1609,
      "Ġ+": 1610,
      "ack": 1611,
      "Ġassessment": 1612,
      "Ġmitochond": 1613,
      "Ġscale": 1614,
      "itor": 1615,
      "Ġevaluate": 1616,
      "Ġventil": 1617,
      "atal": 1618,
      "onal": 1619,
      "Ġwhether": 1620,
      "Ġdue": 1621,
      "ĠAt": 1622,
      "Ġrevealed": 1623,
      "Ġimportant": 1624,
      "PR": 1625,
      "ately": 1626,
      "Ġanalyz": 1627,
      "Ġcomplex": 1628,
      "erve": 1629,
      "Ġmutant": 1630,
      "ving": 1631,
      "ĠJ": 1632,
      "Ġimpact": 1633,
      "ium": 1634,
      "Ġwhile": 1635,
      "omy": 1636,
      "inson": 1637,
      "Ġ\"": 1638,
      "Ġpositive": 1639,
      "18": 1640,
      "ially": 1641,
      "Ġ30": 1642,
      "Ġap": 1643,
      "Ġmajor": 1644,
      "itions": 1645,
      "Ġcase": 1646,
      "her": 1647,
      "echn": 1648,
      "imal": 1649,
      "BP": 1650,
      "Ġwhen": 1651,
      "Ġconduct": 1652,
      "Ġvar": 1653,
      "Ġchange": 1654,
      "usions": 1655,
      "ĠCSF": 1656,
      "apt": 1657,
      "ten": 1658,
      "Ġhistory": 1659,
      "Ġmy": 1660,
      "utcomes": 1661,
      "Ġsingle": 1662,
      "Ġneurological": 1663,
      "alysis": 1664,
      "Ġbiomarker": 1665,
      "Ġquest": 1666,
      "95": 1667,
      "Ġcomb": 1668,
      "Ġweeks": 1669,
      "Ġdep": 1670,
      "light": 1671,
      "Ġprogn": 1672,
      "Ġoutcome": 1673,
      "Ġexpl": 1674,
      "Ġadult": 1675,
      "Ġclass": 1676,
      "Ġinj": 1677,
      "hip": 1678,
      "Ġphys": 1679,
      "Ġduration": 1680,
      "ĠFurther": 1681,
      "cles": 1682,
      "Ġdom": 1683,
      "rength": 1684,
      "abl": 1685,
      "Ġvol": 1686,
      "ermine": 1687,
      "Ġdescrib": 1688,
      "Ġflu": 1689,
      "Ġam": 1690,
      "Ġimaging": 1691,
      "ĠParticip": 1692,
      "Ġsampl": 1693,
      "ning": 1694,
      "ĠNeuro": 1695,
      "Ġeffective": 1696,
      "Ġspec": 1697,
      "Ġriluzole": 1698,
      "ogene": 1699,
      "ĠPh": 1700,
      "ove": 1701,
      "centr": 1702,
      "Ġpathogenic": 1703,
      "Ġwhere": 1704,
      "Ġfactor": 1705,
      "Ġefficacy": 1706,
      "Ġrati": 1707,
      "Ġpossible": 1708,
      "Ġpeople": 1709,
      "Ġestim": 1710,
      "Ġleast": 1711,
      "Ġox": 1712,
      "ness": 1713,
      "ages": 1714,
      "ĠPro": 1715,
      "Ġadv": 1716,
      "Ġconsist": 1717,
      "otide": 1718,
      "ĠStudy": 1719,
      "ished": 1720,
      "hy": 1721,
      "Ġdetermine": 1722,
      "Ġchildren": 1723,
      "vas": 1724,
      "though": 1725,
      "Ġfamily": 1726,
      "Ġspe": 1727,
      "Ġtechn": 1728,
      "Ġlarge": 1729,
      "Ġdev": 1730,
      "ler": 1731,
      "ĠDise": 1732,
      "ple": 1733,
      "Ġevaluated": 1734,
      "akness": 1735,
      "Ġheter": 1736,
      "Ġpat": 1737,
      "15": 1738,
      "Ġpreval": 1739,
      "Ġdifferences": 1740,
      "RN": 1741,
      "aus": 1742,
      "ute": 1743,
      "cell": 1744,
      "ĠIm": 1745,
      "istration": 1746,
      "condary": 1747,
      "GG": 1748,
      "Ġcareg": 1749,
      "acity": 1750,
      "Ġoutcomes": 1751,
      "ines": 1752,
      "Ġthey": 1753,
      "Ġanalyses": 1754,
      "ery": 1755,
      "Ġstandard": 1756,
      "Ġshould": 1757,
      "Ġquant": 1758,
      "iat": 1759,
      "ales": 1760,
      "Ġbefore": 1761,
      "lear": 1762,
      "Ġweakness": 1763,
      "osph": 1764,
      "tained": 1765,
      "Ġacross": 1766,
      "Ġexpos": 1767,
      "Ġet": 1768,
      "amet": 1769,
      "Ġvariant": 1770,
      "Ġed": 1771,
      "Ġmus": 1772,
      "VC": 1773,
      "Ġaggregation": 1774,
      "imer": 1775,
      "Ġspect": 1776,
      "Ġdid": 1777,
      "ocus": 1778,
      "Ġopt": 1779,
      "Ġdecl": 1780,
      "Ġmedical": 1781,
      "Ġstrateg": 1782,
      "na": 1783,
      "Ġk": 1784,
      "omet": 1785,
      "Ġabout": 1786,
      "Ġpoint": 1787,
      "ynd": 1788,
      "Ġphenotype": 1789,
      "Ġavail": 1790,
      "Ex": 1791,
      "Ġapproach": 1792,
      "ert": 1793,
      "Ġneurodegeneration": 1794,
      "yndrom": 1795,
      "20": 1796,
      "Ġpsych": 1797,
      "ilar": 1798,
      "ication": 1799,
      "Ġep": 1800,
      "ĠClinical": 1801,
      "iron": 1802,
      "asis": 1803,
      "Ġevents": 1804,
      "istry": 1805,
      "ues": 1806,
      "Ġpattern": 1807,
      "specific": 1808,
      "Ġstrength": 1809,
      "ld": 1810,
      "Ġintr": 1811,
      "ĠDes": 1812,
      "Ġfib": 1813,
      "Ġsignal": 1814,
      "ysiological": 1815,
      "Ġdetermin": 1816,
      "encing": 1817,
      "Ġpathways": 1818,
      "Ġtiss": 1819,
      "ĠAD": 1820,
      "ĠUn": 1821,
      "cription": 1822,
      "ĠFTLD": 1823,
      "row": 1824,
      "Ġop": 1825,
      "ĠALSFRS": 1826,
      "AD": 1827,
      "Ġexpress": 1828,
      "Ġconditions": 1829,
      "Ġconducted": 1830,
      "lying": 1831,
      "BJECTIVE": 1832,
      "Ġgreat": 1833,
      "ament": 1834,
      "Ġcarriers": 1835,
      "Ġenro": 1836,
      "oplasmic": 1837,
      "Ġmuscles": 1838,
      "Ġ19": 1839,
      "Ġalter": 1840,
      "lex": 1841,
      "Ġsever": 1842,
      "Ġrepres": 1843,
      "Ġ24": 1844,
      "ynam": 1845,
      "Ġcoun": 1846,
      "Ġinvolvement": 1847,
      "ationship": 1848,
      "Ġlike": 1849,
      "II": 1850,
      "Ġdefic": 1851,
      "Ġcharacteristic": 1852,
      "term": 1853,
      "ĠSub": 1854,
      "ophag": 1855,
      "Ġdemonstrated": 1856,
      "Ġsamples": 1857,
      "ilit": 1858,
      "Ġseverity": 1859,
      "Ġhow": 1860,
      "ĠMotor": 1861,
      "cit": 1862,
      "verall": 1863,
      "Ġinvolved": 1864,
      "Ġseveral": 1865,
      "flu": 1866,
      "Ġhighlight": 1867,
      "ytes": 1868,
      "flammatory": 1869,
      "ensive": 1870,
      "Ġsome": 1871,
      "Ġlimb": 1872,
      "Ġincidence": 1873,
      "Ġvariab": 1874,
      "Ġsyndrom": 1875,
      "Ġmitochondrial": 1876,
      "Ġserum": 1877,
      "Ġke": 1878,
      "irect": 1879,
      "ĠParticipants": 1880,
      "Ġdesign": 1881,
      "ography": 1882,
      "arkinson": 1883,
      "den": 1884,
      "uss": 1885,
      "mary": 1886,
      "Ġmg": 1887,
      "Ġcompar": 1888,
      "ĠMND": 1889,
      "ulations": 1890,
      "ule": 1891,
      "ched": 1892,
      "agement": 1893,
      "Ġaffected": 1894,
      "Ġphase": 1895,
      "Ġimprove": 1896,
      "ucleotide": 1897,
      "Ġintra": 1898,
      "Ġcorrelated": 1899,
      "ctive": 1900,
      "Ġconcentr": 1901,
      "Ġrare": 1902,
      "iatric": 1903,
      "Ġdec": 1904,
      "Ġ15": 1905,
      "Ġinvestigate": 1906,
      "Ġslow": 1907,
      "Ġbody": 1908,
      "Ġplacebo": 1909,
      "Ġif": 1910,
      "Ġrespectively": 1911,
      "13": 1912,
      "Ġunderstanding": 1913,
      "oint": 1914,
      "ves": 1915,
      "inant": 1916,
      "Ġcortex": 1917,
      "Ġcellular": 1918,
      "Ġventilation": 1919,
      "Ġpartic": 1920,
      "Ġcommun": 1921,
      "ĠAss": 1922,
      "Ġ+/-": 1923,
      "etw": 1924,
      "itative": 1925,
      "genic": 1926,
      "ĠWh": 1927,
      "Ġclinically": 1928,
      "oid": 1929,
      "Ġtesting": 1930,
      "Ġfollowing": 1931,
      "Ġrelationship": 1932,
      "Revised": 1933,
      "uture": 1934,
      "Ġsimilar": 1935,
      "Ġmis": 1936,
      "omen": 1937,
      "Ġcalc": 1938,
      "ostic": 1939,
      "ymptomatic": 1940,
      "Ġaccum": 1941,
      "Ġnusinersen": 1942,
      "ense": 1943,
      "wal": 1944,
      "ĠSpinal": 1945,
      "TR": 1946,
      "armac": 1947,
      "Ġplasm": 1948,
      "Ġref": 1949,
      "Ġvs": 1950,
      "Ġtherapies": 1951,
      "ĠFor": 1952,
      "Ġmot": 1953,
      "pha": 1954,
      "opathy": 1955,
      "toc": 1956,
      "ionna": 1957,
      "troc": 1958,
      "Ġregul": 1959,
      "Ġinf": 1960,
      "Ġdiagnosed": 1961,
      "NF": 1962,
      "Ġinformation": 1963,
      "Ġset": 1964,
      "ALSFRS": 1965,
      "omic": 1966,
      "ising": 1967,
      "Ch": 1968,
      "Ġbene": 1969,
      "Ġimplic": 1970,
      "Ġkey": 1971,
      "ĠSe": 1972,
      "clud": 1973,
      "Ġlit": 1974,
      "ven": 1975,
      "Ġsmall": 1976,
      "Ġdecreased": 1977,
      "Ġprevalence": 1978,
      "Ġvia": 1979,
      "Ġratio": 1980,
      "linic": 1981,
      "Ġavailable": 1982,
      "Ġstatus": 1983,
      "Ġbetter": 1984,
      "tocol": 1985,
      "Ġ>": 1986,
      "binding": 1987,
      "gative": 1988,
      "like": 1989,
      "Ġfem": 1990,
      "spective": 1991,
      "erc": 1992,
      "PA": 1993,
      "Ġlab": 1994,
      "ĠParkinson": 1995,
      "ĠDisease": 1996,
      "14": 1997,
      "ither": 1998,
      "))": 1999,
      "Ġ14": 2000,
      "Ġinvestigated": 2001,
      "Ġparticular": 2002,
      "NS": 2003,
      "Ġdi": 2004,
      "zhe": 2005,
      "Ġexperi": 2006,
      "ides": 2007,
      "Ġhome": 2008,
      "ĠMRI": 2009,
      "000": 2010,
      "Ġcaused": 2011,
      "zheimer": 2012,
      "Ġnerve": 2013,
      "ailed": 2014,
      "Ġneuropath": 2015,
      "bal": 2016,
      "MND": 2017,
      "Ġnerv": 2018,
      "Ġplasma": 2019,
      "Ġparamet": 2020,
      "Ġinteraction": 2021,
      "ax": 2022,
      "elf": 2023,
      "Ġcop": 2024,
      "Ġi": 2025,
      "Ġless": 2026,
      "itudinal": 2027,
      "Ġanalyzed": 2028,
      "utam": 2029,
      "Ġgener": 2030,
      "17": 2031,
      "Ġrecept": 2032,
      "ock": 2033,
      "cut": 2034,
      "Ġrange": 2035,
      "CA": 2036,
      "Ġability": 2037,
      "Ġaddition": 2038,
      "Ġinclusions": 2039,
      "Ġdecline": 2040,
      "gr": 2041,
      "Ġpresence": 2042,
      "onset": 2043,
      "âĢ": 2044,
      "Ġadverse": 2045,
      "CR": 2046,
      "ronic": 2047,
      "Ġprof": 2048,
      "Ġbre": 2049,
      "Ġel": 2050,
      "Ġsex": 2051,
      "ligibility": 2052,
      "go": 2053,
      "Ġstem": 2054,
      "Ġcapacity": 2055,
      "Ġtreated": 2056,
      "istered": 2057,
      "reatment": 2058,
      "ier": 2059,
      "Ġacid": 2060,
      "mental": 2061,
      "Ġaccording": 2062,
      "asing": 2063,
      "ĠAlzheimer": 2064,
      "ators": 2065,
      "ĠAll": 2066,
      "iency": 2067,
      "05": 2068,
      "ner": 2069,
      "Ġut": 2070,
      "Ġphysical": 2071,
      "mi": 2072,
      ")-": 2073,
      "Ġsus": 2074,
      "Ġdeveloped": 2075,
      "Ġestabl": 2076,
      "Ġcorrelation": 2077,
      "orph": 2078,
      "Ġfocus": 2079,
      "uble": 2080,
      "eta": 2081,
      "Ġdiscuss": 2082,
      "ER": 2083,
      "other": 2084,
      "ophagy": 2085,
      "Ġconfirmed": 2086,
      "ious": 2087,
      "sequ": 2088,
      "Ġvalues": 2089,
      "ental": 2090,
      "rad": 2091,
      ".,": 2092,
      "derived": 2093,
      "Ġactivation": 2094,
      "Ġdomain": 2095,
      "Ġtool": 2096,
      "Ġphenotypes": 2097,
      "Ġindependent": 2098,
      "Ġaimed": 2099,
      "Ġdeg": 2100,
      "iation": 2101,
      "ta": 2102,
      "ĠReg": 2103,
      "Ġleading": 2104,
      "21": 2105,
      "Ġbec": 2106,
      "Ġnetw": 2107,
      "rop": 2108,
      "flammation": 2109,
      "CC": 2110,
      "jective": 2111,
      "Ġmicrogl": 2112,
      "Ġfour": 2113,
      "fold": 2114,
      "ty": 2115,
      "viron": 2116,
      "idered": 2117,
      "Ġdefined": 2118,
      "omal": 2119,
      "anced": 2120,
      "Ġvers": 2121,
      "filament": 2122,
      "Ġhypot": 2123,
      "Ġregions": 2124,
      "Ġunderlying": 2125,
      "gan": 2126,
      "Ġsit": 2127,
      "Ġperformance": 2128,
      "Ġmemb": 2129,
      "urden": 2130,
      "Ġcauses": 2131,
      "ĠMed": 2132,
      "Ġrecord": 2133,
      "Ġdam": 2134,
      "Ġrelev": 2135,
      "read": 2136,
      "Ġconsidered": 2137,
      "Ġmi": 2138,
      "Ġcentral": 2139,
      "Ġnuclear": 2140,
      "wallow": 2141,
      "Ġvalue": 2142,
      "regulation": 2143,
      "ider": 2144,
      "itivity": 2145,
      "Ġstim": 2146,
      "ules": 2147,
      "Ġpathway": 2148,
      "Ġwork": 2149,
      "vasive": 2150,
      "Ġmight": 2151,
      "Ġbeing": 2152,
      "rong": 2153,
      "ĠNo": 2154,
      "ĠHe": 2155,
      "Ġanti": 2156,
      "Ġpract": 2157,
      "%,": 2158,
      "16": 2159,
      "Ġastroc": 2160,
      "GF": 2161,
      "ution": 2162,
      "pheral": 2163,
      "allen": 2164,
      "cal": 2165,
      "ances": 2166,
      "Ġinflu": 2167,
      "Ġoral": 2168,
      "Ġsyndrome": 2169,
      "ĠTAR": 2170,
      "Ġprotocol": 2171,
      "Ġenh": 2172,
      "Ġcortical": 2173,
      "Ġadministration": 2174,
      "Ġcollected": 2175,
      "Ġstrong": 2176,
      "ĠPD": 2177,
      "more": 2178,
      "oratory": 2179,
      "Ġevaluation": 2180,
      "Ġphosph": 2181,
      "Ġconsent": 2182,
      "urse": 2183,
      "Ġ50": 2184,
      "sing": 2185,
      "type": 2186,
      "Ġtreatments": 2187,
      "Ġrespons": 2188,
      "Ġfuture": 2189,
      "ummary": 2190,
      "Ġmanagement": 2191,
      "Ġbinding": 2192,
      "Ġfrequency": 2193,
      "kelet": 2194,
      "Ġpreviously": 2195,
      "Ġweight": 2196,
      "Ġvit": 2197,
      "MD": 2198,
      "SP": 2199,
      "par": 2200,
      "ortality": 2201,
      "cop": 2202,
      "uce": 2203,
      "Ġclinic": 2204,
      "ices": 2205,
      "50": 2206,
      "ater": 2207,
      "lp": 2208,
      "ĠAb": 2209,
      "year": 2210,
      "contro": 2211,
      "tervent": 2212,
      "Ġfollowed": 2213,
      "Ġmetabolism": 2214,
      "Ġgreater": 2215,
      "led": 2216,
      "Ġoxid": 2217,
      "IS": 2218,
      "Ġshown": 2219,
      "ĠGen": 2220,
      "Ġintervention": 2221,
      "Ġgeneral": 2222,
      "Ġvisit": 2223,
      "Ġmust": 2224,
      "Ġhospital": 2225,
      "ĠInd": 2226,
      "Ġwor": 2227,
      "NT": 2228,
      "me": 2229,
      "Ġgu": 2230,
      "ĠEv": 2231,
      "ensity": 2232,
      "Ġaccur": 2233,
      "aired": 2234,
      "Ġlocal": 2235,
      "Ġrepresent": 2236,
      "ressure": 2237,
      "lective": 2238,
      "Ġparticipant": 2239,
      "Ġfluid": 2240,
      "ts": 2241,
      "ives": 2242,
      "ĠComp": 2243,
      "Ġremains": 2244,
      "Ġsuper": 2245,
      "Ġeither": 2246,
      "com": 2247,
      "invasive": 2248,
      "Ġdirect": 2249,
      "ĠMN": 2250,
      "taining": 2251,
      "âĢ¯": 2252,
      "Ġdos": 2253,
      "avone": 2254,
      "ĠInclusion": 2255,
      "Ġpub": 2256,
      "Ġder": 2257,
      "Ġstage": 2258,
      "ĠFurthermore": 2259,
      "ane": 2260,
      "EM": 2261,
      "Ġ.": 2262,
      "aravone": 2263,
      "Ġexhib": 2264,
      "Primary": 2265,
      "Ġproced": 2266,
      "Ġcharacteristics": 2267,
      "Ġspeech": 2268,
      "Ġsum": 2269,
      "Ġ16": 2270,
      "aily": 2271,
      "Ġful": 2272,
      "Ġchallen": 2273,
      "Ġlob": 2274,
      "ĠMore": 2275,
      "Ġfunctions": 2276,
      "Ġcondition": 2277,
      "Ġfatal": 2278,
      "Summary": 2279,
      "Ġrelative": 2280,
      "Ġmethods": 2281,
      "Ġparameters": 2282,
      "Eligibility": 2283,
      "Ġvarious": 2284,
      "Ġfail": 2285,
      "Ġcourse": 2286,
      "Ġrecent": 2287,
      "Ġwould": 2288,
      "âī": 2289,
      "itle": 2290,
      "Ġnegative": 2291,
      "Ġ100": 2292,
      "Ġheterogene": 2293,
      "OBJECTIVE": 2294,
      "Ġent": 2295,
      "ionnaire": 2296,
      "Ġexposure": 2297,
      "Title": 2298,
      "ĠPre": 2299,
      "Ġ13": 2300,
      "Ġaggregates": 2301,
      "cip": 2302,
      "ms": 2303,
      "Ġalterations": 2304,
      "Ġcard": 2305,
      "Ġfac": 2306,
      "ences": 2307,
      "lement": 2308,
      "Ġlinked": 2309,
      "rum": 2310,
      "Ġhelp": 2311,
      "ĠSubject": 2312,
      "pro": 2313,
      "astic": 2314,
      "Ġlimited": 2315,
      "ID": 2316,
      "ension": 2317,
      "Ġlikely": 2318,
      "Ġretro": 2319,
      "ivo": 2320,
      "dependent": 2321,
      "25": 2322,
      "inu": 2323,
      "Ġhypothes": 2324,
      "Ġrates": 2325,
      "eld": 2326,
      "Ġmortality": 2327,
      "Ġmonitor": 2328,
      "to": 2329,
      "Ġinclude": 2330,
      "Ġdemonstrate": 2331,
      "erature": 2332,
      "PD": 2333,
      "Ġdetected": 2334,
      "Ġsigns": 2335,
      "Ġperipheral": 2336,
      "Ġdynam": 2337,
      "pected": 2338,
      "Ġtoxicity": 2339,
      "Exclusion": 2340,
      "Se": 2341,
      "Ġmaxim": 2342,
      "Ġitem": 2343,
      "oz": 2344,
      "yg": 2345,
      "Ġunc": 2346,
      "Ġtransport": 2347,
      "fL": 2348,
      "Ġinterval": 2349,
      "Ġlongitudinal": 2350,
      "Ġaccumulation": 2351,
      "Ġvital": 2352,
      "osomal": 2353,
      "Ġanimal": 2354,
      "Ġmany": 2355,
      "yl": 2356,
      "Ġsequencing": 2357,
      "went": 2358,
      "irc": 2359,
      "ĠAlthough": 2360,
      "Ġtim": 2361,
      "Ġregard": 2362,
      "Ġenviron": 2363,
      "iate": 2364,
      "Ġday": 2365,
      "Ġinsight": 2366,
      "mut": 2367,
      "Ġrap": 2368,
      "Ġtests": 2369,
      "Ġreduction": 2370,
      "22": 2371,
      "pose": 2372,
      "pite": 2373,
      "Ġdefin": 2374,
      "Ġdaily": 2375,
      "Ġburden": 2376,
      "otype": 2377,
      "Ġimmune": 2378,
      "Ġcontribute": 2379,
      "RP": 2380,
      "ether": 2381,
      "Ġinduced": 2382,
      "Ġnervous": 2383,
      "cellular": 2384,
      "40": 2385,
      "Ġexamined": 2386,
      "Ġincreasing": 2387,
      "oxide": 2388,
      "ward": 2389,
      "ision": 2390,
      "Ġobtained": 2391,
      "Ġvivo": 2392,
      "Ġmedian": 2393,
      "OS": 2394,
      "Ġcross": 2395,
      "oneuron": 2396,
      "anucleotide": 2397,
      "ade": 2398,
      "active": 2399,
      "Ġsuggesting": 2400,
      "Ġdefect": 2401,
      "Ġtranscript": 2402,
      "ults": 2403,
      "arent": 2404,
      "verage": 2405,
      "RNAs": 2406,
      "Ġlast": 2407,
      "Ġdamage": 2408,
      "Ġformation": 2409,
      "Ġelev": 2410,
      "ifying": 2411,
      "Ġdetermined": 2412,
      "keletal": 2413,
      "rag": 2414,
      "Ġplay": 2415,
      "Ġmarkers": 2416,
      "Ġâī": 2417,
      "Ġindicate": 2418,
      "Ġabnormalities": 2419,
      "Ġintegr": 2420,
      "PSC": 2421,
      "Ġimproved": 2422,
      "ann": 2423,
      "Ġregion": 2424,
      "Ġpromot": 2425,
      "gnetic": 2426,
      "ĠOn": 2427,
      "Ġdrugs": 2428,
      "Ġindex": 2429,
      "fection": 2430,
      "ury": 2431,
      "Ġswallow": 2432,
      "Ġdistribut": 2433,
      "Ġmedic": 2434,
      "MP": 2435,
      "Ġopen": 2436,
      "point": 2437,
      "athe": 2438,
      "Ġself": 2439,
      "Ġolig": 2440,
      "Ġtypes": 2441,
      "ĠAND": 2442,
      "known": 2443,
      "Ġantib": 2444,
      "Ġexpansions": 2445,
      "Ġtoler": 2446,
      "Ġdifference": 2447,
      "nal": 2448,
      "ST": 2449,
      "Ġexcit": 2450,
      "ield": 2451,
      "rupt": 2452,
      "Ġallow": 2453,
      "ĠMuscular": 2454,
      "Ġtissue": 2455,
      "ographic": 2456,
      "Ġforms": 2457,
      "NC": 2458,
      "Ġregression": 2459,
      "Ġstrategies": 2460,
      "Ġreceptor": 2461,
      "Ġtrac": 2462,
      "ditional": 2463,
      "reh": 2464,
      "Ġneurofilament": 2465,
      "Ġautophagy": 2466,
      "rotein": 2467,
      "terior": 2468,
      "Ġenc": 2469,
      "Ġtrain": 2470,
      "Ġline": 2471,
      "ĠBi": 2472,
      "Ġvolum": 2473,
      "utr": 2474,
      "Ġrecru": 2475,
      "Ġthem": 2476,
      "ĠBe": 2477,
      "Ġdistin": 2478,
      ");": 2479,
      "MI": 2480,
      "round": 2481,
      "clin": 2482,
      "aptic": 2483,
      "rest": 2484,
      "Ġprognostic": 2485,
      "Ġtransgenic": 2486,
      "Ġreliab": 2487,
      "Ġterm": 2488,
      "ubiqu": 2489,
      "ĠAtrophy": 2490,
      "Ġrapid": 2491,
      "RE": 2492,
      "ĠUsing": 2493,
      "Ġactive": 2494,
      "Ġhex": 2495,
      "Ġsite": 2496,
      "rontal": 2497,
      "Ġfailure": 2498,
      "23": 2499,
      "Ġsame": 2500,
      "Ġspectrum": 2501,
      "arri": 2502,
      "Ġagain": 2503,
      "Ġpredicted": 2504,
      "terventions": 2505,
      "Ġcaregivers": 2506,
      "Ġte": 2507,
      "PS": 2508,
      "Ġchronic": 2509,
      "Ġbenef": 2510,
      "ique": 2511,
      "Ġable": 2512,
      "Ġmetabolic": 2513,
      "Ġreceived": 2514,
      "ength": 2515,
      "Ġprovides": 2516,
      "Ġoxidative": 2517,
      "ĠAT": 2518,
      "overy": 2519,
      "mit": 2520,
      "uring": 2521,
      "Ġalle": 2522,
      "Ġconsider": 2523,
      "EG": 2524,
      "ably": 2525,
      "oding": 2526,
      "Ġpressure": 2527,
      "Ġtau": 2528,
      "err": 2529,
      "Ġatt": 2530,
      "ause": 2531,
      "Ġcytoplasmic": 2532,
      "Cs": 2533,
      "Ġoverall": 2534,
      "Ġbehavioral": 2535,
      "Ġpain": 2536,
      "ozyg": 2537,
      "Ġobjective": 2538,
      "mediated": 2539,
      "rospinal": 2540,
      "Ġmale": 2541,
      "Ġprocesses": 2542,
      "ake": 2543,
      "Ġpharmac": 2544,
      "Ġrepeats": 2545,
      "HD": 2546,
      "Ġ11": 2547,
      "Ġabs": 2548,
      "24": 2549,
      "met": 2550,
      "Ġsurve": 2551,
      "rans": 2552,
      "Ġsurg": 2553,
      "ince": 2554,
      "ctional": 2555,
      "Ġunknown": 2556,
      "Ġcomplete": 2557,
      "lated": 2558,
      "Ġprevent": 2559,
      "Ġapplic": 2560,
      "okin": 2561,
      "odies": 2562,
      "group": 2563,
      "lam": 2564,
      "orn": 2565,
      "licing": 2566,
      "app": 2567,
      "atig": 2568,
      "eding": 2569,
      "Ġtargets": 2570,
      "AL": 2571,
      "ference": 2572,
      "Ġartic": 2573,
      "Ġ\\>": 2574,
      "Ġpoints": 2575,
      "itin": 2576,
      "Ġlip": 2577,
      "piratory": 2578,
      "Ġstages": 2579,
      "Interventions": 2580,
      "Ġhexanucleotide": 2581,
      "ĠMet": 2582,
      "aches": 2583,
      "Ġshort": 2584,
      "Ġunt": 2585,
      "Ġ43": 2586,
      "ĠNIV": 2587,
      "pression": 2588,
      "Ġwomen": 2589,
      "Ġbl": 2590,
      "Ġinformed": 2591,
      "Ġadditional": 2592,
      "Ġcrit": 2593,
      "Ġhowever": 2594,
      "ochem": 2595,
      "Ġinterventions": 2596,
      "Ġur": 2597,
      "Ġpur": 2598,
      "ĠCH": 2599,
      "Ġprogram": 2600,
      "Ġaxonal": 2601,
      "Ġrelevant": 2602,
      "ĠII": 2603,
      "Ġdevice": 2604,
      "Ġes": 2605,
      "Ġsymptomatic": 2606,
      "ĠTreatment": 2607,
      "Ġfive": 2608,
      "Ġdatab": 2609,
      "ocial": 2610,
      "Ġgas": 2611,
      "Ġcompon": 2612,
      "Ġstructural": 2613,
      "olution": 2614,
      "Ġpercent": 2615,
      "ulate": 2616,
      "Ġvitro": 2617,
      "mat": 2618,
      "Ġproper": 2619,
      "Ġaccess": 2620,
      "ĠHealth": 2621,
      "34": 2622,
      "Ġcirc": 2623,
      "mod": 2624,
      "Ġmass": 2625,
      "Ġinclusion": 2626,
      "aneous": 2627,
      "Ġubiqu": 2628,
      "ologic": 2629,
      "Ġhand": 2630,
      "Ġtranslation": 2631,
      "letion": 2632,
      "Ġsecond": 2633,
      "Change": 2634,
      "Ġarea": 2635,
      "PT": 2636,
      "opt": 2637,
      "ĠCO": 2638,
      "ps": 2639,
      "Ġcost": 2640,
      "Ġagainst": 2641,
      "Ġsample": 2642,
      "SA": 2643,
      "Ġchalleng": 2644,
      "Ġmotoneuron": 2645,
      "ria": 2646,
      "stit": 2647,
      "ximately": 2648,
      "Ġinfection": 2649,
      "Ġstill": 2650,
      "Ġgrow": 2651,
      "Ġdelay": 2652,
      "ended": 2653,
      "Ġ60": 2654,
      "Ġneeded": 2655,
      "Ġrandomized": 2656,
      "ancy": 2657,
      "Ġedaravone": 2658,
      "Ġadj": 2659,
      "Ġinhibit": 2660,
      "ĠMoreover": 2661,
      "ĠScreen": 2662,
      "Ġkin": 2663,
      "ata": 2664,
      "ostasis": 2665,
      "Ġproport": 2666,
      "%),": 2667,
      "lection": 2668,
      "Ġsensitivity": 2669,
      "Ġnetwork": 2670,
      "ĠAssess": 2671,
      "oh": 2672,
      "leep": 2673,
      "Ġhighly": 2674,
      "Ġliterature": 2675,
      "Ġequ": 2676,
      "Ġdistinct": 2677,
      "last": 2678,
      "Ġchain": 2679,
      "regulated": 2680,
      "ccess": 2681,
      "Ġhom": 2682,
      "Ġrad": 2683,
      "Ġmatter": 2684,
      "Ġenrolled": 2685,
      "cutive": 2686,
      "Ġimpaired": 2687,
      "Ġexperim": 2688,
      "Ġorgan": 2689,
      "oxicity": 2690,
      "Ġcurrently": 2691,
      "Det": 2692,
      "Ġpathoph": 2693,
      "ek": 2694,
      "uch": 2695,
      "IP": 2696,
      "mark": 2697,
      "Ġ200": 2698,
      "trans": 2699,
      "Secondary": 2700,
      "ifest": 2701,
      "izing": 2702,
      "Ġthen": 2703,
      "ists": 2704,
      "ozygous": 2705,
      "Ġcancer": 2706,
      "Ġfemale": 2707,
      "Ġsystematic": 2708,
      "Ġappe": 2709,
      "asc": 2710,
      "Ġprofil": 2711,
      "Ġsplicing": 2712,
      "ptide": 2713,
      "bi": 2714,
      "Ġill": 2715,
      "anded": 2716,
      "Ġrequired": 2717,
      "Ġcr": 2718,
      "Ġsignaling": 2719,
      "Ġdeficits": 2720,
      "Ġastrocytes": 2721,
      "Ġphosphory": 2722,
      "ulin": 2723,
      "Ġadministered": 2724,
      "Ġstate": 2725,
      "Ġsuggests": 2726,
      "Ġprobable": 2727,
      "30": 2728,
      "Ġapproaches": 2729,
      "ĠSubjects": 2730,
      "Ġstatist": 2731,
      "posed": 2732,
      "Ġparticularly": 2733,
      "CP": 2734,
      "Ġpatterns": 2735,
      "ument": 2736,
      "Ġdismut": 2737,
      "lobal": 2738,
      "beta": 2739,
      "ored": 2740,
      "Ġ40": 2741,
      "Ġstudied": 2742,
      "Ġpromising": 2743,
      "ĠPatient": 2744,
      "Ġcontra": 2745,
      "ger": 2746,
      "Ġlight": 2747,
      "ĠNF": 2748,
      "Ġdismutase": 2749,
      "Ġdown": 2750,
      "ff": 2751,
      "ominant": 2752,
      "Ġprol": 2753,
      "ĠBaseline": 2754,
      "wide": 2755,
      "Ġtract": 2756,
      "ties": 2757,
      "idate": 2758,
      "33": 2759,
      "iveness": 2760,
      "Ġinjection": 2761,
      "osome": 2762,
      "ĠDis": 2763,
      "induced": 2764,
      "Ġpul": 2765,
      "Ġaltered": 2766,
      "Ġassessments": 2767,
      "Ġcur": 2768,
      "chie": 2769,
      "ĠmRNA": 2770,
      "lind": 2771,
      "enced": 2772,
      "Ġlaboratory": 2773,
      "Ġexamination": 2774,
      "Ġwild": 2775,
      "ĠMod": 2776,
      "Ġ25": 2777,
      "month": 2778,
      "aken": 2779,
      "Ġexerc": 2780,
      "Ġneuroprote": 2781,
      "atigue": 2782,
      "ĠPer": 2783,
      "Ġmicroglia": 2784,
      "Ġtraining": 2785,
      "Es": 2786,
      "Ġloc": 2787,
      "Ġselective": 2788,
      "ĠEn": 2789,
      "Ġrecom": 2790,
      "Ġcompleted": 2791,
      "orial": 2792,
      "Ġprognosis": 2793,
      "amin": 2794,
      "ont": 2795,
      "ĠDescription": 2796,
      "orb": 2797,
      "Ġcompreh": 2798,
      "Ġlimit": 2799,
      "dip": 2800,
      "ually": 2801,
      "Ġresulting": 2802,
      "62": 2803,
      "lab": 2804,
      "Ġcritical": 2805,
      "Ġtas": 2806,
      "Ġol": 2807,
      "Ġwal": 2808,
      "truct": 2809,
      "idemi": 2810,
      "Ġrecogn": 2811,
      "fficient": 2812,
      "DBP": 2813,
      "Ġdisrupt": 2814,
      "Ġdescribed": 2815,
      "Ġswallowing": 2816,
      "otic": 2817,
      "Ġweek": 2818,
      "Ġprovided": 2819,
      "Ġbiological": 2820,
      "Ġneurot": 2821,
      "Ġinjury": 2822,
      "Ġcommunication": 2823,
      "ĠMult": 2824,
      "Ġâī¥": 2825,
      "Ġemerg": 2826,
      "Ġexplore": 2827,
      "Ġpr": 2828,
      "linked": 2829,
      "ulating": 2830,
      "Ġz": 2831,
      "ission": 2832,
      "Detailed": 2833,
      "Ġcy": 2834,
      "ĠCa": 2835,
      "ĠResults": 2836,
      "As": 2837,
      "Ġassist": 2838,
      "Ġexpressed": 2839,
      "inally": 2840,
      "ysiology": 2841,
      "Ġclear": 2842,
      "oring": 2843,
      "ĠFrom": 2844,
      "Ġmo": 2845,
      "Ġ17": 2846,
      "Ġextra": 2847,
      "Ġcompound": 2848,
      "Ġderived": 2849,
      "Ġelevated": 2850,
      "Ġinflammatory": 2851,
      "ervation": 2852,
      "Ġaverage": 2853,
      "Ġpoor": 2854,
      "Ġoften": 2855,
      "%).": 2856,
      "Ġpregn": 2857,
      "Ġglutam": 2858,
      "ower": 2859,
      "ficult": 2860,
      "Ġknow": 2861,
      "Ġul": 2862,
      "Ġachie": 2863,
      "orter": 2864,
      "Ġindicating": 2865,
      "Ġcerebrospinal": 2866,
      "Ġliving": 2867,
      "io": 2868,
      "oural": 2869,
      "ians": 2870,
      "itis": 2871,
      "60": 2872,
      "Ġwhereas": 2873,
      "Ġdistribution": 2874,
      "ĠCo": 2875,
      "Ġgran": 2876,
      "Ġsuperoxide": 2877,
      "Ġmonitoring": 2878,
      "FTLD": 2879,
      "ĠNeuron": 2880,
      "Ġ\\<": 2881,
      "diplam": 2882,
      "Ġchrom": 2883,
      "ergy": 2884,
      "Ġsix": 2885,
      "Ġaddress": 2886,
      "amp": 2887,
      "Ġevent": 2888,
      "apy": 2889,
      "lied": 2890,
      "motor": 2891,
      "ologies": 2892,
      "yr": 2893,
      "ount": 2894,
      "100": 2895,
      "IG": 2896,
      "care": 2897,
      "Ġdepression": 2898,
      "Ġess": 2899,
      "ict": 2900,
      "ison": 2901,
      "Ġtoxic": 2902,
      "BS": 2903,
      "ĠSp": 2904,
      "Ġcombination": 2905,
      "mer": 2906,
      "oly": 2907,
      "Ġwhole": 2908,
      "Ġmeta": 2909,
      "IC": 2910,
      "ĠSur": 2911,
      "Ġcarry": 2912,
      "Ġstimulation": 2913,
      "enter": 2914,
      "Ġmen": 2915,
      "Ġtested": 2916,
      "Ġampl": 2917,
      "Ġstable": 2918,
      "Ġsubst": 2919,
      "Ġapproved": 2920,
      "Ġdescribe": 2921,
      "Ġassociations": 2922,
      "Ġquantitative": 2923,
      "less": 2924,
      "nect": 2925,
      "Ġskeletal": 2926,
      "Ġgain": 2927,
      "Ġdifficult": 2928,
      "clinical": 2929,
      "Ġessential": 2930,
      "inine": 2931,
      "rane": 2932,
      "iac": 2933,
      "Ġpotentially": 2934,
      "Ġmagnetic": 2935,
      "Ġpopulations": 2936,
      "Ġcortic": 2937,
      "Ġpractice": 2938,
      "Ġsize": 2939,
      "tras": 2940,
      "CSF": 2941,
      "IF": 2942,
      "hest": 2943,
      "Ġreceive": 2944,
      "ĠQu": 2945,
      "Ġestablished": 2946,
      "ledge": 2947,
      "Ġmaximum": 2948,
      "monary": 2949,
      "Ġcalculated": 2950,
      "Ġuseful": 2951,
      "Ġalpha": 2952,
      "Ġcand": 2953,
      "Ġdiff": 2954,
      "Ġrecently": 2955,
      "Ġlobar": 2956,
      "Ġprospective": 2957,
      "pecially": 2958,
      "ĠTARDBP": 2959,
      "35": 2960,
      "Ġconcentration": 2961,
      "Ġserv": 2962,
      "90": 2963,
      "HR": 2964,
      "ray": 2965,
      "Ġleads": 2966,
      "Ġunclear": 2967,
      "Ġtimes": 2968,
      "cy": 2969,
      "Ġfram": 2970,
      "Ġapproximately": 2971,
      "plo": 2972,
      "Ġinsights": 2973,
      "lace": 2974,
      "Ġinitial": 2975,
      "Ġprofile": 2976,
      "vestig": 2977,
      "Ġcult": 2978,
      "ĠAfter": 2979,
      "Ġproperties": 2980,
      "Ġcontr": 2981,
      "ĠAdditional": 2982,
      "+)": 2983,
      "tra": 2984,
      "urb": 2985,
      "Ġproposed": 2986,
      "CTION": 2987,
      "Ġimprovement": 2988,
      "Ġfamilies": 2989,
      "ĠCD": 2990,
      "very": 2991,
      "ĠEuro": 2992,
      "ception": 2993,
      "face": 2994,
      "ĠIL": 2995,
      "Ġ48": 2996,
      "Ġdecrease": 2997,
      "Ġolder": 2998,
      "Ġsleep": 2999,
      "Ġquestionnaire": 3000,
      "rophysiological": 3001,
      "Ġconsistent": 3002,
      "Ġsuccess": 3003,
      "Ġundergo": 3004,
      "Ġproduct": 3005,
      "olic": 3006,
      "ĠMAP": 3007,
      "ours": 3008,
      "ATION": 3009,
      "Ġmisfold": 3010,
      "Ġutil": 3011,
      "athecal": 3012,
      "04": 3013,
      "verex": 3014,
      "Ġcontinu": 3015,
      "ention": 3016,
      "abil": 3017,
      "Ġadults": 3018,
      "Ġstructure": 3019,
      "Ġhall": 3020,
      "Ġparticipation": 3021,
      "Ġlonger": 3022,
      "Ġversus": 3023,
      "ĠData": 3024,
      "Ġapplied": 3025,
      "Ġsystems": 3026,
      "Ġenvironmental": 3027,
      "UC": 3028,
      "ma": 3029,
      "ok": 3030,
      "inary": 3031,
      "Ġtargeting": 3032,
      "TROD": 3033,
      "TI": 3034,
      "UCTION": 3035,
      "Ġidentification": 3036,
      "play": 3037,
      "Ġunderwent": 3038,
      "TRODUCTION": 3039,
      "Ġret": 3040,
      "Ġnutr": 3041,
      "Ġimportance": 3042,
      "BMA": 3043,
      "INTRODUCTION": 3044,
      "ft": 3045,
      "Ġ'": 3046,
      "Ġeven": 3047,
      "Ġmanifest": 3048,
      "ĠWhile": 3049,
      "Ġaction": 3050,
      "rem": 3051,
      "earch": 3052,
      "VID": 3053,
      "ĠGRN": 3054,
      "Ġareas": 3055,
      "Ġdefects": 3056,
      "Ġactivities": 3057,
      "Ġcomprehensive": 3058,
      "MT": 3059,
      "Ġste": 3060,
      "Ġrequire": 3061,
      "Ġgastro": 3062,
      "Ġtemporal": 3063,
      "uces": 3064,
      "Ġdetection": 3065,
      "Ġconcentrations": 3066,
      "Ġespecially": 3067,
      "Ġpresented": 3068,
      "Ġneuroin": 3069,
      "Ġvolume": 3070,
      "Ġrecomm": 3071,
      "Ġrecorded": 3072,
      "Ġguid": 3073,
      "mn": 3074,
      "Ġvir": 3075,
      "ĠRecent": 3076,
      "Ġsynaptic": 3077,
      "ĠRegistry": 3078,
      "be": 3079,
      "ĠCom": 3080,
      "zym": 3081,
      "Ġlength": 3082,
      "Ġsuggested": 3083,
      "Ġitems": 3084,
      "Ġmild": 3085,
      "Ġlo": 3086,
      "Ġdem": 3087,
      "Ġyoun": 3088,
      "Ġperson": 3089,
      "Ġprocedures": 3090,
      "Ġsepar": 3091,
      "atural": 3092,
      "Ġalong": 3093,
      "angu": 3094,
      "phag": 3095,
      "orbid": 3096,
      "Ġmorph": 3097,
      "Ġappear": 3098,
      "70": 3099,
      "ling": 3100,
      "usted": 3101,
      "ĠTest": 3102,
      "ĠHist": 3103,
      "Ġvisits": 3104,
      "Ġcombined": 3105,
      "ĠPhase": 3106,
      "Ġfrontal": 3107,
      "Ġinhibition": 3108,
      "inese": 3109,
      "rod": 3110,
      "/=": 3111,
      "Ġexist": 3112,
      "lications": 3113,
      "Ġestimated": 3114,
      "ĠEurope": 3115,
      "oles": 3116,
      "Ġvolun": 3117,
      "Ne": 3118,
      "ulatory": 3119,
      "Ġ28": 3120,
      "Ġdouble": 3121,
      "EC": 3122,
      "Ġfew": 3123,
      "Ġorder": 3124,
      "ĠEl": 3125,
      "ypical": 3126,
      "Ġmolec": 3127,
      "Ġimplicated": 3128,
      "ĠMS": 3129,
      "ĠChinese": 3130,
      "SMN": 3131,
      "Ġdate": 3132,
      "uscle": 3133,
      "umbar": 3134,
      "Ġfacilit": 3135,
      "day": 3136,
      "Ġamy": 3137,
      "erate": 3138,
      "ĠNfL": 3139,
      "arily": 3140,
      "Ġregarding": 3141,
      "Ġconnect": 3142,
      "ires": 3143,
      "analysis": 3144,
      "Ġknowledge": 3145,
      "ervical": 3146,
      "ixed": 3147,
      "Ġvalidated": 3148,
      "Ġreal": 3149,
      "Ġcohorts": 3150,
      "Ġdefinite": 3151,
      "ĠZ": 3152,
      "Ġexamine": 3153,
      "hab": 3154,
      "romy": 3155,
      "Ġsubgroup": 3156,
      "Ġretrospective": 3157,
      "ung": 3158,
      "Ġlear": 3159,
      "ĠScreening": 3160,
      "Ġear": 3161,
      "Ġanterior": 3162,
      "Ġaged": 3163,
      "Ġcateg": 3164,
      "ĠEC": 3165,
      "itude": 3166,
      "asticity": 3167,
      "ifically": 3168,
      "Ġaccuracy": 3169,
      "phagia": 3170,
      "75": 3171,
      "ĠSystem": 3172,
      "ilateral": 3173,
      "Ġpresymptomatic": 3174,
      "38": 3175,
      "Ġheterogeneity": 3176,
      "Ġseen": 3177,
      "Ġdeliver": 3178,
      "Ġprolong": 3179,
      "AV": 3180,
      "Ġconfirm": 3181,
      "ĠMNs": 3182,
      "Ġwide": 3183,
      "pati": 3184,
      "Ġbel": 3185,
      "Ġregulation": 3186,
      "Ġglial": 3187,
      "Ġreflect": 3188,
      "Ġlipid": 3189,
      "Ġtoward": 3190,
      "ultic": 3191,
      "copy": 3192,
      "ressive": 3193,
      "Ġresponses": 3194,
      "LN": 3195,
      "Ġlack": 3196,
      "ĠSign": 3197,
      "Ġaims": 3198,
      "Ġhallmark": 3199,
      "Ġglobal": 3200,
      "ophil": 3201,
      "Ġneural": 3202,
      "Ġindicated": 3203,
      "Ġcontrast": 3204,
      "iology": 3205,
      "local": 3206,
      "ĠAmong": 3207,
      "Ġaffecting": 3208,
      "anguage": 3209,
      "dro": 3210,
      "Ġsocial": 3211,
      "Ġyet": 3212,
      "ĠTherefore": 3213,
      "Ġthus": 3214,
      "mediate": 3215,
      "controlled": 3216,
      "Ġgenome": 3217,
      "alpha": 3218,
      "Th": 3219,
      "iosis": 3220,
      "Ġfatigue": 3221,
      "Ġmovement": 3222,
      "Ġglutamate": 3223,
      "Ġevery": 3224,
      "Ġhy": 3225,
      "Ġ90": 3226,
      "27": 3227,
      "ediatric": 3228,
      "ucing": 3229,
      "ands": 3230,
      "Ġve": 3231,
      "Ġselected": 3232,
      "AN": 3233,
      "ĠTB": 3234,
      "amy": 3235,
      "iquid": 3236,
      "Ġhomeostasis": 3237,
      "Ġkinase": 3238,
      "80": 3239,
      "ina": 3240,
      "resp": 3241,
      "Ġvery": 3242,
      "Ġneuroprotective": 3243,
      "ĠY": 3244,
      "Ġdisability": 3245,
      "Ġmeasurements": 3246,
      "scorial": 3247,
      "MR": 3248,
      "Ġden": 3249,
      "ogenic": 3250,
      "Ġprec": 3251,
      "ĠSer": 3252,
      "Ġwhite": 3253,
      "ĠItal": 3254,
      "):": 3255,
      "vFTD": 3256,
      "ĠCNS": 3257,
      "ortical": 3258,
      "ĠDiagn": 3259,
      "iversity": 3260,
      "Ġenroll": 3261,
      "MJ": 3262,
      "pre": 3263,
      "Ġresid": 3264,
      "Ġtrache": 3265,
      "onance": 3266,
      "sectional": 3267,
      "Ġ21": 3268,
      "Ġdeveloping": 3269,
      "oxic": 3270,
      "etics": 3271,
      "Ġcaregiver": 3272,
      "Ġinfluence": 3273,
      "no": 3274,
      "Ġlarg": 3275,
      "Ġexercise": 3276,
      "Ġoverex": 3277,
      "ĠiPSC": 3278,
      "Ġsurvey": 3279,
      "Ġinitiation": 3280,
      "Ġinteractions": 3281,
      "peptide": 3282,
      "Ġneeds": 3283,
      "Ġcerebell": 3284,
      "Ġsat": 3285,
      "ĠInvestig": 3286,
      "Ġsubt": 3287,
      "Ġexperience": 3288,
      "Ġcompos": 3289,
      "ING": 3290,
      "rob": 3291,
      "Ġread": 3292,
      "ostomy": 3293,
      "ĠThus": 3294,
      "ĠDespite": 3295,
      "iety": 3296,
      "Ġx": 3297,
      "ĠNational": 3298,
      "OP": 3299,
      "SD": 3300,
      "ĠSafety": 3301,
      "Ġbeta": 3302,
      "lim": 3303,
      "the": 3304,
      "onic": 3305,
      "iting": 3306,
      "Ġrating": 3307,
      "Ġsecondary": 3308,
      "Ġexplo": 3309,
      "Ġhead": 3310,
      "loid": 3311,
      "Ġbrains": 3312,
      "Ġsa": 3313,
      "Ġtherefore": 3314,
      "Ġhypothesis": 3315,
      "ds": 3316,
      "Ġdoc": 3317,
      "etry": 3318,
      "aps": 3319,
      "Ġalthough": 3320,
      "Ġmulti": 3321,
      "Ġproble": 3322,
      "Ġstrategy": 3323,
      "lished": 3324,
      "ĠIII": 3325,
      "Ġaltern": 3326,
      "Ġdiscovery": 3327,
      "Ġsetting": 3328,
      "Ġbest": 3329,
      "els": 3330,
      "Ġbreath": 3331,
      "An": 3332,
      "mission": 3333,
      "ĠMut": 3334,
      "Ġubiquitin": 3335,
      "Ġprim": 3336,
      "Ġaspect": 3337,
      "Ġepidemi": 3338,
      "ck": 3339,
      "xiety": 3340,
      "ipp": 3341,
      "ĠResearch": 3342,
      "AG": 3343,
      "asal": 3344,
      "yst": 3345,
      "ĠHigh": 3346,
      "Ġearl": 3347,
      "Ġ22": 3348,
      "matched": 3349,
      "Ġgo": 3350,
      "BJECTIVES": 3351,
      "03": 3352,
      "oma": 3353,
      "Ġcardiac": 3354,
      "isense": 3355,
      "Ġtrig": 3356,
      "Ġexhibited": 3357,
      "hold": 3358,
      "ĠChange": 3359,
      "ĠEscorial": 3360,
      "Ġcorre": 3361,
      "Ġcervical": 3362,
      "mar": 3363,
      "Ġparent": 3364,
      "etically": 3365,
      "Ġver": 3366,
      "ĠDI": 3367,
      "Ġcausal": 3368,
      "ĠPLS": 3369,
      "Ġgrowth": 3370,
      "Ġfrequent": 3371,
      "Ġenzym": 3372,
      "LC": 3373,
      "usive": 3374,
      "ration": 3375,
      "time": 3376,
      "Ġadapt": 3377,
      "MAP": 3378,
      "Ġintrathecal": 3379,
      "inc": 3380,
      "Ġchem": 3381,
      "Ġorig": 3382,
      "Ġinvolving": 3383,
      "rich": 3384,
      "way": 3385,
      "Ġinstr": 3386,
      "ĠTwo": 3387,
      "Ġexpected": 3388,
      "Ġexpressing": 3389,
      "ĠAssessment": 3390,
      "linary": 3391,
      "positive": 3392,
      "gether": 3393,
      "yte": 3394,
      "ories": 3395,
      "Ġbro": 3396,
      "Ġtogether": 3397,
      "Ġassay": 3398,
      "ĠER": 3399,
      "aper": 3400,
      "Ġsubsequ": 3401,
      "Ġproportion": 3402,
      "iscip": 3403,
      "28": 3404,
      "Ġmarker": 3405,
      "Ġtissues": 3406,
      "Ġbenefit": 3407,
      "ĠAdditionally": 3408,
      "isciplinary": 3409,
      "ave": 3410,
      "tion": 3411,
      "onucle": 3412,
      "Ġcreat": 3413,
      "ĠTrans": 3414,
      "Ġrest": 3415,
      "izes": 3416,
      "ypic": 3417,
      "ĠOne": 3418,
      "Ġhyper": 3419,
      "ton": 3420,
      "Ġnatural": 3421,
      "utes": 3422,
      "Ġpredominant": 3423,
      "Ġconfidence": 3424,
      "errant": 3425,
      "Ġsurgery": 3426,
      "Ġlumbar": 3427,
      "Ġreceiving": 3428,
      "TE": 3429,
      "Ġlog": 3430,
      "imens": 3431,
      "Ġuntil": 3432,
      "Ġnecess": 3433,
      "ĠFinally": 3434,
      "ĠTher": 3435,
      "ochemical": 3436,
      "Ġultras": 3437,
      "anding": 3438,
      "Ġspecificity": 3439,
      "Ġrevised": 3440,
      "ulner": 3441,
      "Ġgiven": 3442,
      "Ġcarrying": 3443,
      "igen": 3444,
      "Ġcontext": 3445,
      "Ġcompare": 3446,
      "Ġimpl": 3447,
      "Ġneuropsych": 3448,
      "Ġlate": 3449,
      "Ġrob": 3450,
      "Ġpurpose": 3451,
      "Ġsubstant": 3452,
      "Ġgender": 3453,
      "Ġbehavioural": 3454,
      "Ġpsychiatric": 3455,
      "Ġbecause": 3456,
      "ĠMAPT": 3457,
      "ĠHistory": 3458,
      "29": 3459,
      "SION": 3460,
      "emic": 3461,
      "Ġdoes": 3462,
      "Ġbone": 3463,
      "ascic": 3464,
      "atin": 3465,
      "alf": 3466,
      "Ġfl": 3467,
      "plant": 3468,
      "Ġreduce": 3469,
      "Ġoverl": 3470,
      "ĠUS": 3471,
      "ĠType": 3472,
      "ĠCurrent": 3473,
      "Ġadvanced": 3474,
      "ĠmiR": 3475,
      "Ġtolerability": 3476,
      "ĠDay": 3477,
      "Ġinterview": 3478,
      "Ġexperimental": 3479,
      "Ġillness": 3480,
      "Ġcruc": 3481,
      "als": 3482,
      "stomy": 3483,
      "Ġparalysis": 3484,
      "Ġpulmonary": 3485,
      "85": 3486,
      "zard": 3487,
      "Ġso": 3488,
      "Ġexon": 3489,
      "semb": 3490,
      "Ġsensory": 3491,
      "Ġdynamics": 3492,
      "36": 3493,
      "Ġ>/=": 3494,
      "Ġrecruited": 3495,
      "Ġ36": 3496,
      "Ġcarried": 3497,
      "AI": 3498,
      "ogenous": 3499,
      "Ġmeasurement": 3500,
      "ĠX": 3501,
      "Ġinvestigation": 3502,
      "Ġinvestigators": 3503,
      "alam": 3504,
      "ĠNeurolog": 3505,
      "EV": 3506,
      "ipot": 3507,
      "Ġparticipate": 3508,
      "Ġvariability": 3509,
      "Ġlater": 3510,
      "aged": 3511,
      "ĠCOVID": 3512,
      "Ġincreases": 3513,
      "Ġdesigned": 3514,
      "Ġcrucial": 3515,
      "NP": 3516,
      "Ġsince": 3517,
      "Ġchallenges": 3518,
      "Ġneuroinflammation": 3519,
      "ĠDISC": 3520,
      "ĠTrial": 3521,
      "Ġright": 3522,
      "ening": 3523,
      "Ġhours": 3524,
      "Ġproviding": 3525,
      "Ġvariables": 3526,
      "Ġgenerated": 3527,
      "EP": 3528,
      "ĠHospital": 3529,
      "Ġcomparison": 3530,
      "Ġdomains": 3531,
      "Ġ%": 3532,
      "Ġcall": 3533,
      "uripot": 3534,
      "Ġpublished": 3535,
      "Ġprofiles": 3536,
      "path": 3537,
      "USSION": 3538,
      "Ġthroughout": 3539,
      "Ġcountr": 3540,
      "ĠDISCUSSION": 3541,
      "ĠFVC": 3542,
      "Ġrat": 3543,
      "Ġquestions": 3544,
      "(-": 3545,
      "iative": 3546,
      "Ġcomput": 3547,
      "ĠOf": 3548,
      "iques": 3549,
      "ii": 3550,
      "irth": 3551,
      "Ġenergy": 3552,
      "Ġfeature": 3553,
      "oper": 3554,
      "Ġresonance": 3555,
      "Ġleft": 3556,
      "Ġfield": 3557,
      "celer": 3558,
      "Ġvulner": 3559,
      "ĠLe": 3560,
      "mor": 3561,
      "thes": 3562,
      "Ġsol": 3563,
      "Ġpower": 3564,
      "Ġinflammation": 3565,
      "Ġfra": 3566,
      "Ġunique": 3567,
      "press": 3568,
      "acc": 3569,
      "Ġsafe": 3570,
      "26": 3571,
      "otoxicity": 3572,
      "ctions": 3573,
      "ĠHD": 3574,
      "ĠOverall": 3575,
      "Ġpathophysiology": 3576,
      "not": 3577,
      "oL": 3578,
      "Ġimplement": 3579,
      "Ġinvestigator": 3580,
      "Ġfeas": 3581,
      "Ġmiss": 3582,
      "Ġdisplay": 3583,
      "ilitation": 3584,
      "isf": 3585,
      "Ġcorrelations": 3586,
      "olar": 3587,
      "ĠMa": 3588,
      "],": 3589,
      "arv": 3590,
      "0001": 3591,
      "Ġdysphagia": 3592,
      "Ġmultid": 3593,
      "Ġcopy": 3594,
      "ites": 3595,
      "Ġsummar": 3596,
      "Ġfull": 3597,
      "arr": 3598,
      "Ġtechniques": 3599,
      "Ġabsence": 3600,
      "au": 3601,
      "Ġfast": 3602,
      "Ġaccept": 3603,
      "anged": 3604,
      "outh": 3605,
      "Ġmedication": 3606,
      "Ġstrati": 3607,
      "Ġair": 3608,
      "Ġrefer": 3609,
      "Ġliver": 3610,
      "Ġtargeted": 3611,
      "Ġinterest": 3612,
      "Ġsites": 3613,
      "inflammatory": 3614,
      "oxid": 3615,
      "Ġinsu": 3616,
      "ploy": 3617,
      "Ġ26": 3618,
      "Ġphysiological": 3619,
      "uality": 3620,
      "cluding": 3621,
      "UN": 3622,
      "ait": 3623,
      "ones": 3624,
      "Ġbarri": 3625,
      "immun": 3626,
      "ĠInter": 3627,
      "ometric": 3628,
      "ighest": 3629,
      "GCC": 3630,
      "Ġamin": 3631,
      "Ġsess": 3632,
      "omics": 3633,
      "Ġindicates": 3634,
      "ĠEvalu": 3635,
      "Ġflex": 3636,
      "ĠNon": 3637,
      "Ġknock": 3638,
      "Ġmicros": 3639,
      "ergic": 3640,
      "CS": 3641,
      "Ġbasis": 3642,
      "Ġfat": 3643,
      "Ġemot": 3644,
      "eling": 3645,
      "MSE": 3646,
      "Ġdelivery": 3647,
      "uripotent": 3648,
      "Ġhaving": 3649,
      "Ġcontrolled": 3650,
      "Ġestablish": 3651,
      "Ġmade": 3652,
      "Ġinteract": 3653,
      "Ġarm": 3654,
      "ligible": 3655,
      "ustr": 3656,
      "Ġ23": 3657,
      "45": 3658,
      "dent": 3659,
      "ĠCognitive": 3660,
      "ĠMR": 3661,
      "Ġaffects": 3662,
      "Ġsuscept": 3663,
      "FS": 3664,
      "Ġunit": 3665,
      "Ġbroad": 3666,
      "rug": 3667,
      "ĠPart": 3668,
      "Ġreaction": 3669,
      "Ġdepend": 3670,
      "Ġdiscrim": 3671,
      "Ġunderstood": 3672,
      "Ġmatched": 3673,
      "Ġtools": 3674,
      "Ġaspects": 3675,
      "AB": 3676,
      "pri": 3677,
      "report": 3678,
      "Ġtransl": 3679,
      "Ġhealthcare": 3680,
      "Ġdoses": 3681,
      "Ġcandidate": 3682,
      "pr": 3683,
      "Ġold": 3684,
      "uration": 3685,
      "Ġexpanded": 3686,
      "Ġinvestigational": 3687,
      "Ġfrequently": 3688,
      "ĠProg": 3689,
      "Ġanother": 3690,
      "Ġleg": 3691,
      "ĠGenetic": 3692,
      "Ġdatabase": 3693,
      "ygen": 3694,
      "urn": 3695,
      "Ġ31": 3696,
      "Ġback": 3697,
      "lyc": 3698,
      "Ġacute": 3699,
      "Ġdiet": 3700,
      "modifying": 3701,
      "Part": 3702,
      "Ġlanguage": 3703,
      "ferent": 3704,
      "Ġhep": 3705,
      "Ġtraum": 3706,
      "Ġexplain": 3707,
      "esic": 3708,
      "ariate": 3709,
      "certain": 3710,
      "CO": 3711,
      "Spinal": 3712,
      "ĠCons": 3713,
      "Ġrisdiplam": 3714,
      "fering": 3715,
      "rend": 3716,
      "ĠGGG": 3717,
      "control": 3718,
      "atform": 3719,
      "Ġpast": 3720,
      "any": 3721,
      "apan": 3722,
      "Ġdecision": 3723,
      "ĠGGGGCC": 3724,
      "ience": 3725,
      "uster": 3726,
      "ificance": 3727,
      "Ġeluc": 3728,
      "Ds": 3729,
      "Ġopp": 3730,
      "Ġresc": 3731,
      "Ġserious": 3732,
      "Ġmajority": 3733,
      "xt": 3734,
      "ivation": 3735,
      "ĠUB": 3736,
      "ĠRevised": 3737,
      "Ġneuropathy": 3738,
      "ĠAge": 3739,
      "hods": 3740,
      "Ġutility": 3741,
      "Ġlinear": 3742,
      "Ġfrag": 3743,
      "Ġaberrant": 3744,
      "Ġantisense": 3745,
      "Ġendpoint": 3746,
      "Ġlink": 3747,
      "alle": 3748,
      "Ġhighest": 3749,
      "ocyt": 3750,
      "iring": 3751,
      "Ġmeet": 3752,
      "MG": 3753,
      "Ġroles": 3754,
      "Ġemploy": 3755,
      "Ġpredictive": 3756,
      "Ġtub": 3757,
      "Ġlys": 3758,
      "ĠDPR": 3759,
      "Ġmethy": 3760,
      "iable": 3761,
      "Ġvalidation": 3762,
      "48": 3763,
      "ĠJapan": 3764,
      "Ġdegrad": 3765,
      "Ġtw": 3766,
      "isk": 3767,
      "Ġmultic": 3768,
      "oler": 3769,
      "Ġdeletion": 3770,
      "Ġgood": 3771,
      "Ġmoderate": 3772,
      "Ġjunction": 3773,
      "blind": 3774,
      "Ġbirth": 3775,
      "Ġeduc": 3776,
      "Ġmembers": 3777,
      "Ġmedications": 3778,
      "Ġrapidly": 3779,
      "ĠRiluzole": 3780,
      "essional": 3781,
      "fficacy": 3782,
      "Ġproduction": 3783,
      "OSE": 3784,
      "ode": 3785,
      "ĠNot": 3786,
      "ED": 3787,
      "atives": 3788,
      "Ġiss": 3789,
      "Ġtracheostomy": 3790,
      "imaging": 3791,
      "unct": 3792,
      "Ġconsequ": 3793,
      "rosophil": 3794,
      "Ġdocument": 3795,
      "rosophila": 3796,
      "URP": 3797,
      "orld": 3798,
      "idal": 3799,
      "ĠCol": 3800,
      "ĠMuscle": 3801,
      "Ġdysregulation": 3802,
      "URPOSE": 3803,
      "Ġoper": 3804,
      "Ġpal": 3805,
      "reshold": 3806,
      "Ġgastrostomy": 3807,
      "habilitation": 3808,
      "OL": 3809,
      "by": 3810,
      "Ġfascic": 3811,
      "Ġbilateral": 3812,
      "romyography": 3813,
      "BM": 3814,
      "phas": 3815,
      "Ġautosomal": 3816,
      "Ġmainly": 3817,
      "Ġinher": 3818,
      "Ġdia": 3819,
      "ilot": 3820,
      "ĠSBMA": 3821,
      "opsy": 3822,
      "Ġdifferential": 3823,
      "97": 3824,
      "opathies": 3825,
      "Ġstructures": 3826,
      "Ġapplication": 3827,
      "EF": 3828,
      "WT": 3829,
      "02": 3830,
      "ĠAL": 3831,
      "ongue": 3832,
      "Ġearlier": 3833,
      "IT": 3834,
      "St": 3835,
      "Ġestimate": 3836,
      "otherapy": 3837,
      "ick": 3838,
      "Ġposition": 3839,
      "ĠAP": 3840,
      "Ġcerebral": 3841,
      "Ġclassification": 3842,
      "vascular": 3843,
      "ometry": 3844,
      "Ġtask": 3845,
      "Ġsuccessful": 3846,
      "XN": 3847,
      "Ġsour": 3848,
      "Ġ27": 3849,
      "Ġgenetically": 3850,
      "Ġpluripotent": 3851,
      "Ġdipeptide": 3852,
      "respond": 3853,
      "ining": 3854,
      "Ġmal": 3855,
      "Ġrib": 3856,
      "Ġmodif": 3857,
      "ffort": 3858,
      "spectively": 3859,
      "Ġmm": 3860,
      "ivariate": 3861,
      "Ġgenotype": 3862,
      "ĠOR": 3863,
      "isms": 3864,
      "QLN": 3865,
      "aryn": 3866,
      "Ġspecial": 3867,
      "Ġfemales": 3868,
      "ĠhSOD": 3869,
      "Ġspecies": 3870,
      "Ġimplications": 3871,
      "venous": 3872,
      "Ġcopies": 3873,
      "Ġeffectiveness": 3874,
      "32": 3875,
      "DA": 3876,
      "ĠINT": 3877,
      "Ġalternative": 3878,
      "FVC": 3879,
      "nRN": 3880,
      "put": 3881,
      "ĠNew": 3882,
      "Ġobservational": 3883,
      "ĠAnalysis": 3884,
      "comp": 3885,
      "aring": 3886,
      "Ġconcer": 3887,
      "ĠInte": 3888,
      "ragm": 3889,
      "ring": 3890,
      "Ġfind": 3891,
      "ĠDrosophila": 3892,
      "Ġsignificance": 3893,
      "Ġheterogeneous": 3894,
      "roblast": 3895,
      "ĠNusinersen": 3896,
      "ĠEd": 3897,
      "Ġacceler": 3898,
      "MNs": 3899,
      "Ġ80": 3900,
      "ĠAdverse": 3901,
      "Ġsequence": 3902,
      "Ġspecifically": 3903,
      "Ġcomponent": 3904,
      "cence": 3905,
      "ope": 3906,
      "Ġlat": 3907,
      "Ġ\\[": 3908,
      "cluded": 3909,
      "rees": 3910,
      "Ġmob": 3911,
      "ĠOBJECTIVE": 3912,
      "ximal": 3913,
      "ĠEuropean": 3914,
      "mortem": 3915,
      "Ġplan": 3916,
      "Ġlearning": 3917,
      "Ġprimarily": 3918,
      "Ġrobust": 3919,
      "Ġskin": 3920,
      "Ġpan": 3921,
      "ĠAR": 3922,
      "ĠIf": 3923,
      "umer": 3924,
      "ymph": 3925,
      "Ġvariation": 3926,
      "Ġamyloid": 3927,
      "ĠPath": 3928,
      "Ġrout": 3929,
      "oids": 3930,
      "Ġinfants": 3931,
      "atically": 3932,
      "Ġconclusion": 3933,
      "elta": 3934,
      "Ġsystemic": 3935,
      "Ġsynthes": 3936,
      "Ġreliable": 3937,
      "CH": 3938,
      "Ġsal": 3939,
      "off": 3940,
      "Ġassessing": 3941,
      "lication": 3942,
      "Ġreports": 3943,
      "Ġcer": 3944,
      "Ġproject": 3945,
      "asemn": 3946,
      "Ġshorter": 3947,
      "ĠAny": 3948,
      "label": 3949,
      "Ġphysic": 3950,
      "Ġbreathing": 3951,
      "Number": 3952,
      "amyotrophic": 3953,
      "Ġmultidisciplinary": 3954,
      "effect": 3955,
      "atial": 3956,
      "ficial": 3957,
      "Ġlines": 3958,
      "Ġstrongly": 3959,
      "Ġantibody": 3960,
      "asemnogene": 3961,
      "Ġmem": 3962,
      "65": 3963,
      "Ġeffort": 3964,
      "Ġher": 3965,
      "ocamp": 3966,
      "ĠBy": 3967,
      "Ġmembrane": 3968,
      "Ġantibodies": 3969,
      "Ġcomponents": 3970,
      "Ġcorticos": 3971,
      "98": 3972,
      "ĠAc": 3973,
      "Ġsup": 3974,
      "Ġseries": 3975,
      "Ġsensitive": 3976,
      "FUS": 3977,
      "ises": 3978,
      "oration": 3979,
      "orks": 3980,
      "Ġoccup": 3981,
      "ĠMedical": 3982,
      "patient": 3983,
      "rogen": 3984,
      "ĠApp": 3985,
      "Ġrs": 3986,
      "anging": 3987,
      "Ġ72": 3988,
      "Ġmach": 3989,
      "generation": 3990,
      "Ġallele": 3991,
      "%.": 3992,
      "CD": 3993,
      "Ġtaken": 3994,
      "ought": 3995,
      "Ġidentifying": 3996,
      "pir": 3997,
      "Ġmixed": 3998,
      "Ġliquid": 3999,
      "ĠNMJ": 4000,
      "Ġincludes": 4001,
      "Ġdominant": 4002,
      "ĠQuest": 4003,
      "Ġroutine": 4004,
      "ather": 4005,
      "ĠBoth": 4006,
      "Ġpersonal": 4007,
      "Ġmotoneurons": 4008,
      "Ġmove": 4009,
      "aset": 4010,
      "Ġtechnology": 4011,
      "Ġdeficiency": 4012,
      "Neuro": 4013,
      "Ġexplored": 4014,
      "78": 4015,
      "NCE": 4016,
      "kg": 4017,
      "Ġdig": 4018,
      "ortun": 4019,
      "Ġshows": 4020,
      "Ġtaking": 4021,
      "ĠsALS": 4022,
      "rog": 4023,
      "Ġreas": 4024,
      "eter": 4025,
      "Ġpresentation": 4026,
      "eparv": 4027,
      "Ġmyel": 4028,
      "Ġetiology": 4029,
      "Ġmislocal": 4030,
      "Ġnutritional": 4031,
      "Ġanxiety": 4032,
      "Ġ35": 4033,
      "ground": 4034,
      "Ġtrend": 4035,
      "ĠCap": 4036,
      "Ġprotective": 4037,
      "Ġreviewed": 4038,
      "Ġcontribution": 4039,
      "ovec": 4040,
      "Ġdirectly": 4041,
      "Ġintegrity": 4042,
      "aster": 4043,
      "Ġrele": 4044,
      "Ġtranscription": 4045,
      "Ġscreened": 4046,
      "Ġfully": 4047,
      "Ġcurve": 4048,
      "ĠPres": 4049,
      "Ġvesic": 4050,
      "Ġrespond": 4051,
      "Ġcommonly": 4052,
      "ĠImp": 4053,
      "degenerative": 4054,
      "Ġcausing": 4055,
      "Ġimpairments": 4056,
      "Ġmarked": 4057,
      "Ġrecommend": 4058,
      "Ġlarger": 4059,
      "ecutive": 4060,
      "omer": 4061,
      "urs": 4062,
      "IGN": 4063,
      "Ġsatisf": 4064,
      "Ġstar": 4065,
      "Ġisol": 4066,
      "Ġnucleus": 4067,
      "Ġminim": 4068,
      "ĠBiomark": 4069,
      "eparvovec": 4070,
      "az": 4071,
      "Ġnow": 4072,
      "Ġdataset": 4073,
      "Ġcomplement": 4074,
      "Ġphenotypic": 4075,
      "Ġvisual": 4076,
      "Ġfibr": 4077,
      "Ġenhanced": 4078,
      "Ġphosphorylated": 4079,
      "born": 4080,
      "ickness": 4081,
      "Ġcompr": 4082,
      "Ġ45": 4083,
      "Ġoxygen": 4084,
      "Ġpsychological": 4085,
      "Me": 4086,
      "morph": 4087,
      "ĠDuring": 4088,
      "Ġapopt": 4089,
      "MRI": 4090,
      "Ġintermediate": 4091,
      "Ġsubset": 4092,
      "Ġprofessional": 4093,
      "Ġdosing": 4094,
      "Ph": 4095,
      "oking": 4096,
      "tle": 4097,
      "ĠFrontotemporal": 4098,
      "Ġqual": 4099,
      "Ġguidel": 4100,
      "Ġcountries": 4101,
      "ĠUBQLN": 4102,
      "Ġamb": 4103,
      "phragm": 4104,
      "Ġeng": 4105,
      "Ġappropri": 4106,
      "tingu": 4107,
      "Ġenhance": 4108,
      "Ġrelatively": 4109,
      "Ġmolecules": 4110,
      "Ġhalf": 4111,
      "ĠCu": 4112,
      "Ġdistingu": 4113,
      "Ġterms": 4114,
      "Ġled": 4115,
      "Ġsecre": 4116,
      "Ġpreclinical": 4117,
      "Ġ70": 4118,
      "Ġopin": 4119,
      "mean": 4120,
      "ĠInvestigator": 4121,
      "rid": 4122,
      "Ġamplitude": 4123,
      "Ġsubtypes": 4124,
      "rical": 4125,
      "ĠLife": 4126,
      "ognition": 4127,
      "Ġcytos": 4128,
      "Ġoccurred": 4129,
      "Ġclassified": 4130,
      "Ġenrollment": 4131,
      "+/-": 4132,
      "\\]": 4133,
      "Ġcorrespond": 4134,
      "Ġextract": 4135,
      "Ġprocessing": 4136,
      "Ġbecome": 4137,
      "ĠBehavi": 4138,
      "Ġstatistically": 4139,
      "ĠAN": 4140,
      "Ġfibroblast": 4141,
      "ippocamp": 4142,
      "Ġimplant": 4143,
      "Ġdegradation": 4144,
      "valu": 4145,
      "fficiency": 4146,
      "Ġconnectivity": 4147,
      "eb": 4148,
      "itant": 4149,
      "istent": 4150,
      "Ġalone": 4151,
      "Ġmid": 4152,
      "comitant": 4153,
      "Ġprocedure": 4154,
      "arb": 4155,
      "rometry": 4156,
      "ĠBCI": 4157,
      "lasma": 4158,
      "ĠbvFTD": 4159,
      "Ġthreshold": 4160,
      "Ġextensive": 4161,
      "Ġstatistical": 4162,
      "Ġwalk": 4163,
      "31": 4164,
      "42": 4165,
      "Ġshared": 4166,
      "Ġhazard": 4167,
      "Ġexcitability": 4168,
      "lacebo": 4169,
      "Ġinhibitor": 4170,
      "Ġneuropathological": 4171,
      "Al": 4172,
      "tary": 4173,
      "ĠAdmin": 4174,
      "Ġproblems": 4175,
      "Med": 4176,
      "Ġles": 4177,
      "ĠMost": 4178,
      "Ġregistry": 4179,
      "Ġanalysed": 4180,
      "Ġserve": 4181,
      "Ġdegree": 4182,
      "Ġpercentage": 4183,
      "37": 4184,
      "Ġtop": 4185,
      "Ġeligible": 4186,
      "Ġlymph": 4187,
      "ĠCl": 4188,
      "Ġgrad": 4189,
      "Ġmitochondria": 4190,
      "meric": 4191,
      "Ġbio": 4192,
      "Ġelectro": 4193,
      "ĠECAS": 4194,
      "down": 4195,
      "Ġstability": 4196,
      "Ġforced": 4197,
      "Ġgait": 4198,
      "Ġseg": 4199,
      "Ġscales": 4200,
      "ĠUMN": 4201,
      "Ġemerging": 4202,
      "Ġsubsequent": 4203,
      "rs": 4204,
      "syn": 4205,
      "ame": 4206,
      "ĠSG": 4207,
      "ĠLong": 4208,
      "ĠScore": 4209,
      "terminal": 4210,
      "Ġachieved": 4211,
      "Ġchromosome": 4212,
      "ĠTBK": 4213,
      "NfL": 4214,
      "ef": 4215,
      "Ġside": 4216,
      "alliative": 4217,
      "Ġupon": 4218,
      "Ġdevast": 4219,
      "ĠUniversity": 4220,
      "Ġreliability": 4221,
      "Ġdatabases": 4222,
      "57": 4223,
      "Ġcharacterize": 4224,
      "Ġcluster": 4225,
      "mber": 4226,
      "Ġhippocamp": 4227,
      "Ġprop": 4228,
      "Ġfeeding": 4229,
      "Ġelectrophysiological": 4230,
      "ĠATXN": 4231,
      "operative": 4232,
      "Ġopinion": 4233,
      "Ġdivers": 4234,
      "Ġoccurs": 4235,
      "Ġstandardized": 4236,
      "Ġheart": 4237,
      "Ġrepresents": 4238,
      "Ġhighlights": 4239,
      "Ġlocalization": 4240,
      "AUC": 4241,
      "Ġoff": 4242,
      "anu": 4243,
      "Ġeth": 4244,
      "Ġ65": 4245,
      "going": 4246,
      "Ġversion": 4247,
      "DNA": 4248,
      "sp": 4249,
      "Ġlif": 4250,
      "Ġcollection": 4251,
      "Ġdiffusion": 4252,
      "use": 4253,
      "Ġcontaining": 4254,
      "Ġrestr": 4255,
      "Ġsearch": 4256,
      "Ġadvances": 4257,
      "Ġdenervation": 4258,
      "resting": 4259,
      "phal": 4260,
      "Ġacqu": 4261,
      "lob": 4262,
      "Ġgluc": 4263,
      "ĠUnited": 4264,
      "This": 4265,
      "Ġtongue": 4266,
      "osomes": 4267,
      "Ġang": 4268,
      "ĠGroup": 4269,
      "Ġproteinopathy": 4270,
      "ĠVital": 4271,
      "Ġmechanical": 4272,
      "ranial": 4273,
      "Ġheterozygous": 4274,
      "Ġteam": 4275,
      "Ġultrasound": 4276,
      "Ġdevastating": 4277,
      "EN": 4278,
      "ered": 4279,
      "ese": 4280,
      "Ġmales": 4281,
      "tau": 4282,
      "Ġmemory": 4283,
      "peated": 4284,
      "Ġconse": 4285,
      "Ġhere": 4286,
      "Ġintake": 4287,
      "FN": 4288,
      "FMSE": 4289,
      "Ġdensity": 4290,
      "ĠDif": 4291,
      "Ġspread": 4292,
      "Ġagents": 4293,
      "Ġauton": 4294,
      "mg": 4295,
      "Ġminutes": 4296,
      "Ġconsecutive": 4297,
      "99": 4298,
      "Clinical": 4299,
      "for": 4300,
      "isation": 4301,
      "Ġrehabilitation": 4302,
      "Ġpolymorph": 4303,
      "ĠQuality": 4304,
      "leg": 4305,
      "Ġabeparvovec": 4306,
      "Ġimproving": 4307,
      "Ġcarrier": 4308,
      "Ġtele": 4309,
      "anuary": 4310,
      "cortical": 4311,
      "Ġplatform": 4312,
      "Ġresulted": 4313,
      "Ġtranscripts": 4314,
      "Ġcertain": 4315,
      "land": 4316,
      "ĠBased": 4317,
      "week": 4318,
      "erved": 4319,
      "ĠChild": 4320,
      "itable": 4321,
      "Ġmac": 4322,
      "otrop": 4323,
      "ĠHR": 4324,
      "trod": 4325,
      "Ġpropose": 4326,
      "ption": 4327,
      "ĠBMI": 4328,
      "Ġbehavior": 4329,
      "Ġrandomization": 4330,
      "Ġintracellular": 4331,
      "(+)": 4332,
      "86": 4333,
      "Ġmim": 4334,
      "osed": 4335,
      "rade": 4336,
      "ird": 4337,
      "overed": 4338,
      "Ġexperienced": 4339,
      "Ġindependently": 4340,
      "Ġoverexpression": 4341,
      "Ġnecessary": 4342,
      "Ġstro": 4343,
      "Ġmutants": 4344,
      "nea": 4345,
      "Ġvariable": 4346,
      "ĠMethods": 4347,
      "Ġmisfolded": 4348,
      "Ġappropriate": 4349,
      "47": 4350,
      "ĠST": 4351,
      "Ġmicrobi": 4352,
      "Ġdeterior": 4353,
      "Ġanalyze": 4354,
      "ĠSignificant": 4355,
      "Ġsusceptibility": 4356,
      "GR": 4357,
      "To": 4358,
      "Ġcut": 4359,
      "itary": 4360,
      "elior": 4361,
      "Ġextrem": 4362,
      "upport": 4363,
      "Ġoptim": 4364,
      "Ġarticle": 4365,
      "Ġphosphorylation": 4366,
      "CHD": 4367,
      "free": 4368,
      "kinson": 4369,
      "arth": 4370,
      "ceived": 4371,
      "Ġvi": 4372,
      "ending": 4373,
      "Ġcomplications": 4374,
      "ensor": 4375,
      "ĠDisord": 4376,
      "ĠSurvival": 4377,
      "cle": 4378,
      "Ġlac": 4379,
      "gency": 4380,
      "Ġmicroglial": 4381,
      "Ġradi": 4382,
      "Ġgranules": 4383,
      "essive": 4384,
      "Ġchann": 4385,
      "ĠNeuromuscular": 4386,
      "Ġworse": 4387,
      "96": 4388,
      "etes": 4389,
      "adr": 4390,
      "Ġparkinson": 4391,
      "Ġauth": 4392,
      "Ġremained": 4393,
      "Ġtake": 4394,
      "Ġdiverse": 4395,
      "Gen": 4396,
      "hel": 4397,
      "Ġsk": 4398,
      "ĠBrain": 4399,
      "stage": 4400,
      "Ġplays": 4401,
      "ĠDementia": 4402,
      "Ġnetworks": 4403,
      "Ġrecruit": 4404,
      "PTN": 4405,
      "pan": 4406,
      "ister": 4407,
      "Ġfree": 4408,
      "Ġreference": 4409,
      "ĠDep": 4410,
      "Ġneuroimaging": 4411,
      "ĠIns": 4412,
      "Ġdisturb": 4413,
      "Ġresponsible": 4414,
      "Ġcorrect": 4415,
      "88": 4416,
      "ote": 4417,
      "unting": 4418,
      "ĠIs": 4419,
      "ĠEach": 4420,
      "Ġsuppress": 4421,
      "Ġauto": 4422,
      "Ġcorrelate": 4423,
      "Ġassemb": 4424,
      "aments": 4425,
      "ocytes": 4426,
      "ĠDys": 4427,
      "Ġtransplant": 4428,
      "Ġaging": 4429,
      "mL": 4430,
      "inations": 4431,
      "Ġseem": 4432,
      "Ġintravenous": 4433,
      "DR": 4434,
      "coding": 4435,
      "man": 4436,
      "ĠCox": 4437,
      "ching": 4438,
      "ĠJanuary": 4439,
      "Ġregulatory": 4440,
      "Ġattention": 4441,
      "Ġpregnancy": 4442,
      "46": 4443,
      "rex": 4444,
      "Ġasked": 4445,
      "Ġcausative": 4446,
      "Ġagree": 4447,
      "Ġoccurrence": 4448,
      "citability": 4449,
      "Ġhomozygous": 4450,
      "inning": 4451,
      "eration": 4452,
      "ĠAcc": 4453,
      "Ġrecessive": 4454,
      "Ġ2019": 4455,
      "BD": 4456,
      "upt": 4457,
      "enet": 4458,
      "Ġpediatric": 4459,
      "ibr": 4460,
      "Ġmake": 4461,
      "ohist": 4462,
      "Ass": 4463,
      "ank": 4464,
      "ĠIV": 4465,
      "ĠFollow": 4466,
      "ĠNor": 4467,
      "Ġcapt": 4468,
      "ĠOther": 4469,
      "ĠContro": 4470,
      "Ġbeneficial": 4471,
      "ĠAr": 4472,
      "Ġey": 4473,
      "Ġrecording": 4474,
      "olecular": 4475,
      "Ġdespite": 4476,
      "Ġmedicine": 4477,
      "Ġemotional": 4478,
      "reported": 4479,
      "Ġflow": 4480,
      "ĠMon": 4481,
      "Ġspasticity": 4482,
      "Ġalg": 4483,
      "Ġclose": 4484,
      "Ġelectromyography": 4485,
      "Ġgoal": 4486,
      "ĠQuestionnaire": 4487,
      "Ġstroke": 4488,
      "icro": 4489,
      "Ġbal": 4490,
      "Ġthickness": 4491,
      "ilities": 4492,
      "Ġ32": 4493,
      "ogenesis": 4494,
      "Ġlargely": 4495,
      "ĠOb": 4496,
      "Ġextension": 4497,
      "Ġbenefits": 4498,
      "Ġpalsy": 4499,
      "IM": 4500,
      "iPSC": 4501,
      "itation": 4502,
      "ream": 4503,
      "orith": 4504,
      "Ġlig": 4505,
      "Ġshowing": 4506,
      "Ġsupporting": 4507,
      "Ġbreast": 4508,
      "ĠPrevious": 4509,
      "53": 4510,
      "Ġge": 4511,
      "Ġnational": 4512,
      "Ġinterfe": 4513,
      "Ġcommunity": 4514,
      "cin": 4515,
      "Ġnumb": 4516,
      "Ġlung": 4517,
      "ilest": 4518,
      "Ġ29": 4519,
      "uclear": 4520,
      "Ġemer": 4521,
      "Ġlimbs": 4522,
      "ĠEvents": 4523,
      "Ġopportun": 4524,
      "GA": 4525,
      "Ġinterpre": 4526,
      "ĠUse": 4527,
      "Ġcontin": 4528,
      "Ġmovements": 4529,
      "aut": 4530,
      "Ġtyp": 4531,
      "ĠAmeric": 4532,
      "used": 4533,
      "Ġhorn": 4534,
      "Ġstart": 4535,
      "ĠNE": 4536,
      "Ġabund": 4537,
      "iabetes": 4538,
      "ĠExp": 4539,
      "hood": 4540,
      "ĠTime": 4541,
      "clusions": 4542,
      "Ġcenter": 4543,
      "Ġcalcium": 4544,
      "Ġneuropsychological": 4545,
      "We": 4546,
      "vis": 4547,
      "wa": 4548,
      "Ġpilot": 4549,
      "ĠProtein": 4550,
      "encies": 4551,
      "Ġcontributes": 4552,
      "cutaneous": 4553,
      "ĠDiagnosis": 4554,
      "caus": 4555,
      "odium": 4556,
      "istics": 4557,
      "Ġaxon": 4558,
      "Ġrecords": 4559,
      "Ġpregnant": 4560,
      "Ġdemographic": 4561,
      "Im": 4562,
      "side": 4563,
      "Ġbodies": 4564,
      "oliosis": 4565,
      "Ġmodified": 4566,
      "Ġ33": 4567,
      "Ġaccount": 4568,
      "Ġamelior": 4569,
      "Ġarticles": 4570,
      "Ġcosts": 4571,
      "Ġfeasibility": 4572,
      "Ġguidelines": 4573,
      "part": 4574,
      "Ġsch": 4575,
      "ĠThey": 4576,
      "Ġspl": 4577,
      "Ġinvas": 4578,
      "Ġpossib": 4579,
      "Ġinhibitors": 4580,
      "Ġcompounds": 4581,
      "67": 4582,
      "estern": 4583,
      "ĠNP": 4584,
      "Ġaccomp": 4585,
      "ĠRNAs": 4586,
      "ĠINTER": 4587,
      "ĠCan": 4588,
      "Ġsupported": 4589,
      "Ġoptions": 4590,
      "copic": 4591,
      "Ġsubgroups": 4592,
      "ĠSim": 4593,
      "oflu": 4594,
      "Ġalgorith": 4595,
      "li": 4596,
      "Ġinn": 4597,
      "adj": 4598,
      "ĠGene": 4599,
      "ĠChina": 4600,
      "ĠCompared": 4601,
      "Ġenzyme": 4602,
      "Ġpunct": 4603,
      "asome": 4604,
      "Ġfil": 4605,
      "Ġonce": 4606,
      "ferences": 4607,
      "ensus": 4608,
      "neuron": 4609,
      "Ġtechnique": 4610,
      "Ġfocused": 4611,
      "Rs": 4612,
      "dds": 4613,
      "Ġsw": 4614,
      "ĠCor": 4615,
      "ociation": 4616,
      "Ġcough": 4617,
      "andom": 4618,
      "Ġmultif": 4619,
      "Ġvalidity": 4620,
      "Ġqualitative": 4621,
      "uptake": 4622,
      "68": 4623,
      "life": 4624,
      "herence": 4625,
      "ĠhnRN": 4626,
      "Ġsufficient": 4627,
      "ĠDrug": 4628,
      "ĠMeasure": 4629,
      "Ġextracellular": 4630,
      "Ġnumbers": 4631,
      "Ġult": 4632,
      "Ġcle": 4633,
      "Ġmental": 4634,
      "Ġrepeated": 4635,
      "Ġendogenous": 4636,
      "Ġapoptosis": 4637,
      "ĠCT": 4638,
      "formation": 4639,
      "ework": 4640,
      "ventional": 4641,
      "ĠStates": 4642,
      "abolism": 4643,
      "Ġcorticospinal": 4644,
      "coh": 4645,
      "pper": 4646,
      "ĠInf": 4647,
      "istance": 4648,
      "wenty": 4649,
      "tempt": 4650,
      "Ġaxons": 4651,
      "Ġexisting": 4652,
      "56": 4653,
      "Ġsil": 4654,
      "Ġnext": 4655,
      "Ġyield": 4656,
      "ancing": 4657,
      "Ġdegenerative": 4658,
      "Ġprediction": 4659,
      "91": 4660,
      "brain": 4661,
      "ĠAS": 4662,
      "ĠWeek": 4663,
      "Ġjud": 4664,
      "EMG": 4665,
      "ĠMultiple": 4666,
      "Ġclearance": 4667,
      "Ġcerebellar": 4668,
      "ĠPCR": 4669,
      "Ġcomorbid": 4670,
      "Ġmetal": 4671,
      "Ġyounger": 4672,
      "Ġsubstantial": 4673,
      "frontotemporal": 4674,
      "dequ": 4675,
      "ĠUnd": 4676,
      "SCs": 4677,
      "Ġcontact": 4678,
      "Ġdistal": 4679,
      "Ġoptimal": 4680,
      "Ġexhibit": 4681,
      "Ġpharmacological": 4682,
      "Ġvirus": 4683,
      "tub": 4684,
      "ĠMAT": 4685,
      "Ġmediated": 4686,
      "Ġnoninvasive": 4687,
      "Ġratios": 4688,
      "Ġdevices": 4689,
      "Ġwidely": 4690,
      "De": 4691,
      "treated": 4692,
      "ĠTotal": 4693,
      "terol": 4694,
      "Ġassays": 4695,
      "Ġprotect": 4696,
      "Ġabove": 4697,
      "jectives": 4698,
      "Ġcannot": 4699,
      "ĠReview": 4700,
      "ORF": 4701,
      "Ġwalking": 4702,
      "Ġservices": 4703,
      "Ġview": 4704,
      "44": 4705,
      "92": 4706,
      "ĠAct": 4707,
      "reditary": 4708,
      "Ġscan": 4709,
      "Ġsurface": 4710,
      "umerous": 4711,
      "imb": 4712,
      "ĠPR": 4713,
      "PCR": 4714,
      "level": 4715,
      "igned": 4716,
      "Ġtreating": 4717,
      "earing": 4718,
      "Ġmanner": 4719,
      "Ġtherapeutics": 4720,
      "ĠMean": 4721,
      "Ġcorrelates": 4722,
      "Ġamino": 4723,
      "Ġongoing": 4724,
      "ĠRO": 4725,
      "ades": 4726,
      "ĠElect": 4727,
      "Ġobservation": 4728,
      "Ġmeaning": 4729,
      "clude": 4730,
      "Ġbrainstem": 4731,
      "73": 4732,
      "including": 4733,
      "Ġgenot": 4734,
      "Ġwhose": 4735,
      "activity": 4736,
      "Ġwilling": 4737,
      "Ġpersons": 4738,
      "rin": 4739,
      "imen": 4740,
      "ĠPET": 4741,
      "ĠEffect": 4742,
      "Ġarg": 4743,
      "Ġmobility": 4744,
      "ENT": 4745,
      "HC": 4746,
      "ik": 4747,
      "pread": 4748,
      "range": 4749,
      "Ġtum": 4750,
      "ally": 4751,
      "ĠPl": 4752,
      "Ġ2020": 4753,
      "Ġdyst": 4754,
      "Ġeducation": 4755,
      "CNS": 4756,
      "Ġcognition": 4757,
      "anine": 4758,
      "Ġseven": 4759,
      "ĠVis": 4760,
      "Ġextent": 4761,
      "Ġ75": 4762,
      "Ġreceptors": 4763,
      "Ġpoorly": 4764,
      "Ġdiaphragm": 4765,
      "Con": 4766,
      "Ġregional": 4767,
      "Ġadvance": 4768,
      "ĠmiRNA": 4769,
      "okinetics": 4770,
      "Ġyoung": 4771,
      "ĠHigher": 4772,
      "raw": 4773,
      "Ġscored": 4774,
      "state": 4775,
      "andemic": 4776,
      "Ġevaluating": 4777,
      "Ġvaluable": 4778,
      "Ġpeak": 4779,
      "idespread": 4780,
      "Ġfibroblasts": 4781,
      "41": 4782,
      "Ġexecutive": 4783,
      "def": 4784,
      "Ġcenters": 4785,
      "scale": 4786,
      "okines": 4787,
      "Ġcontraception": 4788,
      "ĠMutations": 4789,
      "iating": 4790,
      "Ġ,": 4791,
      "Ġbind": 4792,
      "Ġconc": 4793,
      "criptom": 4794,
      "tructural": 4795,
      "ĠItalian": 4796,
      "SS": 4797,
      "ĠSP": 4798,
      "Ġdegrees": 4799,
      "Da": 4800,
      "Ġfood": 4801,
      "Ġpromin": 4802,
      "lling": 4803,
      "Ġspatial": 4804,
      "Ġmetric": 4805,
      "ĠDiseases": 4806,
      "Ġaccurate": 4807,
      "Ġpublic": 4808,
      "Ġinherited": 4809,
      ")).": 4810,
      "BB": 4811,
      "Ġuptake": 4812,
      "ĠSw": 4813,
      "cember": 4814,
      "ĠRandom": 4815,
      "Ġreducing": 4816,
      "101": 4817,
      "Ġresearchers": 4818,
      "IX": 4819,
      "Ġasymptomatic": 4820,
      "ĠVCP": 4821,
      "mitted": 4822,
      "Ġdistinguish": 4823,
      "Ġdon": 4824,
      "Ġfoci": 4825,
      "lements": 4826,
      "Ġhum": 4827,
      "ĠPub": 4828,
      "Ġselection": 4829,
      "ĠHunting": 4830,
      "Ġtransfer": 4831,
      "ĠCohort": 4832,
      "Ġbarrier": 4833,
      "arthria": 4834,
      "OBJECTIVES": 4835,
      "Ġeight": 4836,
      "Ġemb": 4837,
      "conomic": 4838,
      "ĠImport": 4839,
      "mith": 4840,
      "arcom": 4841,
      "Ġonasemnogene": 4842,
      "Ġgr": 4843,
      "Ġatax": 4844,
      "ĠGu": 4845,
      "ĠGerm": 4846,
      "Ġcytoplasm": 4847,
      "stitut": 4848,
      "Ġadjusted": 4849,
      "Vs": 4850,
      "orp": 4851,
      "Ġconcomitant": 4852,
      "Ġexpect": 4853,
      "odes": 4854,
      "Ġresour": 4855,
      "Ġtrun": 4856,
      "Ġevolution": 4857,
      "ĠMedic": 4858,
      "Ġmanifestations": 4859,
      "Ġtowards": 4860,
      "Ġpredominantly": 4861,
      "84": 4862,
      "Ġattempt": 4863,
      "Ġ42": 4864,
      "Ġefficient": 4865,
      "Ġrelevance": 4866,
      "Ġlogistic": 4867,
      "arynge": 4868,
      "Ġinvasive": 4869,
      ")/": 4870,
      "CF": 4871,
      "Ġrenal": 4872,
      "ĠEfficacy": 4873,
      "Ġ37": 4874,
      "Ġintensity": 4875,
      "Ġvoluntary": 4876,
      "Ġtube": 4877,
      "cohol": 4878,
      "inated": 4879,
      "Ġpalliative": 4880,
      "Ġfund": 4881,
      "urg": 4882,
      "ula": 4883,
      "ĠSh": 4884,
      "antly": 4885,
      "thers": 4886,
      "Ġexcluded": 4887,
      "Ġorth": 4888,
      "Ġreprod": 4889,
      "ĠImmun": 4890,
      "bearing": 4891,
      "cranial": 4892,
      "ĠSET": 4893,
      "Ġgut": 4894,
      "aining": 4895,
      "illing": 4896,
      "Ġmaking": 4897,
      "ĠPeri": 4898,
      "Ġprolonged": 4899,
      ")),": 4900,
      "94": 4901,
      "aw": 4902,
      "reb": 4903,
      "Ġann": 4904,
      "Ġsear": 4905,
      "ifications": 4906,
      "stream": 4907,
      "Ġsurv": 4908,
      "struct": 4909,
      "Ġdiscussed": 4910,
      "Ġanimals": 4911,
      "Ġwrit": 4912,
      "ptides": 4913,
      "tenu": 4914,
      "Ġmislocalization": 4915,
      "Ġinterfere": 4916,
      "ench": 4917,
      "uter": 4918,
      "Ġconver": 4919,
      "Ġunits": 4920,
      "Ġrepair": 4921,
      "Ġbiochemical": 4922,
      "Ġmaintain": 4923,
      "ĠWhen": 4924,
      "ready": 4925,
      "Ġcreatinine": 4926,
      "ĠCapacity": 4927,
      "Ob": 4928,
      "Ġintrod": 4929,
      "Ġdim": 4930,
      "Ġmilest": 4931,
      "Ġpathologies": 4932,
      "ĠBlood": 4933,
      "Ġfunctioning": 4934,
      "weight": 4935,
      "Ġabd": 4936,
      "Ġsupplement": 4937,
      "orescence": 4938,
      "ĠSeveral": 4939,
      "Ġpromote": 4940,
      "Ġchallenging": 4941,
      "Ġmissense": 4942,
      "ho": 4943,
      "ytic": 4944,
      "Ġodds": 4945,
      "Ġdeep": 4946,
      "rench": 4947,
      "Ġgenetics": 4948,
      "Ġconduction": 4949,
      "ĠRespiratory": 4950,
      "Ġfacilitate": 4951,
      "aryngeal": 4952,
      "63": 4953,
      "onia": 4954,
      "Ġnature": 4955,
      "ulates": 4956,
      "Ġcontain": 4957,
      "avy": 4958,
      "ĠDecember": 4959,
      "Ġworld": 4960,
      "ĠCHCHD": 4961,
      "Ġframework": 4962,
      "arcoma": 4963,
      "52": 4964,
      "Ġtable": 4965,
      "erb": 4966,
      "Ġster": 4967,
      "Ġconcept": 4968,
      "ĠPe": 4969,
      "ops": 4970,
      "ĠOPTN": 4971,
      "Ġintern": 4972,
      "Ġpresenting": 4973,
      "AEs": 4974,
      "pen": 4975,
      "ogether": 4976,
      "Ġattribut": 4977,
      "Ġnewborn": 4978,
      "ĠClinically": 4979,
      "ĠIndividual": 4980,
      "Ġtrauma": 4981,
      "wise": 4982,
      "ĠPlasma": 4983,
      "Ġrelation": 4984,
      "ionnaires": 4985,
      "allel": 4986,
      "Ġrecruitment": 4987,
      "ued": 4988,
      "Ġiron": 4989,
      "Ġdiabetes": 4990,
      "ĠMin": 4991,
      "encephal": 4992,
      "Ġimproves": 4993,
      "Ġpredictors": 4994,
      "Ġmethylation": 4995,
      "ĠChildren": 4996,
      "ĠHuntington": 4997,
      "71": 4998,
      "urance": 4999,
      "Ġmeans": 5000,
      "Ġscoliosis": 5001,
      "Ġalready": 5002,
      "ĠUpper": 5003,
      "ETATION": 5004,
      "PRETATION": 5005,
      "Ġestimates": 5006,
      "ĠmiRNAs": 5007,
      "Ġrecognized": 5008,
      "Ġvulnerability": 5009,
      "ĠINTERPRETATION": 5010,
      "Ġmuch": 5011,
      "ĠSI": 5012,
      "raf": 5013,
      "Ġbeg": 5014,
      "Ġwhat": 5015,
      "ĠThree": 5016,
      "Ġtraject": 5017,
      "Ġhighlighting": 5018,
      "Ġpossibly": 5019,
      ".'": 5020,
      "AM": 5021,
      "Ġaid": 5022,
      "amine": 5023,
      "Ġinduce": 5024,
      "Ġdynamic": 5025,
      "EL": 5026,
      "Res": 5027,
      "yond": 5028,
      "Ġpa": 5029,
      "Ġwors": 5030,
      "Ġwidespread": 5031,
      "etal": 5032,
      "Ġstabil": 5033,
      "Ġgyr": 5034,
      "Ġagent": 5035,
      "artment": 5036,
      "cribed": 5037,
      "olesterol": 5038,
      "restingly": 5039,
      "Ġhereditary": 5040,
      "Ġmodulation": 5041,
      "etyl": 5042,
      "Ġrequiring": 5043,
      "ĠSerum": 5044,
      "Ġmachine": 5045,
      "Ġrelease": 5046,
      "89": 5047,
      "most": 5048,
      "Ġche": 5049,
      "Ġway": 5050,
      "otential": 5051,
      "ogram": 5052,
      "ptic": 5053,
      "stable": 5054,
      "Ġtasks": 5055,
      "iovascular": 5056,
      "Ġdeterioration": 5057,
      "GS": 5058,
      "MO": 5059,
      "max": 5060,
      "Ġpol": 5061,
      "ulf": 5062,
      "teers": 5063,
      "Ġexcess": 5064,
      "Ġproduced": 5065,
      "Ġsignals": 5066,
      "Ġinterviews": 5067,
      "Ġcorresponding": 5068,
      "ino": 5069,
      "onucleotide": 5070,
      "Ġrevers": 5071,
      "omotor": 5072,
      "Ġvide": 5073,
      "Ġactivated": 5074,
      "ext": 5075,
      "Ġcomparing": 5076,
      "Ġrelationships": 5077,
      "Ġlittle": 5078,
      "Ġprominent": 5079,
      "Ġpandemic": 5080,
      "Ġfav": 5081,
      "cereb": 5082,
      "ersmith": 5083,
      "Ġexcept": 5084,
      "Ġrather": 5085,
      "Ġ2017": 5086,
      "amma": 5087,
      "Ġcontent": 5088,
      "Ġlimitations": 5089,
      "Ġmulticenter": 5090,
      "Ġissues": 5091,
      "Ġunable": 5092,
      "ĠUK": 5093,
      "ammersmith": 5094,
      "containing": 5095,
      "Ġdelayed": 5096,
      "Ġproducts": 5097,
      "Ġseparation": 5098,
      "Ġaccompan": 5099,
      "Ġcore": 5100,
      "Ġnor": 5101,
      "Ġthor": 5102,
      "Ġhype": 5103,
      "estinal": 5104,
      "riched": 5105,
      "Ġpositively": 5106,
      "Ġepidemiological": 5107,
      "pressing": 5108,
      "Ġsessions": 5109,
      "PV": 5110,
      "Ġinst": 5111,
      "odal": 5112,
      "ĠND": 5113,
      "Ġtypically": 5114,
      "adjusted": 5115,
      "oked": 5116,
      "Ġoffer": 5117,
      "ĠRel": 5118,
      "ĠEMG": 5119,
      "ensitivity": 5120,
      "Ġrequires": 5121,
      "Ġsummary": 5122,
      "Ġcontinuous": 5123,
      "BI": 5124,
      "Ġpy": 5125,
      "Ġpaper": 5126,
      "ulum": 5127,
      "Ġdependent": 5128,
      "Ġdetailed": 5129,
      "Ġ2021": 5130,
      "Ġdistress": 5131,
      "Ġantioxid": 5132,
      "Ġcycle": 5133,
      "Ġmisfolding": 5134,
      "Ġstratif": 5135,
      "causing": 5136,
      "hospital": 5137,
      "Ġothers": 5138,
      "ĠAut": 5139,
      "Ġproximal": 5140,
      "Ġsuf": 5141,
      "Ġmitig": 5142,
      "Ġhydro": 5143,
      "Ġoverlap": 5144,
      "Ġcalled": 5145,
      "immune": 5146,
      "BA": 5147,
      "Ġsoci": 5148,
      "Ġfinal": 5149,
      "Ġthalam": 5150,
      "raz": 5151,
      "amil": 5152,
      "Ġnerves": 5153,
      "GRN": 5154,
      "RR": 5155,
      "rance": 5156,
      "ser": 5157,
      "ift": 5158,
      "phone": 5159,
      "Ġglyc": 5160,
      "isted": 5161,
      "Ġinvers": 5162,
      "ĠAnt": 5163,
      "ĠIndex": 5164,
      "Ġconcern": 5165,
      "ĠCanad": 5166,
      "ou": 5167,
      "atitis": 5168,
      "Ġreactive": 5169,
      "ĠNumber": 5170,
      "ĠStudies": 5171,
      "Ġdepletion": 5172,
      "ĠPharmac": 5173,
      "Ġlesions": 5174,
      "ners": 5175,
      "ĠCent": 5176,
      "Ġsuspected": 5177,
      "Ġblock": 5178,
      "ochemistry": 5179,
      "Ġload": 5180,
      "FM": 5181,
      "PURPOSE": 5182,
      "fH": 5183,
      "Ġadequ": 5184,
      "ened": 5185,
      "ills": 5186,
      "ĠPRO": 5187,
      "oglob": 5188,
      "Ġwhom": 5189,
      "ĠBet": 5190,
      "Ġamount": 5191,
      "Ġsynthesis": 5192,
      "ĠAdministration": 5193,
      "ĠDisorders": 5194,
      "Ġaccompanied": 5195,
      "ged": 5196,
      "Â®": 5197,
      "icted": 5198,
      "arrow": 5199,
      "Ġhorm": 5200,
      "ĠCRI": 5201,
      "Ġneur": 5202,
      "ĠMy": 5203,
      "ysical": 5204,
      "ocyte": 5205,
      "umin": 5206,
      "ymal": 5207,
      "Ġprevalent": 5208,
      "Ġemerged": 5209,
      "Ġcomposition": 5210,
      "Ġparents": 5211,
      "Ġrats": 5212,
      "Ġemployed": 5213,
      "RD": 5214,
      "vari": 5215,
      "ĠMUN": 5216,
      "ffected": 5217,
      "Ġsubun": 5218,
      "Ġconstruct": 5219,
      "Ġdifferentiation": 5220,
      "Ġtwice": 5221,
      "ĠInterestingly": 5222,
      "Ġoccupational": 5223,
      "symptomatic": 5224,
      "ters": 5225,
      "ying": 5226,
      "Ġtypical": 5227,
      "teen": 5228,
      "oprotein": 5229,
      "Ġalcohol": 5230,
      "Ġdemonstrates": 5231,
      "Ġcontributing": 5232,
      "Ġdocumented": 5233,
      "Ġparkinsonism": 5234,
      "rexcitability": 5235,
      "AA": 5236,
      "chem": 5237,
      "itory": 5238,
      "ided": 5239,
      "Ġ38": 5240,
      "Ġdiffer": 5241,
      "lope": 5242,
      "Ġpossibility": 5243,
      "Ġimprovements": 5244,
      "arriers": 5245,
      "RT": 5246,
      "omous": 5247,
      "ĠMD": 5248,
      "ĠPers": 5249,
      "Ġusually": 5250,
      "Ġreveals": 5251,
      "Ġinfusion": 5252,
      "Ġprofessionals": 5253,
      "idine": 5254,
      "endel": 5255,
      "Ġclar": 5256,
      "Ġcouns": 5257,
      "Ġdisruption": 5258,
      "ĠTwenty": 5259,
      "ĠCMAP": 5260,
      "Ġsee": 5261,
      "ĠEarly": 5262,
      "Ġpert": 5263,
      "Ġsyndromes": 5264,
      "Ġreading": 5265,
      "Ġsatisfaction": 5266,
      "Ġextracted": 5267,
      "endelian": 5268,
      "dose": 5269,
      "Ġheavy": 5270,
      "Ġuncertain": 5271,
      "Ġtranscriptom": 5272,
      "Ġexperiences": 5273,
      "Ġexcitotoxicity": 5274,
      "Ġbalance": 5275,
      "%;": 5276,
      "ocl": 5277,
      "Ġsmoking": 5278,
      "Ġpanel": 5279,
      "Ġgyrus": 5280,
      ")(": 5281,
      "39": 5282,
      "Ab": 5283,
      "test": 5284,
      "ota": 5285,
      "oscopic": 5286,
      "Ġattenu": 5287,
      "Ġsignature": 5288,
      "Ġrecognition": 5289,
      "ĠBiomarkers": 5290,
      "Mut": 5291,
      "Ġfold": 5292,
      "creased": 5293,
      "Ġinspiratory": 5294,
      "INE": 5295,
      "Ġgeneration": 5296,
      "Ġpathophysiological": 5297,
      "66": 5298,
      "Pro": 5299,
      "Ġ55": 5300,
      "Ġcharacterization": 5301,
      "Ġimmunohist": 5302,
      "Ġwarr": 5303,
      "Ġbas": 5304,
      "ĠDES": 5305,
      "llig": 5306,
      "Ġquestion": 5307,
      "Ġconsists": 5308,
      "ĠItaly": 5309,
      "olerability": 5310,
      "Ġisolated": 5311,
      "Ġhumans": 5312,
      "ĠDo": 5313,
      "illary": 5314,
      "Ġpreced": 5315,
      "Ġmetrics": 5316,
      "SM": 5317,
      "rec": 5318,
      "ĠPEG": 5319,
      "ĠHuman": 5320,
      "Ġprelim": 5321,
      "Ġvariety": 5322,
      "Ġencoding": 5323,
      "ĠPresence": 5324,
      "Is": 5325,
      "Motor": 5326,
      "inn": 5327,
      "Ġmill": 5328,
      "Ġnumerous": 5329,
      "ĠSALS": 5330,
      "alling": 5331,
      "ivided": 5332,
      "mia": 5333,
      "Ġcry": 5334,
      "Ġdied": 5335,
      "ascular": 5336,
      "phen": 5337,
      "Ġcoup": 5338,
      "Ġregular": 5339,
      "Ġdysarthria": 5340,
      "ULM": 5341,
      "Ġminor": 5342,
      "Ġquestionnaires": 5343,
      "Ġcardiovascular": 5344,
      "Ġenvironment": 5345,
      "AQ": 5346,
      "PLS": 5347,
      "UMN": 5348,
      "Ġens": 5349,
      "Ġdors": 5350,
      "Ġfar": 5351,
      "ĠWT": 5352,
      "Ġheight": 5353,
      "Ġunders": 5354,
      "ĠChanges": 5355,
      "Ġcollect": 5356,
      "Ġminimal": 5357,
      "Ġcount": 5358,
      "Ġterminal": 5359,
      "target": 5360,
      "Ġpenet": 5361,
      "ĠHSP": 5362,
      "ĠEm": 5363,
      "Ġ2018": 5364,
      "Ġ2022": 5365,
      "filaments": 5366,
      "Ġexposures": 5367,
      "Ġclinicians": 5368,
      "Ġintervals": 5369,
      "ĠRecently": 5370,
      "piration": 5371,
      "Ġglucose": 5372,
      "ĠImportantly": 5373,
      "pers": 5374,
      "Ġir": 5375,
      "Ġerr": 5376,
      "urable": 5377,
      "imately": 5378,
      "ĠSince": 5379,
      "ologous": 5380,
      "Ġperceived": 5381,
      "rone": 5382,
      "Ġinvestigations": 5383,
      "Ġreporting": 5384,
      "Ġmetabolites": 5385,
      "Ġappears": 5386,
      "79": 5387,
      "Ps": 5388,
      "UD": 5389,
      "che": 5390,
      "ĠCare": 5391,
      "clusive": 5392,
      "Ġforce": 5393,
      "Ġvary": 5394,
      "Ġaccoun": 5395,
      "ĠKn": 5396,
      "tenance": 5397,
      "QR": 5398,
      "ilation": 5399,
      "002": 5400,
      "Ġincident": 5401,
      "Ġcomplexity": 5402,
      "Ġsitu": 5403,
      "Ġorigin": 5404,
      "Ġtransplantation": 5405,
      "Ġinterpret": 5406,
      "inter": 5407,
      "enia": 5408,
      "antitative": 5409,
      "Ġaden": 5410,
      "iceps": 5411,
      "Ġ64": 5412,
      "iability": 5413,
      "ternal": 5414,
      "Ġepigen": 5415,
      "ĠEngl": 5416,
      "Ġdisplayed": 5417,
      "Ġpreliminary": 5418,
      "55": 5419,
      "alk": 5420,
      "Ġsodium": 5421,
      "Ġvacc": 5422,
      "ĠOpen": 5423,
      "Ġconsum": 5424,
      "Ġsupports": 5425,
      "Ġremaining": 5426,
      "Ġefficiency": 5427,
      "Ġnegatively": 5428,
      "Ġlacking": 5429,
      "Ġreplace": 5430,
      "Ġthereby": 5431,
      "Ġmater": 5432,
      "Ġintrins": 5433,
      "ĠATP": 5434,
      "Ġframe": 5435,
      "being": 5436,
      "Ġbelow": 5437,
      "Ġrecommendations": 5438,
      "Ġundersc": 5439,
      "xy": 5440,
      "Ġaround": 5441,
      "esench": 5442,
      "ĠCC": 5443,
      "pher": 5444,
      "odend": 5445,
      "Ġincorp": 5446,
      "hydro": 5447,
      "UR": 5448,
      "oot": 5449,
      "ool": 5450,
      "phosph": 5451,
      "Ġonline": 5452,
      "Ġcomm": 5453,
      "Ġexpiratory": 5454,
      "Ġobservations": 5455,
      "Ġdiscont": 5456,
      "ergent": 5457,
      "Ġcontinue": 5458,
      "dr": 5459,
      "sw": 5460,
      "Ġport": 5461,
      "eds": 5462,
      "ĠSix": 5463,
      "ĠFrench": 5464,
      "Ġenrich": 5465,
      "neuro": 5466,
      "Ġsensor": 5467,
      "Ġregulates": 5468,
      "Ġinfections": 5469,
      "Ġinjections": 5470,
      "co": 5471,
      "jection": 5472,
      "atom": 5473,
      "Ġwater": 5474,
      "acerb": 5475,
      "Ġ34": 5476,
      "Ġsitting": 5477,
      "Ġplanning": 5478,
      "ebraf": 5479,
      "Ġpuncture": 5480,
      "Ġsearched": 5481,
      "esenchymal": 5482,
      "ebrafish": 5483,
      "83": 5484,
      "IL": 5485,
      "cidence": 5486,
      "isdiplam": 5487,
      "item": 5488,
      "Ġeas": 5489,
      "ĠFDA": 5490,
      "Ġposterior": 5491,
      "Ġacids": 5492,
      "Ġtrigger": 5493,
      "Ġinverse": 5494,
      "PK": 5495,
      "mography": 5496,
      "Ġreach": 5497,
      "ĠCell": 5498,
      "Ġneu": 5499,
      "ĠMendelian": 5500,
      "aced": 5501,
      "Ġextend": 5502,
      "Ġupregulation": 5503,
      "Ġquantify": 5504,
      "Ġspectrometry": 5505,
      "Ġoligonucleotide": 5506,
      "STM": 5507,
      "iary": 5508,
      "uk": 5509,
      "ĠSpec": 5510,
      "ĠPotential": 5511,
      "Ġbias": 5512,
      "Ġconsensus": 5513,
      "roscopy": 5514,
      "Ġ2023": 5515,
      "ney": 5516,
      "Ġemphas": 5517,
      "Ġoccurring": 5518,
      "Ġsurgical": 5519,
      "Ġdiscrimin": 5520,
      "Ġefforts": 5521,
      "Co": 5522,
      "treatment": 5523,
      "rea": 5524,
      "Ġdire": 5525,
      "Ġlay": 5526,
      "Ġdepos": 5527,
      "ells": 5528,
      "ĠHammersmith": 5529,
      "ĠOBJECTIVES": 5530,
      "ĠGiven": 5531,
      "Ġreduces": 5532,
      "abolic": 5533,
      "nov": 5534,
      "Ġhyperexcitability": 5535,
      "64": 5536,
      "NIV": 5537,
      "Ġcure": 5538,
      "lete": 5539,
      "ĠDTI": 5540,
      "Ġranging": 5541,
      "Ġhypert": 5542,
      "Ġinfant": 5543,
      "Ġstimul": 5544,
      "Ġgenerally": 5545,
      "Ġallowed": 5546,
      "Ġinsufficiency": 5547,
      "etitive": 5548,
      "Ġconventional": 5549,
      "ĠPlacebo": 5550,
      "Ġsuic": 5551,
      "Ġcompens": 5552,
      "Ġcompletion": 5553,
      "ancer": 5554,
      "Ġcytokines": 5555,
      "Ġtranscriptional": 5556,
      "Ġsettings": 5557,
      "odendro": 5558,
      "58": 5559,
      "Ġstates": 5560,
      "ĠPK": 5561,
      "odynam": 5562,
      "amb": 5563,
      "Ġatypical": 5564,
      "Ġassigned": 5565,
      "Ġscient": 5566,
      "Ġmodeling": 5567,
      "Ġkg": 5568,
      "Ġcategories": 5569,
      "Ġlifes": 5570,
      "QoL": 5571,
      "QSTM": 5572,
      "WAS": 5573,
      "oice": 5574,
      "Ġhis": 5575,
      "ĠVari": 5576,
      "Ġincreasingly": 5577,
      "stitute": 5578,
      "Ġnutrition": 5579,
      "FD": 5580,
      "ĠFI": 5581,
      "Ġpool": 5582,
      "Ġneurologic": 5583,
      "Ġannual": 5584,
      "iers": 5585,
      "ĠEL": 5586,
      "Ġrecovery": 5587,
      "Ġdifferentially": 5588,
      "Ġextended": 5589,
      "ĠKing": 5590,
      "anned": 5591,
      "Ġlocated": 5592,
      "Ġstep": 5593,
      "Ġassembly": 5594,
      "ull": 5595,
      "olved": 5596,
      "ĠProte": 5597,
      "Ġexacerb": 5598,
      "ĠOral": 5599,
      "Ġparallel": 5600,
      "Ġoverview": 5601,
      "Ġmaintenance": 5602,
      "years": 5603,
      "apping": 5604,
      "Ġminimum": 5605,
      "risk": 5606,
      "Ġthird": 5607,
      "Ġ52": 5608,
      "pendence": 5609,
      "106": 5610,
      "elling": 5611,
      "Ġhighlighted": 5612,
      "uf": 5613,
      "ĠFALS": 5614,
      "athy": 5615,
      "Ġcoord": 5616,
      "Ġenriched": 5617,
      "Ġconfound": 5618,
      "Ġentire": 5619,
      "cause": 5620,
      "pnea": 5621,
      "Ġturn": 5622,
      "alian": 5623,
      "ctor": 5624,
      "Ġretic": 5625,
      "ĠFour": 5626,
      "Ġgive": 5627,
      "undred": 5628,
      "ĠOver": 5629,
      "uclein": 5630,
      "ferase": 5631,
      "ĠQoL": 5632,
      "Ġplacement": 5633,
      "ĠNeurodegenerative": 5634,
      "Ġrequirements": 5635,
      "Ġelucidate": 5636,
      "LPS": 5637,
      "world": 5638,
      "ĠCenter": 5639,
      "irty": 5640,
      "Ġneurone": 5641,
      "Ġspine": 5642,
      "Ġrisks": 5643,
      "neum": 5644,
      "Ġupd": 5645,
      "Ġjoint": 5646,
      "Ġsuperior": 5647,
      "Ġgranule": 5648,
      "74": 5649,
      "ICA": 5650,
      "Safety": 5651,
      "SPR": 5652,
      "back": 5653,
      "ils": 5654,
      "idates": 5655,
      "Ġinternal": 5656,
      "Ġtransmission": 5657,
      "Ġdysregulated": 5658,
      "Ġphenomen": 5659,
      "Ġelectrical": 5660,
      "Ġhospitalization": 5661,
      "Ġrecommended": 5662,
      "pathy": 5663,
      "Ġdigital": 5664,
      "Ġstarting": 5665,
      "Ġperturb": 5666,
      "Ġtemp": 5667,
      "Ġdivided": 5668,
      "iff": 5669,
      "Ġbeyond": 5670,
      "agon": 5671,
      "Ġmultivariate": 5672,
      "Ġtraditional": 5673,
      "Ġentry": 5674,
      "Ġcerebellum": 5675,
      "AIMS": 5676,
      "Ġimplementation": 5677,
      "Ġeye": 5678,
      "Ġlifespan": 5679,
      "TP": 5680,
      "Ġ/": 5681,
      "ĠHC": 5682,
      "Ġhem": 5683,
      "Ġvolunteers": 5684,
      "61": 5685,
      "Ġput": 5686,
      "udy": 5687,
      "oft": 5688,
      "Ġ44": 5689,
      "Ġdefine": 5690,
      "itudes": 5691,
      "Ġzebrafish": 5692,
      "Ġprecise": 5693,
      "ĠTherapy": 5694,
      "ĠNeurological": 5695,
      "59": 5696,
      "Ġloci": 5697,
      "ĠPAR": 5698,
      "ĠFuture": 5699,
      "uplex": 5700,
      "isting": 5701,
      "Ġapparent": 5702,
      "Ġmultis": 5703,
      "Ġvalidate": 5704,
      "Ġneurotoxicity": 5705,
      "Ġinternational": 5706,
      "PI": 5707,
      "Ġpure": 5708,
      "Ġcholesterol": 5709,
      "Ġrelatives": 5710,
      "APB": 5711,
      "Ġurine": 5712,
      "Ġfraction": 5713,
      "Ġwritten": 5714,
      "Ms": 5715,
      "with": 5716,
      "ĠSD": 5717,
      "ĠIdent": 5718,
      "Ġcomprom": 5719,
      "Ġ39": 5720,
      "ramidal": 5721,
      "appa": 5722,
      "ĠAppro": 5723,
      "ĠDESIGN": 5724,
      "ĠSpe": 5725,
      "opulation": 5726,
      "rief": 5727,
      "Ġinduces": 5728,
      "Ġprin": 5729,
      "Pati": 5730,
      "Ġdone": 5731,
      "ĠAf": 5732,
      "Ġtomography": 5733,
      "Ġdeb": 5734,
      "Ġconform": 5735,
      "ĠHIV": 5736,
      "Ġ41": 5737,
      "Ġmeasuring": 5738,
      "Ġinvolves": 5739,
      "Ġtraffic": 5740,
      "Ġnewly": 5741,
      "ximum": 5742,
      "Ġutilized": 5743,
      "Ġknockdown": 5744,
      "Ġdystrophy": 5745,
      "ey": 5746,
      "ipe": 5747,
      "Ġandrogen": 5748,
      "eth": 5749,
      "Ġresistance": 5750,
      "ĠReport": 5751,
      "Ġcords": 5752,
      "Ġnucleotide": 5753,
      "Ġsimple": 5754,
      "Ġperspective": 5755,
      "Ġcircu": 5756,
      "ontaneous": 5757,
      "ĠNotably": 5758,
      "Ġenrichment": 5759,
      "ĠSingle": 5760,
      "Ġnoted": 5761,
      "fication": 5762,
      "Ġchallenge": 5763,
      "Ġmaximal": 5764,
      "Ġalgorithm": 5765,
      "MC": 5766,
      "NfH": 5767,
      "psy": 5768,
      "Ġide": 5769,
      "Ġdrop": 5770,
      "mentation": 5771,
      "Ġbiopsy": 5772,
      "rosis": 5773,
      "Ġsystematically": 5774,
      "Ġgrowing": 5775,
      "Ġtracts": 5776,
      "Ġreferral": 5777,
      "Ġphysician": 5778,
      "81": 5779,
      "ymmet": 5780,
      "center": 5781,
      "Ġmechanistic": 5782,
      "Ġpartners": 5783,
      "Ġmorphology": 5784,
      "ĠEvaluation": 5785,
      "69": 5786,
      "Comp": 5787,
      "ware": 5788,
      "ĠAAV": 5789,
      "ĠTolerability": 5790,
      "atelet": 5791,
      "ĠStat": 5792,
      "Ġdeaths": 5793,
      "ĠMechan": 5794,
      "Ġepile": 5795,
      "Ġreflex": 5796,
      "Ġmicroscopy": 5797,
      "Ġantioxidant": 5798,
      "LT": 5799,
      "affected": 5800,
      "rine": 5801,
      "Ġfit": 5802,
      "arc": 5803,
      "Ġstaging": 5804,
      "ĠPost": 5805,
      "dered": 5806,
      "Ġproteinopathies": 5807,
      "Ġ61": 5808,
      "Ġcondens": 5809,
      "Ġprion": 5810,
      "ĠJapanese": 5811,
      "Ġreticulum": 5812,
      "PET": 5813,
      "UG": 5814,
      "ĠNSC": 5815,
      "Ġselect": 5816,
      "Ġcollab": 5817,
      "ĠConcentr": 5818,
      "Ġalleles": 5819,
      "Ġdifficulties": 5820,
      "%]": 5821,
      "77": 5822,
      "can": 5823,
      "Ġnine": 5824,
      "oded": 5825,
      "Ġresting": 5826,
      "ĠInit": 5827,
      "ĠGM": 5828,
      "Ġlobe": 5829,
      "Ġtiming": 5830,
      "Ġconsequences": 5831,
      "Ġvesicles": 5832,
      "49": 5833,
      "enz": 5834,
      "velopment": 5835,
      "Ġrandomly": 5836,
      "Ġdecades": 5837,
      "Ġmolecule": 5838,
      "Ġreplacement": 5839,
      "Ġdiscontinu": 5840,
      "FP": 5841,
      "Zn": 5842,
      "ste": 5843,
      "vir": 5844,
      "here": 5845,
      "ĠCells": 5846,
      "ĠPrimary": 5847,
      "ĠFe": 5848,
      "Ġhypoth": 5849,
      "Ġremote": 5850,
      "Ġaggregate": 5851,
      "ellar": 5852,
      "hyl": 5853,
      "Ġregulate": 5854,
      "Ġsmaller": 5855,
      "Ġastrocyte": 5856,
      "Ġoligodendro": 5857,
      "Ġassistance": 5858,
      "okine": 5859,
      "ĠVisit": 5860,
      "ots": 5861,
      "ĠTM": 5862,
      "ĠSome": 5863,
      "Ġweak": 5864,
      "ĠMA": 5865,
      "ĠIg": 5866,
      "ĠHFMSE": 5867,
      "Ġpotentials": 5868,
      "Ġretrospectively": 5869,
      "201": 5870,
      "Ar": 5871,
      "Ġtensor": 5872,
      "Ġexclusion": 5873,
      "ĠNCT": 5874,
      "Ġmodification": 5875,
      "Ġabilities": 5876,
      "Ġsubsc": 5877,
      "Ġformed": 5878,
      "Ġautom": 5879,
      "Ġbelie": 5880,
      "Ġbackground": 5881,
      "Ġataxia": 5882,
      "87": 5883,
      "cur": 5884,
      "Ġhundred": 5885,
      "Ġevident": 5886,
      "Ġparticipated": 5887,
      "Ġimmunore": 5888,
      "hyth": 5889,
      "ĠModel": 5890,
      "ĠCurrently": 5891,
      "Ġsummarize": 5892,
      "Ġsuccessfully": 5893,
      "Ġskills": 5894,
      "ĠSwed": 5895,
      "ber": 5896,
      "lan": 5897,
      "ĠPI": 5898,
      "activ": 5899,
      "Ġhemat": 5900,
      "Ġsignatures": 5901,
      "Ġ56": 5902,
      "oxy": 5903,
      "median": 5904,
      "opathological": 5905,
      "Ġcommunic": 5906,
      "Ġfocusing": 5907,
      "ients": 5908,
      "Ġpass": 5909,
      "inger": 5910,
      "otides": 5911,
      "oluble": 5912,
      "Ġstri": 5913,
      "class": 5914,
      "ĠLimb": 5915,
      "regation": 5916,
      "Ġstatistics": 5917,
      "Ġwarrant": 5918,
      "reme": 5919,
      "Ġfaster": 5920,
      "ĠAEs": 5921,
      "ĠAustr": 5922,
      "olip": 5923,
      "Ġcomply": 5924,
      "ĠEnd": 5925,
      "Ġmodifications": 5926,
      "Ġmutated": 5927,
      "Ġenabl": 5928,
      "Ġmicrotub": 5929,
      "Ġpartially": 5930,
      "ĠkDa": 5931,
      "okinetic": 5932,
      "Ġlysosomal": 5933,
      "otropy": 5934,
      "Ġextremity": 5935,
      "ĠPubMed": 5936,
      "gent": 5937,
      "Ġsought": 5938,
      "Ġdisch": 5939,
      "Ġgenomic": 5940,
      "ĠLab": 5941,
      "Ġphysi": 5942,
      "Ġmostly": 5943,
      "exp": 5944,
      "ĠConclusions": 5945,
      "Ġâī¤": 5946,
      "Ġproportional": 5947,
      "Ġsources": 5948,
      "Ġschiz": 5949,
      "Ġepigenetic": 5950,
      "Ġprincip": 5951,
      "HO": 5952,
      "SI": 5953,
      "Ġdie": 5954,
      "ĠAUC": 5955,
      "Ġprospectively": 5956,
      "ĠCL": 5957,
      "Ġconst": 5958,
      "Ġdiagnoses": 5959,
      "ĠPregn": 5960,
      "Ġallevi": 5961,
      "ĠNFL": 5962,
      "ĠTherapeutic": 5963,
      "Ġhippocampus": 5964,
      "ME": 5965,
      "Ġspontaneous": 5966,
      "Ġperman": 5967,
      "iagnostic": 5968,
      "Ġunstable": 5969,
      "Ġ2016": 5970,
      "Ġapplications": 5971,
      "Ġfasciculations": 5972,
      "aking": 5973,
      "Ġparad": 5974,
      "Ġparticipating": 5975,
      "ĠKap": 5976,
      "Ġvitamin": 5977,
      "making": 5978,
      "Ġembry": 5979,
      "Ġincorpor": 5980,
      "Ad": 5981,
      "Ġslope": 5982,
      "rospective": 5983,
      "ivalent": 5984,
      "ventory": 5985,
      "central": 5986,
      "ophren": 5987,
      "Ġintellig": 5988,
      "Ġregulating": 5989,
      "ĠComb": 5990,
      "Ġflexion": 5991,
      "Ġfatty": 5992,
      "Ġsource": 5993,
      "ĠCAG": 5994,
      "ĠFact": 5995,
      "Ġgre": 5996,
      "Ġsem": 5997,
      "Ġcoe": 5998,
      "pectives": 5999,
      "Ġquantified": 6000,
      "Ġrepresenting": 6001,
      "Ġintegrated": 6002,
      "Ġequal": 6003,
      "Ġundergoing": 6004,
      "Ġultimately": 6005,
      "burg": 6006,
      "Ġchaper": 6007,
      "ĠResp": 6008,
      "Met": 6009,
      "Ġsoft": 6010,
      "Ġinnov": 6011,
      "Ġconne": 6012,
      "Ġpresents": 6013,
      "Ġcaps": 6014,
      "Ġcomparable": 6015,
      "Ġmeaningful": 6016,
      "ĠRandomized": 6017,
      "Ġnan": 6018,
      "ulative": 6019,
      "Ġland": 6020,
      "ĠTNF": 6021,
      "ĠTogether": 6022,
      "Ġneck": 6023,
      "Ġsuitable": 6024,
      "Ġunrelated": 6025,
      "ricular": 6026,
      "Ġendoplasmic": 6027,
      "Ġpromise": 6028,
      "Ġdetecting": 6029,
      "INGS": 6030,
      "Ġreferred": 6031,
      "DNF": 6032,
      "length": 6033,
      "Ġcram": 6034,
      "Ġtof": 6035,
      "ĠStr": 6036,
      "oform": 6037,
      "ĠHave": 6038,
      "Ġsubstr": 6039,
      "Ġuns": 6040,
      "Ġregistered": 6041,
      "Ġexample": 6042,
      "Ġeffectively": 6043,
      "Ġexposed": 6044,
      "ĠOnly": 6045,
      "Ġtolerated": 6046,
      "Ġcultures": 6047,
      "ocytoplasmic": 6048,
      "Ġauthors": 6049,
      "Ġemergency": 6050,
      "06": 6051,
      "76": 6052,
      "OE": 6053,
      "Ġow": 6054,
      "Ġlocus": 6055,
      "ĠSVC": 6056,
      "Ġshare": 6057,
      "Ġarter": 6058,
      "Ġupregulated": 6059,
      "Ġetc": 6060,
      "ometer": 6061,
      "Ġstratification": 6062,
      "Ġstratified": 6063,
      "Ġepilepsy": 6064,
      "dom": 6065,
      "isons": 6066,
      "ĠfALS": 6067,
      "Ġharb": 6068,
      "Ġneurofilaments": 6069,
      "ĠOr": 6070,
      "Ġdiscovered": 6071,
      "Ġpredicting": 6072,
      "ĠExper": 6073,
      "Ġgenerate": 6074,
      "Ġorally": 6075,
      "Ġallows": 6076,
      "Ġcandidates": 6077,
      "Ġchemical": 6078,
      "Ġhepatic": 6079,
      "Ġendpoints": 6080,
      "Ġreason": 6081,
      "ophrenia": 6082,
      "cul": 6083,
      "Ġslight": 6084,
      "Ġ(>": 6085,
      "Ġthough": 6086,
      "Ġchanged": 6087,
      "Ġ57": 6088,
      "licated": 6089,
      "Ġapproval": 6090,
      "Ġpromotes": 6091,
      "Ġbloc": 6092,
      "Ġadjust": 6093,
      "olys": 6094,
      "Ġelucid": 6095,
      "ĠDPRs": 6096,
      "Ġmimic": 6097,
      "inity": 6098,
      "isions": 6099,
      "ositive": 6100,
      "ĠCase": 6101,
      "ĠPC": 6102,
      "ĠFA": 6103,
      "ĠInventory": 6104,
      "omechan": 6105,
      "005": 6106,
      "Ġarch": 6107,
      "Ġimmunos": 6108,
      "requency": 6109,
      "Ġpostmortem": 6110,
      "Ġneuropathology": 6111,
      "utamide": 6112,
      "Ġinhibitory": 6113,
      "ĠExpanded": 6114,
      "fort": 6115,
      "Ġaff": 6116,
      "rand": 6117,
      "pping": 6118,
      "ached": 6119,
      "Ġmagn": 6120,
      "Ġarrest": 6121,
      "Ġinsulin": 6122,
      "ranulin": 6123,
      "Ġchildbearing": 6124,
      "Ġpartial": 6125,
      "Ġventilatory": 6126,
      "Ġprotocols": 6127,
      "Ġneurotoxic": 6128,
      "Ġautoimmune": 6129,
      "ĠPeriod": 6130,
      "ĠAfric": 6131,
      "CMAP": 6132,
      "SG": 6133,
      "TA": 6134,
      "ĠSch": 6135,
      "feeding": 6136,
      "ultaneous": 6137,
      "ĠIntern": 6138,
      "Ġhapl": 6139,
      "ĠVent": 6140,
      "Ġinvolve": 6141,
      "Ġautophag": 6142,
      "usters": 6143,
      "Ġhypothesized": 6144,
      "Ġtranslational": 6145,
      "Ġreasons": 6146,
      "Ġethn": 6147,
      "ĠAccording": 6148,
      "ĠCorrel": 6149,
      "defined": 6150,
      "ĠBetween": 6151,
      "Ġ:": 6152,
      "ĠSC": 6153,
      "Ġdiscre": 6154,
      "Ġunex": 6155,
      "Ġ46": 6156,
      "Ġages": 6157,
      "Ġsequences": 6158,
      "Ġcategor": 6159,
      "imensional": 6160,
      "Ġhepatitis": 6161,
      "QOL": 6162,
      "UT": 6163,
      "Ġpneum": 6164,
      "Ġcm": 6165,
      "Ġ(-": 6166,
      "Ġelements": 6167,
      "tration": 6168,
      "apit": 6169,
      "Ġdescript": 6170,
      "Ġpeptide": 6171,
      "Ġvaried": 6172,
      "Ġtechnologies": 6173,
      "Ġlabel": 6174,
      "Ġcopper": 6175,
      "Ġselectively": 6176,
      "Ġsession": 6177,
      "Ġdisturbances": 6178,
      "ĠhnRNPA": 6179,
      "Ġadequate": 6180,
      "Ser": 6181,
      "ering": 6182,
      "ilarly": 6183,
      "ĠRisdiplam": 6184,
      "Ġdiscover": 6185,
      "Ġhallmarks": 6186,
      "ĠNeurology": 6187,
      "ĠFIND": 6188,
      "burgh": 6189,
      "oe": 6190,
      "ĠTra": 6191,
      "ids": 6192,
      "Ġnear": 6193,
      "mented": 6194,
      "formed": 6195,
      "Ġregulated": 6196,
      "Ġ66": 6197,
      "Ġcarb": 6198,
      "version": 6199,
      "Ġinfluenced": 6200,
      "Ġcirculating": 6201,
      "weighted": 6202,
      "ĠFINDINGS": 6203,
      "Ġsarcoma": 6204,
      "urin": 6205,
      "Ġdifferentiated": 6206,
      "ĠExt": 6207,
      "Ġspeed": 6208,
      "utrition": 6209,
      "Ġinstrument": 6210,
      "Ġairway": 6211,
      "LA": 6212,
      "YP": 6213,
      "asp": 6214,
      "ĠSQSTM": 6215,
      "ĠCK": 6216,
      "ĠIGF": 6217,
      "ĠNMD": 6218,
      "Ġtransition": 6219,
      "Ġpotent": 6220,
      "ermet": 6221,
      "Ġsupportive": 6222,
      "Ġinitiated": 6223,
      "Ġavailability": 6224,
      "Ġachieve": 6225,
      "ĠEvaluate": 6226,
      "Ġmilestones": 6227,
      "54": 6228,
      "EGF": 6229,
      "MB": 6230,
      "TT": 6231,
      "enn": 6232,
      "ask": 6233,
      "Ġthought": 6234,
      "imodal": 6235,
      "ĠCereb": 6236,
      "ĠPA": 6237,
      "ocation": 6238,
      "romb": 6239,
      "umulative": 6240,
      "ĠLew": 6241,
      "Ġrecapit": 6242,
      "ĠExam": 6243,
      "Ġmyopathy": 6244,
      "Ġfibers": 6245,
      "Ġacquired": 6246,
      "adruplex": 6247,
      "Ġtumor": 6248,
      "Ġbasic": 6249,
      "Ġneurophysiological": 6250,
      "lor": 6251,
      "Ġpg": 6252,
      "orable": 6253,
      "Ġneut": 6254,
      "Ġproteomic": 6255,
      "ĠBulbar": 6256,
      "Ġsubtype": 6257,
      "Ġobjectives": 6258,
      "aff": 6259,
      "Ġfiber": 6260,
      "III": 6261,
      "Ġregulator": 6262,
      "Ġvolumes": 6263,
      "synuclein": 6264,
      "Objective": 6265,
      "07": 6266,
      "FC": 6267,
      "Hg": 6268,
      "Par": 6269,
      "Qu": 6270,
      "onin": 6271,
      "ĠAC": 6272,
      "Ġnone": 6273,
      "urine": 6274,
      "Ġconclude": 6275,
      "ĠRAN": 6276,
      "Ġinduction": 6277,
      "Ġbiology": 6278,
      "BPs": 6279,
      "Ġrecordings": 6280,
      "ĠIndividuals": 6281,
      "XA": 6282,
      "carriers": 6283,
      "nc": 6284,
      "Ġtend": 6285,
      "atter": 6286,
      "Ġface": 6287,
      "Ġblind": 6288,
      "Ġwithd": 6289,
      "ĠSN": 6290,
      "ĠMicro": 6291,
      "Ġgray": 6292,
      "acic": 6293,
      "Ġmodulate": 6294,
      "Ġsched": 6295,
      "Ġ58": 6296,
      "oxel": 6297,
      "Ġguide": 6298,
      "Ġblot": 6299,
      "Ġmodifier": 6300,
      "Ġdatasets": 6301,
      "Ġmicrobiota": 6302,
      "Ġintrinsic": 6303,
      "gu": 6304,
      "matic": 6305,
      "Ġcoding": 6306,
      "Ġdraw": 6307,
      "Ġlive": 6308,
      "Ġhope": 6309,
      "ĠCoun": 6310,
      "une": 6311,
      "Ġgang": 6312,
      "Ġimages": 6313,
      "Ġadoles": 6314,
      "ĠOF": 6315,
      "Ġprotection": 6316,
      "Ġnuclei": 6317,
      "ASE": 6318,
      "Ġprevention": 6319,
      "Ġexperiments": 6320,
      "ĠCRISPR": 6321,
      "Mutations": 6322,
      "Ġconsumption": 6323,
      "atomical": 6324,
      "82": 6325,
      "Ġple": 6326,
      "osine": 6327,
      "ĠSU": 6328,
      "Ġhold": 6329,
      "ortium": 6330,
      "Ġplus": 6331,
      "Ġevaluations": 6332,
      "ĠAdv": 6333,
      "glutam": 6334,
      "Ġapathy": 6335,
      "Ġspectroscopy": 6336,
      "Ġintron": 6337,
      "ĠAble": 6338,
      "Ġdifficulty": 6339,
      "Ġimplanted": 6340,
      "ĠClass": 6341,
      "amilial": 6342,
      "ĠConcentration": 6343,
      "Ġschizophrenia": 6344,
      "Cas": 6345,
      "ERI": 6346,
      "Per": 6347,
      "dle": 6348,
      "wor": 6349,
      "Ġfer": 6350,
      "otoxic": 6351,
      "ĠSA": 6352,
      "ĠRE": 6353,
      "romal": 6354,
      "Ġvariations": 6355,
      "Ġ63": 6356,
      "Ġindicators": 6357,
      "Ġfrequencies": 6358,
      "ĠAbnormal": 6359,
      "Ġuntreated": 6360,
      "Ġculture": 6361,
      "ĠBehavioral": 6362,
      "315": 6363,
      "pred": 6364,
      "ĠAM": 6365,
      "Ġ54": 6366,
      "Ġ59": 6367,
      "Ġenable": 6368,
      "Ġconsidering": 6369,
      "Ġdietary": 6370,
      "51": 6371,
      "SE": 6372,
      "Ġped": 6373,
      "ĠEEG": 6374,
      "Ġmodest": 6375,
      "Ġ2015": 6376,
      "Ġexaminations": 6377,
      "Ġnucleocytoplasmic": 6378,
      "Ġdistance": 6379,
      "Ġneurotrophic": 6380,
      "Ġepidemiology": 6381,
      "Ġpersonalized": 6382,
      "Ġchannel": 6383,
      "ĠDepression": 6384,
      "Wh": 6385,
      "sil": 6386,
      "wh": 6387,
      "itect": 6388,
      "ĠMale": 6389,
      "linics": 6390,
      "myel": 6391,
      "uctor": 6392,
      "Ġcharacterised": 6393,
      "isease": 6394,
      "Ġremo": 6395,
      "Ġcultured": 6396,
      "Ġmalign": 6397,
      "ĠControl": 6398,
      "ĠAmerican": 6399,
      "Ġgrip": 6400,
      "prote": 6401,
      "Ġsom": 6402,
      "oster": 6403,
      "uly": 6404,
      "ĠSep": 6405,
      "Ġstop": 6406,
      "Ġvascular": 6407,
      "ĠDose": 6408,
      "Ġunderl": 6409,
      "Ġproduce": 6410,
      "Ġadvant": 6411,
      "Ġconsiderable": 6412,
      "Ġprofiling": 6413,
      "Ġseems": 6414,
      "Ġclosely": 6415,
      "Ġbasal": 6416,
      "Ġstaining": 6417,
      "thal": 6418,
      "ĠFirst": 6419,
      "Ġranges": 6420,
      "Ġsignalling": 6421,
      "Ġmonit": 6422,
      "ĠSecondary": 6423,
      "ISA": 6424,
      "Ġvulnerable": 6425,
      "Ġmacroph": 6426,
      "Ġpermanent": 6427,
      "AAV": 6428,
      "Frontotemporal": 6429,
      "Ġmarrow": 6430,
      "ĠTR": 6431,
      "rach": 6432,
      "Ġexact": 6433,
      "ĠFem": 6434,
      "ĠEp": 6435,
      "Ġconserved": 6436,
      "Ġincomp": 6437,
      "Ġtracking": 6438,
      "Ġdownstream": 6439,
      "onucleotides": 6440,
      "Ġcapture": 6441,
      "Ġhypertension": 6442,
      "Effect": 6443,
      "HI": 6444,
      "Ġanest": 6445,
      "apse": 6446,
      "Ġalmost": 6447,
      "Ġtransp": 6448,
      "Ġobtain": 6449,
      "everity": 6450,
      "airs": 6451,
      "Ġcoll": 6452,
      "Ġpolymer": 6453,
      "Ġpredictor": 6454,
      "appro": 6455,
      "Ġservice": 6456,
      "abilities": 6457,
      "Ġcomputer": 6458,
      "ĠASO": 6459,
      "ropt": 6460,
      "ĠIC": 6461,
      "ĠNI": 6462,
      "Ġ62": 6463,
      "intestinal": 6464,
      "Ġautopsy": 6465,
      "Ġ85": 6466,
      "Ġslowly": 6467,
      "Ġrescued": 6468,
      "ĠLongitudinal": 6469,
      "ĠFollowing": 6470,
      "Ġcounseling": 6471,
      "SVC": 6472,
      "TOR": 6473,
      "but": 6474,
      "repeat": 6475,
      "itochond": 6476,
      "Ġfused": 6477,
      "ĠSCA": 6478,
      "ĠMan": 6479,
      "Ġexternal": 6480,
      "ĠNO": 6481,
      "Ġcompli": 6482,
      "ĠWestern": 6483,
      "Ġadopt": 6484,
      "Ġclusters": 6485,
      "Ġventral": 6486,
      "Ġcapable": 6487,
      "yrate": 6488,
      "Ġviral": 6489,
      "Ġoperating": 6490,
      "Ġarginine": 6491,
      "ĠLewy": 6492,
      "FA": 6493,
      "Ġtert": 6494,
      "edback": 6495,
      "ariable": 6496,
      "reness": 6497,
      "aces": 6498,
      "Ġprem": 6499,
      "Ġplanned": 6500,
      "Ġperforming": 6501,
      "ĠScience": 6502,
      "Ġpeptides": 6503,
      "Ġmaintaining": 6504,
      "ĠInde": 6505,
      "Ġtrafficking": 6506,
      "ĠTMEM": 6507,
      "Delta": 6508,
      "LR": 6509,
      "uven": 6510,
      "rect": 6511,
      "Ġmouth": 6512,
      "Ġdevi": 6513,
      "ĠMI": 6514,
      "Ġrespect": 6515,
      "activation": 6516,
      "Ġpathologic": 6517,
      "Ġmode": 6518,
      "Ġinvestigating": 6519,
      "Ġextreme": 6520,
      "Ġdemonstrating": 6521,
      "Ġsimultaneous": 6522,
      "ĠAssociation": 6523,
      "ĠCHOP": 6524,
      "upported": 6525,
      "Ġsubunit": 6526,
      "Ġtofersen": 6527,
      "LP": 6528,
      "ias": 6529,
      "inburgh": 6530,
      "urnal": 6531,
      "ĠTMS": 6532,
      "ĠCoch": 6533,
      "Ġanc": 6534,
      "Ġanticip": 6535,
      "ĠWorld": 6536,
      "Ġ47": 6537,
      "Ġprobability": 6538,
      "Ġperiods": 6539,
      "Ġalteration": 6540,
      "ĠForced": 6541,
      "Ġparameter": 6542,
      "Ġacceptable": 6543,
      "Ġinterpretation": 6544,
      "08": 6545,
      "MWT": 6546,
      "ging": 6547,
      "Ġcre": 6548,
      "ĠAI": 6549,
      "Ġisoform": 6550,
      "ĠHyp": 6551,
      "Ġadherence": 6552,
      "Ġdetail": 6553,
      "ĠEvidence": 6554,
      "Ġprograms": 6555,
      "Ġmorphological": 6556,
      "Ġverbal": 6557,
      "hal": 6558,
      "Ġten": 6559,
      "Ġsense": 6560,
      "osin": 6561,
      "igma": 6562,
      "Ġplaced": 6563,
      "lectively": 6564,
      "Ġscientific": 6565,
      "Evalu": 6566,
      "Ġfailed": 6567,
      "ĠWomen": 6568,
      "Ġregimen": 6569,
      "ĠRepeat": 6570,
      "Ġantagon": 6571,
      "Ġmethodology": 6572,
      "Ġrandomised": 6573,
      "rowth": 6574,
      "Ġdecisions": 6575,
      "Ġbarriers": 6576,
      "Ġpolymorphisms": 6577,
      "wareness": 6578,
      "protein": 6579,
      "ways": 6580,
      "ylation": 6581,
      "Ġtit": 6582,
      "onical": 6583,
      "ĠSeverity": 6584,
      "olin": 6585,
      "fered": 6586,
      "uper": 6587,
      "Ġrepetitive": 6588,
      "Ġarms": 6589,
      "Ġcontract": 6590,
      "Ġincurable": 6591,
      "alyses": 6592,
      "ackground": 6593,
      "ĠMedian": 6594,
      "ECAS": 6595,
      "Ġpropag": 6596,
      "Ġcryptic": 6597,
      "Ġmonitored": 6598,
      "sh": 6599,
      "yle": 6600,
      "Ġmesenchymal": 6601,
      "usivity": 6602,
      "through": 6603,
      "003": 6604,
      "004": 6605,
      "Ġ51": 6606,
      "obic": 6607,
      "Ġdevelopmental": 6608,
      "Ġinitially": 6609,
      "ĠImaging": 6610,
      "Ġsurveys": 6611,
      "Ġubiquit": 6612,
      "ĠCareg": 6613,
      "Ġlearn": 6614,
      "ĠSystematic": 6615,
      "Ġrestrict": 6616,
      "Ġagreement": 6617,
      "cerebellar": 6618,
      "%-": 6619,
      "FT": 6620,
      "Tau": 6621,
      "VA": 6622,
      "card": 6623,
      "ione": 6624,
      "Ġfal": 6625,
      "oses": 6626,
      "Ġlact": 6627,
      "ĠDet": 6628,
      "ĠThrough": 6629,
      "ĠThirty": 6630,
      "Ġlowest": 6631,
      "Ġpersistent": 6632,
      "Ġcounter": 6633,
      "Ġcomparisons": 6634,
      "Ġprecision": 6635,
      "ĠDouble": 6636,
      "Ġparadig": 6637,
      "-,": 6638,
      "ae": 6639,
      "gi": 6640,
      "non": 6641,
      "Ġclinics": 6642,
      "Ġinput": 6643,
      "usting": 6644,
      "Ġlist": 6645,
      "ĠSm": 6646,
      "ĠCB": 6647,
      "ĠClinic": 6648,
      "ĠRet": 6649,
      "ĠForm": 6650,
      "ynaptic": 6651,
      "Ġorganel": 6652,
      "Ġphysicians": 6653,
      "Ġopportunities": 6654,
      ".)": 6655,
      "HS": 6656,
      "Ġantic": 6657,
      "illance": 6658,
      "Ġsubcortical": 6659,
      "Ġimpacts": 6660,
      "Ġspeak": 6661,
      "ĠSevere": 6662,
      "Ġtranscriptome": 6663,
      "Ġcorrection": 6664,
      "Ġoverlapping": 6665,
      "ĠMATERI": 6666,
      "\",": 6667,
      "ML": 6668,
      "ares": 6669,
      "ee": 6670,
      "Ġtail": 6671,
      "Ġnever": 6672,
      "ĠRed": 6673,
      "izations": 6674,
      "trogl": 6675,
      "rix": 6676,
      "Ġ53": 6677,
      "ĠUl": 6678,
      "Ġconsult": 6679,
      "change": 6680,
      "Ġdriven": 6681,
      "Ġhypermet": 6682,
      "negative": 6683,
      "Ġ[(": 6684,
      "Ġperspectives": 6685,
      "ĠProgression": 6686,
      "ĠEdaravone": 6687,
      "Ġmicrotubule": 6688,
      "ĠKaplan": 6689,
      "Ġgangl": 6690,
      "IQR": 6691,
      "ĠTreg": 6692,
      "olute": 6693,
      "ĠMay": 6694,
      "ĠPURPOSE": 6695,
      "Ġ49": 6696,
      "erstanding": 6697,
      "Ġindependence": 6698,
      "Ġchildhood": 6699,
      "Ġprobably": 6700,
      "ĠAbeta": 6701,
      "Ġoligonucleotides": 6702,
      "Ġexercises": 6703,
      "\\_": 6704,
      "])": 6705,
      "ml": 6706,
      "Ġshe": 6707,
      "Ġfore": 6708,
      "Ġfract": 6709,
      "otrans": 6710,
      "Ġlost": 6711,
      "ĠCN": 6712,
      "Ġexert": 6713,
      "Ġgra": 6714,
      "centage": 6715,
      "ĠExpression": 6716,
      "Ġcompletely": 6717,
      "Ġprolif": 6718,
      "Ġassisted": 6719,
      "Ġcontinued": 6720,
      "phasia": 6721,
      "ĠGermany": 6722,
      "Ġexpectancy": 6723,
      "Ġtranscriptomic": 6724,
      "Ġgrey": 6725,
      "NLS": 6726,
      "Rel": 6727,
      "Sp": 6728,
      "kappa": 6729,
      "Ġnit": 6730,
      "estic": 6731,
      "ables": 6732,
      "ofl": 6733,
      "ĠIntra": 6734,
      "scape": 6735,
      "Ġtrends": 6736,
      "Ġerror": 6737,
      "Ġhypothalam": 6738,
      "itecture": 6739,
      "PC": 6740,
      "ele": 6741,
      "Ġtext": 6742,
      "Ġinfer": 6743,
      "Ġbo": 6744,
      "ĠTheir": 6745,
      "ialis": 6746,
      "quadruplex": 6747,
      "ĠDM": 6748,
      "ĠLMN": 6749,
      "Ġmodul": 6750,
      "ĠUp": 6751,
      "Ġ2011": 6752,
      "Ġdrive": 6753,
      "Ġoutpatient": 6754,
      "Ġsampling": 6755,
      "Ġquantification": 6756,
      "months": 6757,
      "ĠiPSCs": 6758,
      "Ġfundament": 6759,
      "Ġinstability": 6760,
      "Ġdorsal": 6761,
      "Ġpolic": 6762,
      "Ġfinger": 6763,
      "ĠTRI": 6764,
      "antic": 6765,
      "endrit": 6766,
      "ĠDelta": 6767,
      "Ġscans": 6768,
      "ĠGF": 6769,
      "Ġprogranulin": 6770,
      "olec": 6771,
      "Ġvariance": 6772,
      "Ġexpert": 6773,
      "Ġglia": 6774,
      "Ġelectrod": 6775,
      "ĠCompar": 6776,
      "behavi": 6777,
      "Ġexplained": 6778,
      "Ġambulatory": 6779,
      "ĠGuam": 6780,
      "diagn": 6781,
      "cturnal": 6782,
      "ulmonary": 6783,
      "ĠRR": 6784,
      "ĠRisk": 6785,
      "ortic": 6786,
      "emia": 6787,
      "Ġabuse": 6788,
      "Ġpresentations": 6789,
      "Ġart": 6790,
      "Ġaxis": 6791,
      "Ġpractices": 6792,
      "Ġoriginal": 6793,
      "Ġtrunk": 6794,
      "Ġclarify": 6795,
      "ĠEnglish": 6796,
      "Ġsoftware": 6797,
      "TING": 6798,
      "bvFTD": 6799,
      "cil": 6800,
      "sALS": 6801,
      "ĠmL": 6802,
      "Ġfusion": 6803,
      "ĠSlow": 6804,
      "ĠSouth": 6805,
      "seud": 6806,
      "ĠGl": 6807,
      "tember": 6808,
      "Ġidentifies": 6809,
      "ĠStandard": 6810,
      "ĠKIF": 6811,
      "Ġneuroprotection": 6812,
      "Ġrestricted": 6813,
      "Ġautonomic": 6814,
      "Ġchannels": 6815,
      "razil": 6816,
      "Ġconcerns": 6817,
      "Ġmillion": 6818,
      "BMI": 6819,
      "ble": 6820,
      "Ġ)": 6821,
      "Ġtib": 6822,
      "Ġname": 6823,
      "Ġdeform": 6824,
      "Ġval": 6825,
      "Ġadmission": 6826,
      "MAR": 6827,
      "ĠAdult": 6828,
      "Ġoutside": 6829,
      "ADS": 6830,
      "Ġmotif": 6831,
      "Ġresidues": 6832,
      "Ġcomputed": 6833,
      "ĠMUNIX": 6834,
      "ĠCochrane": 6835,
      "RF": 6836,
      "Ġfin": 6837,
      "Ġeating": 6838,
      "ivered": 6839,
      "amide": 6840,
      "renatal": 6841,
      "Ġresolution": 6842,
      "Ġstudying": 6843,
      "ucible": 6844,
      "oustic": 6845,
      "Ġdyspnea": 6846,
      "Ġunderp": 6847,
      "ĠKore": 6848,
      "Ġadjusting": 6849,
      "Ġassistive": 6850,
      "Ġdiffusivity": 6851,
      "Ġworsening": 6852,
      "Ġvideo": 6853,
      "Ġputative": 6854,
      "ĠInternational": 6855,
      "fusion": 6856,
      "Ġ~": 6857,
      "itch": 6858,
      "ĠTaken": 6859,
      "ĠMany": 6860,
      "elch": 6861,
      "amily": 6862,
      "ordance": 6863,
      "hesia": 6864,
      "Ġeti": 6865,
      "Ġoption": 6866,
      "Ġlargest": 6867,
      "helial": 6868,
      "Ġbinds": 6869,
      "Trans": 6870,
      "fact": 6871,
      "oin": 6872,
      "inating": 6873,
      "Ġinject": 6874,
      "ivariable": 6875,
      "Ġansw": 6876,
      "ĠPALS": 6877,
      "Ġspastic": 6878,
      "stim": 6879,
      "Ġtranslated": 6880,
      "Ġ2010": 6881,
      "avin": 6882,
      "Ġminute": 6883,
      "Ġslower": 6884,
      "ĠSurve": 6885,
      "Ġseparate": 6886,
      "Ġneuropsychiatric": 6887,
      "Ġsaliv": 6888,
      "Meier": 6889,
      "Ġsecretion": 6890,
      "ĠInfant": 6891,
      "Ġresources": 6892,
      "Ġsuffering": 6893,
      "ACT": 6894,
      "vents": 6895,
      "ero": 6896,
      "Ġcasc": 6897,
      "Ġword": 6898,
      "Ġng": 6899,
      "Ġelic": 6900,
      "ĠStem": 6901,
      "Ġastrogl": 6902,
      "Ġuser": 6903,
      "istant": 6904,
      "Ġconsistently": 6905,
      "Ġmember": 6906,
      "Ġfacial": 6907,
      "ĠEdinburgh": 6908,
      "Ġsplice": 6909,
      "ĠCanada": 6910,
      "Le": 6911,
      "brid": 6912,
      "Ġaphasia": 6913,
      "Ġter": 6914,
      "Ġeligibility": 6915,
      "Ġweb": 6916,
      "Ġanis": 6917,
      "uments": 6918,
      "Ġrated": 6919,
      "unctional": 6920,
      "ceptive": 6921,
      "Ġhistor": 6922,
      "Ġworking": 6923,
      "orbidity": 6924,
      "SR": 6925,
      "TAR": 6926,
      "ulant": 6927,
      "ineurin": 6928,
      "ears": 6929,
      "Ġinterface": 6930,
      "Ġalb": 6931,
      "Ġmedium": 6932,
      "Ġdescription": 6933,
      "letions": 6934,
      "ausal": 6935,
      "etwork": 6936,
      "Ġbreak": 6937,
      "ĠModule": 6938,
      "Ġrescue": 6939,
      "Ġincomplete": 6940,
      "BC": 6941,
      "cending": 6942,
      "two": 6943,
      "vity": 6944,
      "iness": 6945,
      "ret": 6946,
      "Ġmurine": 6947,
      "ĠCP": 6948,
      "Ġexons": 6949,
      "Ġassum": 6950,
      "Ġusers": 6951,
      "Ġmodifying": 6952,
      "Ġventilator": 6953,
      "Ġmotion": 6954,
      "IFICA": 6955,
      "Ġvector": 6956,
      "Ġimplemented": 6957,
      "Ġtraumatic": 6958,
      "Study": 6959,
      "IGNIFICA": 6960,
      "Genetic": 6961,
      "partate": 6962,
      "Ġpyramidal": 6963,
      "oglobin": 6964,
      "uvenile": 6965,
      "IGNIFICANCE": 6966,
      "edic": 6967,
      "ĠTarget": 6968,
      "ĠDue": 6969,
      "ained": 6970,
      "Ġspace": 6971,
      "place": 6972,
      "artile": 6973,
      "Ġinsert": 6974,
      "ĠPhen": 6975,
      "Ġpromoting": 6976,
      "Ġjunctions": 6977,
      "Ġfasciculation": 6978,
      "ĠAPOE": 6979,
      "Ġmodifiers": 6980,
      "Ġstarted": 6981,
      "ĠPeople": 6982,
      "Ġtrajectories": 6983,
      "Ġensure": 6984,
      "dis": 6985,
      "Ġion": 6986,
      "Ġawareness": 6987,
      "Ġtrem": 6988,
      "ĠpNfH": 6989,
      "Ġreverse": 6990,
      "ĠTa": 6991,
      "ĠTr": 6992,
      "Ġspi": 6993,
      "ĠBrazil": 6994,
      "uctive": 6995,
      "ĠStrength": 6996,
      "Ġcarers": 6997,
      "Ġelusive": 6998,
      "wallowing": 6999,
      "Ġcategory": 7000,
      "limb": 7001,
      "Ġinsufficient": 7002,
      "Ġpolymorphism": 7003,
      "Ġmultisystem": 7004,
      "ĠExamination": 7005,
      "roptosis": 7006,
      "Ġcompliance": 7007,
      "Ġancest": 7008,
      "TMS": 7009,
      "flex": 7010,
      "Ġsen": 7011,
      "Ġbu": 7012,
      "Ġbacter": 7013,
      "ĠMo": 7014,
      "yste": 7015,
      "ĠPSP": 7016,
      "ĠPressure": 7017,
      "elen": 7018,
      "ĠIntr": 7019,
      "Ġproteomics": 7020,
      "181": 7021,
      "Ġregardless": 7022,
      "Ġseconds": 7023,
      "apses": 7024,
      "Ġcreatine": 7025,
      "Ġmicrobiome": 7026,
      "ĠNEK": 7027,
      "Ġcomorbidities": 7028,
      "ĠSETTING": 7029,
      "Ġpooled": 7030,
      "GP": 7031,
      "east": 7032,
      "alities": 7033,
      "Ġdendrit": 7034,
      "Ġmel": 7035,
      "Ġhip": 7036,
      "ompass": 7037,
      "Ġplayers": 7038,
      "Ġabsent": 7039,
      "Ġguidance": 7040,
      "Ġfeasible": 7041,
      "Ġmeeting": 7042,
      "Ġoffers": 7043,
      "auton": 7044,
      "ĠUnder": 7045,
      "ĠKnown": 7046,
      "driven": 7047,
      "Ġlandscape": 7048,
      "kappaB": 7049,
      "Long": 7050,
      "miss": 7051,
      "etric": 7052,
      "ĠPFN": 7053,
      "Ġwasting": 7054,
      "Ġimped": 7055,
      "Ġparap": 7056,
      "Ġanalog": 7057,
      "yping": 7058,
      "flation": 7059,
      "ĠImpro": 7060,
      "Ġretinal": 7061,
      "Ġabundant": 7062,
      "phosphory": 7063,
      "Ġtransporter": 7064,
      "GC": 7065,
      "IA": 7066,
      "mic": 7067,
      "ming": 7068,
      "supported": 7069,
      "Ġmig": 7070,
      "Ġfoot": 7071,
      "Ġstanding": 7072,
      "Ġdele": 7073,
      "Ġsemi": 7074,
      "ĠHRE": 7075,
      "ificial": 7076,
      "Ġindirect": 7077,
      "Ġplatelet": 7078,
      "Ġpreserved": 7079,
      "ples": 7080,
      "Ġproviders": 7081,
      "Ġcomplexes": 7082,
      "Ġediting": 7083,
      "Ġsets": 7084,
      "Ġsusp": 7085,
      "Ġlocalized": 7086,
      "Ġencompass": 7087,
      "Ġworldwide": 7088,
      "Ġinnovative": 7089,
      "Ġfundamental": 7090,
      "ĠGFAP": 7091,
      "Ġanisotropy": 7092,
      "Bi": 7093,
      "Pre": 7094,
      "iet": 7095,
      "nel": 7096,
      "Ġpron": 7097,
      "iche": 7098,
      "Ġchest": 7099,
      "anish": 7100,
      "ĠSuch": 7101,
      "acet": 7102,
      "ĠBay": 7103,
      "Ġdifferentiate": 7104,
      "hibition": 7105,
      "obb": 7106,
      "Ġsubjective": 7107,
      "itoring": 7108,
      "Ġconsisting": 7109,
      "Ġpractical": 7110,
      "Ġlocation": 7111,
      "Ġsubsequently": 7112,
      "Ġengagement": 7113,
      "Ġbreastfeeding": 7114,
      "Ġconcurrent": 7115,
      "Ġtablets": 7116,
      "Ġimmunohistochemistry": 7117,
      "09": 7118,
      "Un": 7119,
      "high": 7120,
      "Ġdest": 7121,
      "Ġfront": 7122,
      "Ġfocal": 7123,
      "Ġconj": 7124,
      "ama": 7125,
      "ocard": 7126,
      "ĠGlobal": 7127,
      "ĠWeb": 7128,
      "Ġreviews": 7129,
      "Ġendot": 7130,
      "Ġcomparative": 7131,
      "Ġelim": 7132,
      "Ġenhancing": 7133,
      "Ġapplicable": 7134,
      "Ġreactions": 7135,
      "rogate": 7136,
      "Ġopportunity": 7137,
      "Ġabundance": 7138,
      "Ġjudg": 7139,
      "Ġpolymerase": 7140,
      "CM": 7141,
      "For": 7142,
      "LE": 7143,
      "No": 7144,
      "roid": 7145,
      "Ġnec": 7146,
      "ĠPr": 7147,
      "acetyl": 7148,
      "Ġmodulating": 7149,
      "Ġprecentral": 7150,
      "ĠState": 7151,
      "Ġelectroph": 7152,
      "ĠBecause": 7153,
      "Ġmaterial": 7154,
      "Ġarchitecture": 7155,
      "iates": 7156,
      "Ġmind": 7157,
      "osing": 7158,
      "omin": 7159,
      "omers": 7160,
      "ĠPrior": 7161,
      "ĠNerve": 7162,
      "admin": 7163,
      "ĠVol": 7164,
      "ĠVAPB": 7165,
      "Ġinsoluble": 7166,
      "Ġavoid": 7167,
      "ĠJuly": 7168,
      "Ġdepressive": 7169,
      "GGCC": 7170,
      "Ġaminotrans": 7171,
      "Ġdepending": 7172,
      "Ġmiddle": 7173,
      "Ġhippocampal": 7174,
      "Ġinnate": 7175,
      "Ġyielded": 7176,
      "ĠSpecifically": 7177,
      "approved": 7178,
      "MUN": 7179,
      "Time": 7180,
      "elect": 7181,
      "tual": 7182,
      "Ġvel": 7183,
      "Ġsizes": 7184,
      "Ġinability": 7185,
      "ĠPred": 7186,
      "Ġgamma": 7187,
      "Ġproteasome": 7188,
      "Ġmaintained": 7189,
      "Ġinhibited": 7190,
      "Ġpartner": 7191,
      "Ġaven": 7192,
      "tervention": 7193,
      "Ġdefective": 7194,
      "Ġcycl": 7195,
      "Ġissue": 7196,
      "Ġribonucle": 7197,
      "Ġcomprising": 7198,
      "ĠDifferent": 7199,
      "Ġown": 7200,
      "Ġdescriptive": 7201,
      "FO": 7202,
      "fs": 7203,
      "ico": 7204,
      "andem": 7205,
      "Ġtranscranial": 7206,
      "ficient": 7207,
      "Ġmanual": 7208,
      "Ġcla": 7209,
      "ĠIts": 7210,
      "hern": 7211,
      "ĠHealthy": 7212,
      "Ġzinc": 7213,
      "cinoma": 7214,
      "Arg": 7215,
      "oflavin": 7216,
      "Bs": 7217,
      "HA": 7218,
      "lands": 7219,
      "ĠSNP": 7220,
      "owel": 7221,
      "Ġcovari": 7222,
      "outhern": 7223,
      "ranuclear": 7224,
      "Ġpathologically": 7225,
      "ĠDeath": 7226,
      "Ġaxial": 7227,
      "Ġdeterminants": 7228,
      "Ġaccurately": 7229,
      "Ġpromoter": 7230,
      "Ġsoluble": 7231,
      "Ġdischarge": 7232,
      "Particip": 7233,
      "HFMSE": 7234,
      "gers": 7235,
      "lational": 7236,
      "Ġ&": 7237,
      "Ġeconomic": 7238,
      "ĠSupport": 7239,
      "rawal": 7240,
      "ĠFort": 7241,
      "Ġshock": 7242,
      "Ġtransient": 7243,
      "Ġfluorescence": 7244,
      "Ġintronic": 7245,
      "PDC": 7246,
      "patients": 7247,
      "Ġveter": 7248,
      "ĠObserv": 7249,
      "ĠVentilation": 7250,
      "des": 7251,
      "fir": 7252,
      "long": 7253,
      "natal": 7254,
      "Ġ$": 7255,
      "health": 7256,
      "Ġmamm": 7257,
      "ĠTau": 7258,
      "ĠSE": 7259,
      "Ġstrain": 7260,
      "iform": 7261,
      "Ġaspiration": 7262,
      "ĠMarch": 7263,
      "ampt": 7264,
      "Ġranged": 7265,
      "ĠNBS": 7266,
      "ĠEVs": 7267,
      "ĠOx": 7268,
      "ĠOpt": 7269,
      "Ġcann": 7270,
      "Ġ68": 7271,
      "Ġprogressing": 7272,
      "Ġneurologists": 7273,
      "Ġcontributed": 7274,
      "Ġslowing": 7275,
      "ĠMaximum": 7276,
      "Ġlatter": 7277,
      "Ġclustering": 7278,
      "Ġphenomenon": 7279,
      "frontal": 7280,
      "spinal": 7281,
      "Ġcumulative": 7282,
      "Ġreached": 7283,
      "osocial": 7284,
      "ims": 7285,
      "ilin": 7286,
      "Ġdeletions": 7287,
      "eli": 7288,
      "Ġneurotrans": 7289,
      "Ġregistr": 7290,
      "Ġdiffered": 7291,
      "Ġagon": 7292,
      "Ġdecreases": 7293,
      "Ġelectronic": 7294,
      "score": 7295,
      "Ġclassical": 7296,
      "Ġappeared": 7297,
      "Ġillustr": 7298,
      "Ġmimics": 7299,
      "Ġtertiary": 7300,
      "Ġaminotransferase": 7301,
      "He": 7302,
      "RG": 7303,
      "orr": 7304,
      "ĠHCs": 7305,
      "Ġsigned": 7306,
      "ĠGS": 7307,
      "formatic": 7308,
      "Ġobs": 7309,
      "Ġneurologist": 7310,
      "Ġcentres": 7311,
      "fulness": 7312,
      "ĠDegeneration": 7313,
      "gov": 7314,
      "Ġcircum": 7315,
      "Ġequivalent": 7316,
      "Ġchromat": 7317,
      "Ġmyelin": 7318,
      "ĠBehavioural": 7319,
      "Ġsupplementation": 7320,
      "FDG": 7321,
      "Ġnamely": 7322,
      "Based": 7323,
      "OT": 7324,
      "PP": 7325,
      "TB": 7326,
      "wALS": 7327,
      "ĠmRNAs": 7328,
      "Ġneon": 7329,
      "ĠME": 7330,
      "ĠOct": 7331,
      "Ġfeedback": 7332,
      "Ġ78": 7333,
      "Ġmethodological": 7334,
      "expression": 7335,
      "Ġadministr": 7336,
      "Ġdelivered": 7337,
      "Ġestimation": 7338,
      "Ġinfluencing": 7339,
      "Ġallowing": 7340,
      "Ġproblem": 7341,
      "Ġenzymes": 7342,
      "imensions": 7343,
      "Ġrespondents": 7344,
      "Ġpronoun": 7345,
      "LMN": 7346,
      "Ġencephal": 7347,
      "Ġsolution": 7348,
      "ĠActive": 7349,
      "otomy": 7350,
      "ĠSoci": 7351,
      "Ġhar": 7352,
      "gene": 7353,
      "ĠEight": 7354,
      "Ġproteostasis": 7355,
      "ĠLoss": 7356,
      "Ġmoder": 7357,
      "ober": 7358,
      "aving": 7359,
      "Ġhistone": 7360,
      "posure": 7361,
      "ĠProtocol": 7362,
      "Ġconsistency": 7363,
      "Ġsustained": 7364,
      "Ġcardi": 7365,
      "Ġ2009": 7366,
      "Ġaddressed": 7367,
      "NMJ": 7368,
      "baseline": 7369,
      "cents": 7370,
      "Ġaud": 7371,
      "ĠpTDP": 7372,
      "Ġprenatal": 7373,
      "organ": 7374,
      "Ġbrief": 7375,
      "otics": 7376,
      "Ġnorm": 7377,
      "oman": 7378,
      "ĠCYP": 7379,
      "ivotal": 7380,
      "ĠPol": 7381,
      "ĠPoly": 7382,
      "ogl": 7383,
      "ample": 7384,
      "ĠFD": 7385,
      "Ġshift": 7386,
      "Ġhypo": 7387,
      "Ġmatrix": 7388,
      "Ġdistributed": 7389,
      "Ġcontraind": 7390,
      "Ġdisrupted": 7391,
      "Ġreflecting": 7392,
      "Ġbeginning": 7393,
      "Ġhormone": 7394,
      "elchair": 7395,
      "CN": 7396,
      "OC": 7397,
      "PN": 7398,
      "PRO": 7399,
      "iol": 7400,
      "iration": 7401,
      "ressing": 7402,
      "ĠFlu": 7403,
      "ĠFood": 7404,
      "ĠWM": 7405,
      "ansion": 7406,
      "ostatic": 7407,
      "DPR": 7408,
      "formance": 7409,
      "Ġmetast": 7410,
      "ficiency": 7411,
      "raining": 7412,
      "Ġmapping": 7413,
      "Ġphenyl": 7414,
      "Ġtraits": 7415,
      "Ġpostural": 7416,
      "Ġseverely": 7417,
      "Ġmyot": 7418,
      "Ġfluency": 7419,
      "Ġpharmacokinetics": 7420,
      "Ġcomplementary": 7421,
      "Ġtelephone": 7422,
      "Ġdimin": 7423,
      "Ġcheck": 7424,
      "Ġhaplotype": 7425,
      "ĠForty": 7426,
      "CBS": 7427,
      "Placebo": 7428,
      "].": 7429,
      "kle": 7430,
      "men": 7431,
      "inking": 7432,
      "ordered": 7433,
      "Ġinfil": 7434,
      "Ġfine": 7435,
      "Ġbil": 7436,
      "Ġbase": 7437,
      "ĠCancer": 7438,
      "Ġexists": 7439,
      "seq": 7440,
      "ĠInstitute": 7441,
      "Ġdriving": 7442,
      "ĠCharacter": 7443,
      "Ġendoscopic": 7444,
      "Ġcombining": 7445,
      "ĠAbility": 7446,
      "Ġurinary": 7447,
      "Ġinhibiting": 7448,
      "Ġpulse": 7449,
      "ĠQuantitative": 7450,
      "ĠMagnetic": 7451,
      "Ġhazards": 7452,
      "Ġcramps": 7453,
      "itochondrial": 7454,
      "DL": 7455,
      "FE": 7456,
      "pres": 7457,
      "Ġshed": 7458,
      "ĠCST": 7459,
      "ĠMT": 7460,
      "ĠPopulation": 7461,
      "ĠFatigue": 7462,
      "Ġgly": 7463,
      "ĠOutcomes": 7464,
      "emb": 7465,
      "ĠWeight": 7466,
      "Ġprep": 7467,
      "Ġprepar": 7468,
      "ubin": 7469,
      "Ġ69": 7470,
      "poses": 7471,
      "Ġdownregulation": 7472,
      "ĠSerious": 7473,
      "neuronal": 7474,
      "Ġabductor": 7475,
      "odynamic": 7476,
      "ĠELISA": 7477,
      "Ġcoefficient": 7478,
      "ichever": 7479,
      "RA": 7480,
      "tical": 7481,
      "itance": 7482,
      "ocorm": 7483,
      "ĠREG": 7484,
      "Ġevoked": 7485,
      "Ġpreferences": 7486,
      "Ġplasticity": 7487,
      "Ġfollows": 7488,
      "Ġdeficit": 7489,
      "Ġpropensity": 7490,
      "ĠEffects": 7491,
      "Patients": 7492,
      "Ġwarranted": 7493,
      "Ġimmunosupp": 7494,
      "amptocorm": 7495,
      "ĠREGIS": 7496,
      "\".": 7497,
      "XP": 7498,
      "Ġcreated": 7499,
      "otoneuron": 7500,
      "ithium": 7501,
      "ĠSLC": 7502,
      "ĠCA": 7503,
      "Ġsham": 7504,
      "ĠGe": 7505,
      "Ġunaffected": 7506,
      "Ġendoc": 7507,
      "Ġaggregated": 7508,
      "ĠQT": 7509,
      "Ġabnormality": 7510,
      "ĠWithin": 7511,
      "Ġ180": 7512,
      "ĠConclusion": 7513,
      "Ġcalculate": 7514,
      "ĠNovel": 7515,
      "Ġknockout": 7516,
      "Ġfragments": 7517,
      "Ġcomprised": 7518,
      "kes": 7519,
      "rist": 7520,
      "ink": 7521,
      "isition": 7522,
      "otypes": 7523,
      "ĠSpecific": 7524,
      "ĠMice": 7525,
      "ĠIncidence": 7526,
      "Ġpathomechan": 7527,
      "Ġabst": 7528,
      "Ġmetals": 7529,
      "Ġbiogenesis": 7530,
      "Ġ67": 7531,
      "Ġweekly": 7532,
      "ĠSporadic": 7533,
      "Ġgastrointestinal": 7534,
      "\\_\\_": 7535,
      "AMP": 7536,
      "Glu": 7537,
      "fALS": 7538,
      "iar": 7539,
      "Ġpivotal": 7540,
      "entre": 7541,
      "ctors": 7542,
      "Ġthromb": 7543,
      "ĠShort": 7544,
      "ĠSIGNIFICANCE": 7545,
      "Ġascertain": 7546,
      "Ġviability": 7547,
      "ĠLLPS": 7548,
      "Ġhypomet": 7549,
      "ĠDevelopment": 7550,
      "Ġsynapses": 7551,
      "Ġreturn": 7552,
      "Ġcytosolic": 7553,
      "ĠMonth": 7554,
      "Ġsplit": 7555,
      "ĠUnderstanding": 7556,
      "Ġresource": 7557,
      "Ġthoracic": 7558,
      "Ġdeposition": 7559,
      "ĠSeptember": 7560,
      "Ġparapleg": 7561,
      "ĠOctober": 7562,
      "amptocormia": 7563,
      "Ma": 7564,
      "NCT": 7565,
      "itus": 7566,
      "Ġoffering": 7567,
      "Ġeleg": 7568,
      "uries": 7569,
      "ĠRULM": 7570,
      "ĠFive": 7571,
      "fected": 7572,
      "ĠLower": 7573,
      "Ġuncontrolled": 7574,
      "Ġcontrolling": 7575,
      "Ġapply": 7576,
      "CIPA": 7577,
      "ĠCont": 7578,
      "Ġepis": 7579,
      "NFL": 7580,
      "keleton": 7581,
      "Ġrepresentative": 7582,
      "Ġdosage": 7583,
      "Ġthemes": 7584,
      "stitution": 7585,
      "Ġcurves": 7586,
      "ĠTrials": 7587,
      "Ġcontains": 7588,
      "Ġtemperature": 7589,
      "NTS": 7590,
      "SBMA": 7591,
      "nar": 7592,
      "rig": 7593,
      "Ġ*": 7594,
      "Ġdual": 7595,
      "ash": 7596,
      "Ġnasal": 7597,
      "idney": 7598,
      "Ġexome": 7599,
      "ĠRT": 7600,
      "ĠIncreased": 7601,
      "acing": 7602,
      "illed": 7603,
      "emographic": 7604,
      "Ġnocturnal": 7605,
      "Ġmultimodal": 7606,
      "Ġarr": 7607,
      "Ġ76": 7608,
      "Ġneedle": 7609,
      "ographics": 7610,
      "Ġcytokine": 7611,
      "Ġdescribes": 7612,
      "ĠPhysical": 7613,
      "Ġrarely": 7614,
      "mitte": 7615,
      "Ġcontraction": 7616,
      "Ġsteps": 7617,
      "ĠBiomarker": 7618,
      "Ġattributed": 7619,
      "Ġslightly": 7620,
      "Ġwithdrawal": 7621,
      "uperoxide": 7622,
      "ĠREGISTR": 7623,
      "200": 7624,
      "gree": 7625,
      "Ġsed": 7626,
      "ationwide": 7627,
      "Ġnative": 7628,
      "olgi": 7629,
      "Ġforward": 7630,
      "ĠPS": 7631,
      "ĠRate": 7632,
      "umab": 7633,
      "Ġtransactive": 7634,
      "Ġprescribed": 7635,
      "Ġrise": 7636,
      "valence": 7637,
      "Ġdeclined": 7638,
      "Ġdetermining": 7639,
      "ĠLevels": 7640,
      "Ġfractional": 7641,
      "Ġextremities": 7642,
      "Ġvarying": 7643,
      "Ġpronounced": 7644,
      "ĠREGISTRATION": 7645,
      "Ġaug": 7646,
      "itability": 7647,
      "imes": 7648,
      "ĠFif": 7649,
      "Ġproteome": 7650,
      "obulbar": 7651,
      "Ġcytotoxicity": 7652,
      "INTE": 7653,
      "Ġdecade": 7654,
      "Ġprevented": 7655,
      "Ġpreventing": 7656,
      "Ġretention": 7657,
      "ĠZn": 7658,
      "Ġsubstantially": 7659,
      "Ġangi": 7660,
      "opsies": 7661,
      "Ġexcessive": 7662,
      "Ġembryonic": 7663,
      "attery": 7664,
      "ĠBayes": 7665,
      "Ġobserve": 7666,
      "AE": 7667,
      "cytes": 7668,
      "nit": 7669,
      "ukin": 7670,
      "ĠmSOD": 7671,
      "Ġlik": 7672,
      "utical": 7673,
      "Ġstaff": 7674,
      "ĠML": 7675,
      "ĠMSA": 7676,
      "ersensitivity": 7677,
      "irubin": 7678,
      "Ġleuk": 7679,
      "Ġ300": 7680,
      "CTs": 7681,
      "ĠStim": 7682,
      "derly": 7683,
      "levant": 7684,
      "akes": 7685,
      "Ġbehaviour": 7686,
      "Ġguard": 7687,
      "Ġhybrid": 7688,
      "Ġconcerning": 7689,
      "ĠSGs": 7690,
      "iPSCs": 7691,
      "Ġlayer": 7692,
      "Ġcollabor": 7693,
      "ĠMAIN": 7694,
      "Ġsemantic": 7695,
      "Ġpneumonia": 7696,
      "ĠCouncil": 7697,
      "Ġveloc": 7698,
      "Ġelegans": 7699,
      "Ġcathe": 7700,
      "ĠMolecular": 7701,
      "Ġgross": 7702,
      "Ġ2000": 7703,
      "Ġspan": 7704,
      "Ġmodify": 7705,
      "ĠGA": 7706,
      "DPRs": 7707,
      "Ġyour": 7708,
      "Ġyeast": 7709,
      "Ġcoron": 7710,
      "Ġ97": 7711,
      "Ġ2024": 7712,
      "arged": 7713,
      "ĠVers": 7714,
      "Ġadded": 7715,
      "Ġprompt": 7716,
      "versely": 7717,
      "Ġexploratory": 7718,
      "Ġconsisted": 7719,
      "cellent": 7720,
      "Ġeventually": 7721,
      "ĠCommun": 7722,
      "Ġcomposed": 7723,
      "effects": 7724,
      "Ġsupine": 7725,
      "Ġmarkedly": 7726,
      "Imp": 7727,
      "ĠGerman": 7728,
      "Ġcommerc": 7729,
      "Ġchaperone": 7730,
      "Ġelucidated": 7731,
      "Ġproliferation": 7732,
      "elihood": 7733,
      "ges": 7734,
      "ius": 7735,
      "Ġtet": 7736,
      "oline": 7737,
      "ĠMouse": 7738,
      "ĠMeta": 7739,
      "Ġvoxel": 7740,
      "terious": 7741,
      "odds": 7742,
      "ĠFinding": 7743,
      "Ġuses": 7744,
      "indow": 7745,
      "ĠScores": 7746,
      "Ġimmuno": 7747,
      "ĠKey": 7748,
      "Ġrequest": 7749,
      "folded": 7750,
      "Ġreductions": 7751,
      "Contro": 7752,
      "Ġadolescents": 7753,
      "Ġunderlie": 7754,
      "INTEND": 7755,
      "aro": 7756,
      "Ġq": 7757,
      "Ġer": 7758,
      "Ġsent": 7759,
      "Ġcat": 7760,
      "Ġwoman": 7761,
      "leukin": 7762,
      "tead": 7763,
      "ĠMass": 7764,
      "Ġischem": 7765,
      "ĠEmb": 7766,
      "ĠEMS": 7767,
      "Ġpercutaneous": 7768,
      "Ġevol": 7769,
      "ĠBl": 7770,
      "ĠBody": 7771,
      "standard": 7772,
      "Ġ71": 7773,
      "Ġremark": 7774,
      "ĠAnxiety": 7775,
      "Ġcolocal": 7776,
      "ropri": 7777,
      "Ġworkers": 7778,
      "Ġfulf": 7779,
      "IPPV": 7780,
      "Ġutilization": 7781,
      "Ġsupranuclear": 7782,
      "Ġvesicle": 7783,
      "otropic": 7784,
      "Ġauthor": 7785,
      "ofluorescence": 7786,
      "Ġcoordination": 7787,
      "Ġjudgment": 7788,
      "AF": 7789,
      "HRE": 7790,
      "Ig": 7791,
      "PPA": 7792,
      "nutrition": 7793,
      "wMND": 7794,
      "Ġms": 7795,
      "ĠAE": 7796,
      "ĠAug": 7797,
      "ude": 7798,
      "ĠDel": 7799,
      "ĠED": 7800,
      "Ġphases": 7801,
      "Ġregister": 7802,
      "Ġintensive": 7803,
      "Ġendurance": 7804,
      "ographical": 7805,
      "ĠNeurofilament": 7806,
      "GGGGCC": 7807,
      "Ġhospitals": 7808,
      "Ġsurveillance": 7809,
      "TICIPA": 7810,
      "ĠMATR": 7811,
      "Ġgenotypes": 7812,
      "Ġtrajectory": 7813,
      "Ġdroplet": 7814,
      "Ġorganelles": 7815,
      "Ġcannab": 7816,
      "IR": 7817,
      "ĠAlso": 7818,
      "ĠSymptom": 7819,
      "ĠSmn": 7820,
      "Ġhind": 7821,
      "Ġnearly": 7822,
      "Ġdemyel": 7823,
      "ĠPositive": 7824,
      "oping": 7825,
      "Ġcho": 7826,
      "Ġusual": 7827,
      "Ġseiz": 7828,
      "agg": 7829,
      "Ġinterplay": 7830,
      "Ġactin": 7831,
      "Ġ2014": 7832,
      "Ġindices": 7833,
      "expressing": 7834,
      "Ġpostoperative": 7835,
      "ĠParamet": 7836,
      "ĠJune": 7837,
      "Ġprofound": 7838,
      "Ġlongitudinally": 7839,
      "Ġamplitudes": 7840,
      "Ġcomposite": 7841,
      "Ġtriggers": 7842,
      "Ġadaptive": 7843,
      "effective": 7844,
      "phenotype": 7845,
      "Ġautophagic": 7846,
      "Ġinjected": 7847,
      "Ġendothelial": 7848,
      "GE": 7849,
      "willing": 7850,
      "enne": 7851,
      "hea": 7852,
      "Ġoffered": 7853,
      "uls": 7854,
      "ĠALSAQ": 7855,
      "gence": 7856,
      "Ġconversion": 7857,
      "ĠMultic": 7858,
      "ĠFrance": 7859,
      "Ġheat": 7860,
      "ĠBMA": 7861,
      "Ġsurround": 7862,
      "Ġproven": 7863,
      "Ġ2013": 7864,
      "Ġexamining": 7865,
      "ĠAsian": 7866,
      "Ġclassif": 7867,
      "Ġpsychosocial": 7868,
      "Ġinfluences": 7869,
      "Ġweighted": 7870,
      "Ġencour": 7871,
      "ĠmmHg": 7872,
      "Ġcutoff": 7873,
      "Ġdistinguishing": 7874,
      "ĠPregnant": 7875,
      "Ġinsertion": 7876,
      "TICIPANTS": 7877,
      "OF": 7878,
      "SN": 7879,
      "eks": 7880,
      "enari": 7881,
      "aling": 7882,
      "Ġsl": 7883,
      "Ġdiversity": 7884,
      "Ġdiss": 7885,
      "Ġanatomical": 7886,
      "ĠFed": 7887,
      "actorial": 7888,
      "Ġevid": 7889,
      "Ġunlike": 7890,
      "Ġ96": 7891,
      "Ġsuppression": 7892,
      "Ġautologous": 7893,
      "Ġarray": 7894,
      "opathic": 7895,
      "Ġinhibits": 7896,
      "Ġdelays": 7897,
      "Ġkind": 7898,
      "points": 7899,
      "Ġoligomer": 7900,
      "Ġexcitatory": 7901,
      "Ġneuroinflammatory": 7902,
      "onuclear": 7903,
      "Ġclearly": 7904,
      "ĠCentral": 7905,
      "Ġcoupled": 7906,
      "Ġcircuit": 7907,
      "Ġcarbon": 7908,
      "FALS": 7909,
      "NMD": 7910,
      "mm": 7911,
      "mak": 7912,
      "vo": 7913,
      "alanine": 7914,
      "esity": 7915,
      "ĠAp": 7916,
      "ĠSH": 7917,
      "cline": 7918,
      "ĠMMN": 7919,
      "ĠInformation": 7920,
      "ĠOUT": 7921,
      "Ġcover": 7922,
      "thern": 7923,
      "ĠUs": 7924,
      "Ġ84": 7925,
      "ĠHerein": 7926,
      "Ġjuvenile": 7927,
      "ilitary": 7928,
      "Ġgenerating": 7929,
      "Ġenhances": 7930,
      "itinib": 7931,
      "Ġradical": 7932,
      "ĠECG": 7933,
      "Ġoverexpressing": 7934,
      "ĠProgram": 7935,
      "Ġlegal": 7936,
      "ĠCollectively": 7937,
      "Ġinheritance": 7938,
      "Ġaccelerated": 7939,
      "urses": 7940,
      "Ġtrunc": 7941,
      "Ġvaccine": 7942,
      "Ġimmunoreactivity": 7943,
      "ĠMATERIALS": 7944,
      "Ġhistorical": 7945,
      "Ġlikelihood": 7946,
      "ATS": 7947,
      "Ident": 7948,
      "uing": 7949,
      "Ġsn": 7950,
      "Ġdimensions": 7951,
      "genital": 7952,
      "opausal": 7953,
      "ĠEQ": 7954,
      "Ġyou": 7955,
      "Ġcontrovers": 7956,
      "riterion": 7957,
      "oblast": 7958,
      "Ġmetabolite": 7959,
      "Ġpostnatal": 7960,
      "Ġmaturation": 7961,
      "Ġshoulder": 7962,
      "Ġkidney": 7963,
      "Ġpublications": 7964,
      "Ġreflects": 7965,
      "Ġubiquitinated": 7966,
      "Ġadaptation": 7967,
      "Ġfolding": 7968,
      "arcot": 7969,
      "glutamine": 7970,
      "Ġmacrophages": 7971,
      "Ġartificial": 7972,
      "Ġveterans": 7973,
      "Ca": 7974,
      "IMP": 7975,
      "Mult": 7976,
      "VD": 7977,
      "kt": 7978,
      "sub": 7979,
      "inflammation": 7980,
      "ĠPain": 7981,
      "ĠPsych": 7982,
      "ĠDat": 7983,
      "ĠNetwork": 7984,
      "ademic": 7985,
      "Ġsection": 7986,
      "fectious": 7987,
      "ologically": 7988,
      "Ġidentical": 7989,
      "Ġapplying": 7990,
      "Ġrace": 7991,
      "Ġindicator": 7992,
      "Changes": 7993,
      "meter": 7994,
      "uchenne": 7995,
      "tructure": 7996,
      "Ġmissing": 7997,
      "ĠConsortium": 7998,
      "Ġlymphocytes": 7999,
      "Ġautonomous": 8000,
      "Ġmultifactorial": 8001,
      "Ġadeno": 8002,
      "Ġsuicide": 8003,
      "virus": 8004,
      "Ġarterial": 8005,
      "Ġextremely": 8006,
      "Ġregistries": 8007,
      "GH": 8008,
      "Trial": 8009,
      "bow": 8010,
      "Ġaet": 8011,
      "held": 8012,
      "Ġpseud": 8013,
      "uled": 8014,
      "ĠCr": 8015,
      "ĠCord": 8016,
      "chron": 8017,
      "Ġexchange": 8018,
      "ĠNa": 8019,
      "ously": 8020,
      "Ġfunctionality": 8021,
      "temp": 8022,
      "assisted": 8023,
      "aceutical": 8024,
      "ancies": 8025,
      "Ġpathogenicity": 8026,
      "Ġ120": 8027,
      "Ġrevealing": 8028,
      "glia": 8029,
      "armaceutical": 8030,
      "miR": 8031,
      "ERV": 8032,
      "ĠDisc": 8033,
      "Ġconsequence": 8034,
      "Ġsecret": 8035,
      "value": 8036,
      "Ġacquisition": 8037,
      "ĠNorth": 8038,
      "Ġpenetrance": 8039,
      "Ġdirections": 8040,
      "Ġchromatography": 8041,
      "ches": 8042,
      "poly": 8043,
      "Ġocul": 8044,
      "otion": 8045,
      "ĠCyt": 8046,
      "Ġdex": 8047,
      "ipolar": 8048,
      "Ġpreferent": 8049,
      "ensitive": 8050,
      "Ġsuggestive": 8051,
      "Ġ88": 8052,
      "Ġresemb": 8053,
      "Ġprobe": 8054,
      "Ġjust": 8055,
      "Ġresidue": 8056,
      "theless": 8057,
      "Ġsummarized": 8058,
      "ocytosis": 8059,
      "ĠImpair": 8060,
      "Assess": 8061,
      "structured": 8062,
      "person": 8063,
      "Ġstimuli": 8064,
      "Ġpremature": 8065,
      "autonomous": 8066,
      "Participants": 8067,
      "ĠOUTCO": 8068,
      "Background": 8069,
      "NE": 8070,
      "XS": 8071,
      "four": 8072,
      "mRNA": 8073,
      "ov": 8074,
      "site": 8075,
      "Ġwindow": 8076,
      "Ġmorbidity": 8077,
      "Ġbrach": 8078,
      "Ġ(\\": 8079,
      "ĠTechn": 8080,
      "ĠMEP": 8081,
      "ĠPediatric": 8082,
      "Ġimm": 8083,
      "Ġrig": 8084,
      "Ġassesses": 8085,
      "Ġbiopsies": 8086,
      "Ġnons": 8087,
      "orescent": 8088,
      "Ġmatching": 8089,
      "Ġsequest": 8090,
      "Ġmultiplex": 8091,
      "Ġanalyzing": 8092,
      "ĠAssociated": 8093,
      "Ġclinician": 8094,
      "Ġaddressing": 8095,
      "Ġappearance": 8096,
      "ĠDiagnostic": 8097,
      "Ġfibrill": 8098,
      "Ġattenuated": 8099,
      "Ġeasily": 8100,
      "Ġharboring": 8101,
      "silon": 8102,
      "butyrate": 8103,
      "Ġancestry": 8104,
      "mittee": 8105,
      "ĠBMAA": 8106,
      "Com": 8107,
      "iray": 8108,
      "ufficiency": 8109,
      "vol": 8110,
      "Ġdram": 8111,
      "Ġmas": 8112,
      "ĠAm": 8113,
      "Ġasymmet": 8114,
      "ĠRem": 8115,
      "tric": 8116,
      "Ġneurogenic": 8117,
      "ĠHE": 8118,
      "ĠHand": 8119,
      "ĠElev": 8120,
      "deficient": 8121,
      "Ġsperm": 8122,
      "ĠLC": 8123,
      "ĠGo": 8124,
      "Ġprogressed": 8125,
      "ĠStress": 8126,
      "rank": 8127,
      "existing": 8128,
      "Ġsimulations": 8129,
      "ĠExpl": 8130,
      "CIs": 8131,
      "Ġdefinition": 8132,
      "Ġorganization": 8133,
      "Ġamplification": 8134,
      "cyte": 8135,
      "Ġfewer": 8136,
      "Ġhyd": 8137,
      "Ġspecialist": 8138,
      "ĠNDDs": 8139,
      "ĠPharmacokinetics": 8140,
      "ĠPARTICIPANTS": 8141,
      "Ġcondensates": 8142,
      "Ġsubstrate": 8143,
      "Ġdeviation": 8144,
      "Ġpropagation": 8145,
      "behavioral": 8146,
      "Ġdeleterious": 8147,
      "irayama": 8148,
      "Path": 8149,
      "taken": 8150,
      "Ġpace": 8151,
      "icine": 8152,
      "three": 8153,
      "Ġget": 8154,
      "ibration": 8155,
      "ĠNDs": 8156,
      "Ġscenari": 8157,
      "Ġ500": 8158,
      "ĠUNC": 8159,
      "ytical": 8160,
      "Ġantigen": 8161,
      "ĠmicroRNAs": 8162,
      "Ġparts": 8163,
      "Ġdetectable": 8164,
      "Ġsmart": 8165,
      "Ġderiv": 8166,
      "Ġtrained": 8167,
      "Ġ\\<=": 8168,
      "Ġbroader": 8169,
      "Ġthalamus": 8170,
      "activated": 8171,
      "ĠOrgan": 8172,
      "Ġadjustment": 8173,
      "guided": 8174,
      "Ġpedig": 8175,
      "Ġparaplegia": 8176,
      "ĠStimulation": 8177,
      "BR": 8178,
      "END": 8179,
      "Treatment": 8180,
      "iest": 8181,
      "tiv": 8182,
      "wan": 8183,
      "revised": 8184,
      "ishes": 8185,
      "Ġdop": 8186,
      "ĠConse": 8187,
      "ĠIN": 8188,
      "Ġperception": 8189,
      "Ġbios": 8190,
      "load": 8191,
      "ossible": 8192,
      "obasal": 8193,
      "Ġ79": 8194,
      "Ġjaw": 8195,
      "Analysis": 8196,
      "ĠAmerica": 8197,
      "Ġpreceding": 8198,
      "aspase": 8199,
      "Ġneonatal": 8200,
      "ĠBayesian": 8201,
      "ĠFindings": 8202,
      "DM": 8203,
      "HSP": 8204,
      "han": 8205,
      "ji": 8206,
      "rf": 8207,
      "Ġsqu": 8208,
      "Ġmt": 8209,
      "imotor": 8210,
      "ĠSwallowing": 8211,
      "teb": 8212,
      "Ġstand": 8213,
      "Ġrank": 8214,
      "ache": 8215,
      "istically": 8216,
      "Ġinclusive": 8217,
      "Ġprevents": 8218,
      "Ġprefrontal": 8219,
      "ensory": 8220,
      "Ġsurrogate": 8221,
      "minute": 8222,
      "Ġwheelchair": 8223,
      "avail": 8224,
      "posing": 8225,
      "Ġsynthe": 8226,
      "ĠConversely": 8227,
      "Ġclassic": 8228,
      "ĠParticipant": 8229,
      "ĠSubsequ": 8230,
      "axin": 8231,
      "Ġelderly": 8232,
      "Ġhelpful": 8233,
      "Ġulnar": 8234,
      "Ġlipids": 8235,
      "Ġpowerful": 8236,
      "Ġcompensatory": 8237,
      "Ġintelligibility": 8238,
      "ĠFemale": 8239,
      "Mod": 8240,
      "dL": 8241,
      "lives": 8242,
      "Ġaf": 8243,
      "Ġpaired": 8244,
      "assemb": 8245,
      "Ġproof": 8246,
      "ĠCal": 8247,
      "Ġexcellent": 8248,
      "ĠRab": 8249,
      "Ġrun": 8250,
      "ucas": 8251,
      "istical": 8252,
      "Ġrodent": 8253,
      "ĠRec": 8254,
      "Ġpredis": 8255,
      "Ġcarcinoma": 8256,
      "artments": 8257,
      "Ġ83": 8258,
      "ĠCharcot": 8259,
      "ferred": 8260,
      "Ġreceiver": 8261,
      "IIB": 8262,
      "Ġuncover": 8263,
      "Ġtrack": 8264,
      "Ġresidents": 8265,
      "EVs": 8266,
      "Ġsuppressed": 8267,
      "inocerebellar": 8268,
      "Ġfavorable": 8269,
      "oclonal": 8270,
      "URES": 8271,
      "Ġmammalian": 8272,
      "ĠMEAS": 8273,
      "MES": 8274,
      "gia": 8275,
      "onym": 8276,
      "Ġcing": 8277,
      "Ġtheory": 8278,
      "asth": 8279,
      "Ġfiring": 8280,
      "ĠAre": 8281,
      "eting": 8282,
      "olus": 8283,
      "Ġgap": 8284,
      "ĠDuchenne": 8285,
      "Ġimbal": 8286,
      "Ġrhyth": 8287,
      "Ġpercept": 8288,
      "ĠBurden": 8289,
      "Ġunmet": 8290,
      "anger": 8291,
      "rosine": 8292,
      "Ġmonthly": 8293,
      "Ġundertaken": 8294,
      "ceptor": 8295,
      "Ġ74": 8296,
      "Ġcoping": 8297,
      "Ġdamaged": 8298,
      "ĠGeneral": 8299,
      "Ġhypotheses": 8300,
      "arrier": 8301,
      "translational": 8302,
      "ĠUSA": 8303,
      "ĠSimilar": 8304,
      "ĠSimilarly": 8305,
      "ĠSETX": 8306,
      "Ġblinded": 8307,
      "Ġsimultaneously": 8308,
      "ĠTRIAL": 8309,
      ",\"": 8310,
      "HCA": 8311,
      "del": 8312,
      "grade": 8313,
      "atch": 8314,
      "ursing": 8315,
      "atio": 8316,
      "ĠCSA": 8317,
      "ĠMU": 8318,
      "ĠMi": 8319,
      "Ġexce": 8320,
      "ĠRNS": 8321,
      "Ġusage": 8322,
      "Ġadip": 8323,
      "ĠGAB": 8324,
      "Ġunch": 8325,
      "Ġphenoc": 8326,
      "Ġneurology": 8327,
      "ilitating": 8328,
      "Ġdiscussion": 8329,
      "ĠRegister": 8330,
      "Ġdefinitive": 8331,
      "Ġelevation": 8332,
      "Ġcycles": 8333,
      "Ġutilizing": 8334,
      "ĠProgressive": 8335,
      "ĠANG": 8336,
      "Ġspreading": 8337,
      "ĠMedicine": 8338,
      "Ġloading": 8339,
      "ĠSpeech": 8340,
      "predominant": 8341,
      "Ġcascade": 8342,
      "MSCs": 8343,
      "mph": 8344,
      "orrel": 8345,
      "itron": 8346,
      "Ġwestern": 8347,
      "urvival": 8348,
      "ilt": 8349,
      "ĠSM": 8350,
      "ĠSAR": 8351,
      "Ġprogen": 8352,
      "Ġscoring": 8353,
      "Ġprehospital": 8354,
      "agulation": 8355,
      "Ġinterneuron": 8356,
      "Ġprescription": 8357,
      "Ġintended": 8358,
      "ĠVEGF": 8359,
      "tribution": 8360,
      "Ġincons": 8361,
      "Ġdetermination": 8362,
      "Ġmembran": 8363,
      "prog": 8364,
      "structive": 8365,
      "Ġupdate": 8366,
      "Ġenabling": 8367,
      "ĠLaboratory": 8368,
      "Ġprincipal": 8369,
      "Ġanswer": 8370,
      "Be": 8371,
      "liquid": 8372,
      "erived": 8373,
      "Ġsib": 8374,
      "Ġbot": 8375,
      "ĠAnd": 8376,
      "utath": 8377,
      "idase": 8378,
      "ĠSF": 8379,
      "ĠCR": 8380,
      "Ġcongenital": 8381,
      "ĠMark": 8382,
      "ĠMIP": 8383,
      "ĠPT": 8384,
      "umatic": 8385,
      "renic": 8386,
      "ĠNone": 8387,
      "pped": 8388,
      "ĠHas": 8389,
      "Ġrespiration": 8390,
      "Ġquick": 8391,
      "Ġnovo": 8392,
      "Ġ91": 8393,
      "Ġmultivariable": 8394,
      "/-)": 8395,
      "ĠParticipation": 8396,
      "GFR": 8397,
      "Ġconformational": 8398,
      "ĠResponse": 8399,
      "Ġaffinity": 8400,
      "oeconomic": 8401,
      "Ġanesthesia": 8402,
      "firmed": 8403,
      "ĠEmbase": 8404,
      "'-": 8405,
      "Dif": 8406,
      "On": 8407,
      "Riluzole": 8408,
      "RAN": 8409,
      "gamma": 8410,
      "Â±": 8411,
      "enous": 8412,
      "Ġcriterion": 8413,
      "Ġbound": 8414,
      "resolution": 8415,
      "Ġexclusive": 8416,
      "ĠRole": 8417,
      "ĠRBPs": 8418,
      "acu": 8419,
      "Ġsport": 8420,
      "Ġlimits": 8421,
      "Ġcentre": 8422,
      "Ġinjuries": 8423,
      "Ġ150": 8424,
      "Ġsaturation": 8425,
      "ĠMutation": 8426,
      "Ġgoals": 8427,
      "Ġfields": 8428,
      "Ġdiscrimination": 8429,
      "ĠConsider": 8430,
      "Ġmethyl": 8431,
      "Ġeducational": 8432,
      "ĠImpact": 8433,
      "ĠFactors": 8434,
      "Ġbilirubin": 8435,
      "Ġvelocity": 8436,
      "Muscle": 8437,
      "cers": 8438,
      "inite": 8439,
      "Ġtel": 8440,
      "Ġoste": 8441,
      "ĠAgg": 8442,
      "ĠMCI": 8443,
      "ipment": 8444,
      "ĠIncre": 8445,
      "Ġadmitted": 8446,
      "Ġshif": 8447,
      "arginine": 8448,
      "ROC": 8449,
      "Ġemph": 8450,
      "Ġdysfunctions": 8451,
      "Ġelectron": 8452,
      "Ġrepresented": 8453,
      "Ġabsolute": 8454,
      "Ġlocomotor": 8455,
      "Ġrecomb": 8456,
      "Ġsubstance": 8457,
      "Ġprecurs": 8458,
      "Ġadapted": 8459,
      "Ġcallos": 8460,
      "Ġcomputational": 8461,
      "Ġinteracts": 8462,
      "pril": 8463,
      "Neurodegenerative": 8464,
      "Ġdiscoveries": 8465,
      "ĠSurvey": 8466,
      "Ġtremor": 8467,
      "ocardial": 8468,
      "MV": 8469,
      "such": 8470,
      "Ġaer": 8471,
      "Ġsole": 8472,
      "ĠAA": 8473,
      "Ġacetyl": 8474,
      "Ġcorp": 8475,
      "Ġknee": 8476,
      "nex": 8477,
      "Ġstructured": 8478,
      "Ġexploring": 8479,
      "ĠCaucas": 8480,
      "Ġcontinuum": 8481,
      "Ġdemographics": 8482,
      "Ġearliest": 8483,
      "Ġcytoskeletal": 8484,
      "Ġdonors": 8485,
      "Ġsurviv": 8486,
      "ĠSociety": 8487,
      "ĠAugust": 8488,
      "ĠFederation": 8489,
      "Ind": 8490,
      "LRP": 8491,
      "PH": 8492,
      "ea": 8493,
      "eight": 8494,
      "hand": 8495,
      "rater": 8496,
      "Ġble": 8497,
      "Ġlithium": 8498,
      "ĠTE": 8499,
      "ĠCortical": 8500,
      "Ġdiseased": 8501,
      "ocy": 8502,
      "ĠRAG": 8503,
      "ĠNever": 8504,
      "ĠGolgi": 8505,
      "Ġactual": 8506,
      "Ġ94": 8507,
      "Ġ2012": 8508,
      "Ġprogresses": 8509,
      "There": 8510,
      "Ġimpairs": 8511,
      "Ġsynapse": 8512,
      "Ġpsychosis": 8513,
      "Ġconsideration": 8514,
      "ĠPerformance": 8515,
      "ĠNMJs": 8516,
      "Ġpoll": 8517,
      "ĠCanadian": 8518,
      "ĠIgG": 8519,
      "cardi": 8520,
      "NI": 8521,
      "ca": 8522,
      "dal": 8523,
      "faces": 8524,
      "spect": 8525,
      "til": 8526,
      "isol": 8527,
      "Ġbur": 8528,
      "otypic": 8529,
      "Ġnationwide": 8530,
      "Ġech": 8531,
      "idative": 8532,
      "ĠMal": 8533,
      "amed": 8534,
      "ĠIS": 8535,
      "Ġresto": 8536,
      "ĠHence": 8537,
      "ĠLit": 8538,
      "Ġacoustic": 8539,
      "ĠGTP": 8540,
      "oxin": 8541,
      "Ġindication": 8542,
      "Incidence": 8543,
      "Ġsequential": 8544,
      "Ġsynerg": 8545,
      "Reg": 8546,
      "Ġfibrosis": 8547,
      "Ġgreatest": 8548,
      "Ġreliably": 8549,
      "ĠMulti": 8550,
      "ystolic": 8551,
      "Ġmulticentre": 8552,
      "computer": 8553,
      "Ġneurite": 8554,
      "Ġdebilitating": 8555,
      "ĠCombined": 8556,
      "ĠAfrican": 8557,
      "Evaluation": 8558,
      "Ġrestored": 8559,
      "Brain": 8560,
      "EY": 8561,
      "iwan": 8562,
      "Ġmood": 8563,
      "Ġfed": 8564,
      "ĠSelf": 8565,
      "Ġhor": 8566,
      "Ġvoice": 8567,
      "ĠIR": 8568,
      "Ġones": 8569,
      "abase": 8570,
      "ĠFeb": 8571,
      "Ġwhichever": 8572,
      "orer": 8573,
      "ĠGWAS": 8574,
      "Ġdiagnose": 8575,
      "Ġ99": 8576,
      "Ġcareful": 8577,
      "Ġaggressive": 8578,
      "Ġconfer": 8579,
      "Ġlinking": 8580,
      "Ġpharmacokinetic": 8581,
      "Ġmanifestation": 8582,
      "Ġconfirmation": 8583,
      "Ġsusceptible": 8584,
      "Pharmac": 8585,
      "ĠANXA": 8586,
      "Ġthalamic": 8587,
      "ĠApproximately": 8588,
      "Ġautomated": 8589,
      "ĠSweden": 8590,
      "Ġparadigm": 8591,
      "Health": 8592,
      "PO": 8593,
      "RK": 8594,
      "dimensional": 8595,
      "independent": 8596,
      "Ġmilitary": 8597,
      "Ġbipolar": 8598,
      "ĠApril": 8599,
      "ilst": 8600,
      "gered": 8601,
      "ĠFamilial": 8602,
      "ume": 8603,
      "ips": 8604,
      "Ġexpand": 8605,
      "006": 8606,
      "Ġreplication": 8607,
      "ĠVC": 8608,
      "Ġemission": 8609,
      "Ġlinks": 8610,
      "Ġinterventional": 8611,
      "Ġtoxin": 8612,
      "ORT": 8613,
      "Ġspecified": 8614,
      "ĠSequ": 8615,
      "Ġopening": 8616,
      "ifestyle": 8617,
      "331": 8618,
      "Ġmachin": 8619,
      "Ġangle": 8620,
      "ĠAnti": 8621,
      "innervation": 8622,
      "targeted": 8623,
      "hydroxy": 8624,
      "Ġdendritic": 8625,
      "MEP": 8626,
      "QL": 8627,
      "after": 8628,
      "density": 8629,
      "sample": 8630,
      "informatic": 8631,
      "ats": 8632,
      "Ġcir": 8633,
      "asia": 8634,
      "ctomy": 8635,
      "oll": 8636,
      "ĠIT": 8637,
      "Ġresil": 8638,
      "Ġpara": 8639,
      "ĠGD": 8640,
      "Ġenables": 8641,
      "irectional": 8642,
      "Ġ73": 8643,
      "Ġhypersensitivity": 8644,
      "Ġ87": 8645,
      "Ġimmunofluorescence": 8646,
      "Ġintracortical": 8647,
      "Ġradiation": 8648,
      "Ġextraction": 8649,
      "olytic": 8650,
      "Ġstead": 8651,
      "Ġsolid": 8652,
      "Ġfibrils": 8653,
      "Ġdirection": 8654,
      "ĠCorrelation": 8655,
      "Ġanticipated": 8656,
      "orrhea": 8657,
      "ĠMulticenter": 8658,
      "Dys": 8659,
      "five": 8660,
      "ietal": 8661,
      "six": 8662,
      "Ġcamptocormia": 8663,
      "asibility": 8664,
      "Ġfixed": 8665,
      "Ġdisordered": 8666,
      "Ġneither": 8667,
      "ĠPO": 8668,
      "ĠIFN": 8669,
      "ĠInability": 8670,
      "ucose": 8671,
      "Ġparietal": 8672,
      "ĠBDNF": 8673,
      "Ġacademic": 8674,
      "Ġmuscul": 8675,
      "yped": 8676,
      "Ġprogressively": 8677,
      "hazard": 8678,
      "Ġpeer": 8679,
      "ĠmicroRNA": 8680,
      "ruary": 8681,
      "Ġstandards": 8682,
      "Ġinfar": 8683,
      "Ġelbow": 8684,
      "Ġprogramme": 8685,
      "Ġaccessible": 8686,
      "Ġequipment": 8687,
      "Ġlatency": 8688,
      "ĠSPG": 8689,
      "Ġdiscriminate": 8690,
      "Ġinfantile": 8691,
      "ĠIndeed": 8692,
      "ĠKorean": 8693,
      "Ġsaliva": 8694,
      "ĠTaiwan": 8695,
      "Ġhypometabolism": 8696,
      "Ġsurrounding": 8697,
      "ĠNevertheless": 8698,
      "Des": 8699,
      "disease": 8700,
      "relevant": 8701,
      "Ġcarg": 8702,
      "Ġinstitut": 8703,
      "astro": 8704,
      "ĠAV": 8705,
      "ĠCond": 8706,
      "Ġneurom": 8707,
      "Ġimage": 8708,
      "Ġsections": 8709,
      "develop": 8710,
      "Ġobesity": 8711,
      "Ġrelax": 8712,
      "Ġquadr": 8713,
      "Ġmakes": 8714,
      "Ġdifferentiating": 8715,
      "Ġmitophagy": 8716,
      "arman": 8717,
      "Ġprodromal": 8718,
      "Ġintegration": 8719,
      "ĠTBI": 8720,
      "Ġresidual": 8721,
      "arrative": 8722,
      "ĠDysfunction": 8723,
      "Ġsocioeconomic": 8724,
      "ĠMUNE": 8725,
      "Ġsensorimotor": 8726,
      "ĠSwedish": 8727,
      "Ġcommunicate": 8728,
      "Ġcategorized": 8729,
      "ĠCerebrospinal": 8730,
      "Ġhypothalamic": 8731,
      "Ġtermin": 8732,
      "Ġavenues": 8733,
      "Ġcovariates": 8734,
      "utathione": 8735,
      "DI": 8736,
      "DTI": 8737,
      "EA": 8738,
      "cult": 8739,
      "come": 8740,
      "py": 8741,
      "Ġselen": 8742,
      "Ġpict": 8743,
      "Ġdimer": 8744,
      "omn": 8745,
      "lycer": 8746,
      "owered": 8747,
      "ĠPort": 8748,
      "ocated": 8749,
      "Ġcomfort": 8750,
      "ĠInt": 8751,
      "Ġparas": 8752,
      "uscitation": 8753,
      "Ġmodalities": 8754,
      "ĠGR": 8755,
      "ĠThen": 8756,
      "Ġmononuclear": 8757,
      "Ġmedically": 8758,
      "ĠValid": 8759,
      "ĠRece": 8760,
      "obank": 8761,
      "Ġconflic": 8762,
      "ĠAnal": 8763,
      "overn": 8764,
      "Ġcortices": 8765,
      "Ġtechnical": 8766,
      "Ġdiscusses": 8767,
      "methyl": 8768,
      "Ġcountry": 8769,
      "Ġlesion": 8770,
      "Ġsegments": 8771,
      "Ġschool": 8772,
      "ĠMeasurement": 8773,
      "Ġextends": 8774,
      "Ġcreate": 8775,
      "BV": 8776,
      "Functional": 8777,
      "LINE": 8778,
      "hic": 8779,
      "edy": 8780,
      "ings": 8781,
      "Ġ(<": 8782,
      "ĠTraining": 8783,
      "imet": 8784,
      "ĠCASE": 8785,
      "phing": 8786,
      "Ġdisse": 8787,
      "mentias": 8788,
      "Ġexosomes": 8789,
      "ĠDMD": 8790,
      "ĠBP": 8791,
      "degeneration": 8792,
      "Ġacts": 8793,
      "Ġevaluates": 8794,
      "Ġitself": 8795,
      "flammasome": 8796,
      "ASO": 8797,
      "Ġpolyglutamine": 8798,
      "Ġventricular": 8799,
      "Ġjour": 8800,
      "Ġexploration": 8801,
      "prod": 8802,
      "Ġencoded": 8803,
      "Ġconsiderations": 8804,
      "Ġbelong": 8805,
      "Ġrestore": 8806,
      "Ġaccepted": 8807,
      "Ġmicrostructural": 8808,
      "etermin": 8809,
      "Ġalgorithms": 8810,
      "Ġattempts": 8811,
      "Ġthorough": 8812,
      "Ġethnic": 8813,
      "throughput": 8814,
      "olecule": 8815,
      "Ġsibling": 8816,
      "Ġmachinery": 8817,
      "Gl": 8818,
      "MSC": 8819,
      "];": 8820,
      "ah": 8821,
      "bre": 8822,
      "cyt": 8823,
      "rho": 8824,
      "Ġine": 8825,
      "esides": 8826,
      "osa": 8827,
      "lys": 8828,
      "ĠCross": 8829,
      "Ġwear": 8830,
      "thood": 8831,
      "occur": 8832,
      "ofib": 8833,
      "ĠHome": 8834,
      "Ġintact": 8835,
      "Ġ98": 8836,
      "medi": 8837,
      "ustom": 8838,
      "Ġcontributions": 8839,
      "ĠAdults": 8840,
      "ĠQOL": 8841,
      "Ġoutput": 8842,
      "Ġsustain": 8843,
      "Ġgeneralized": 8844,
      "Ġencodes": 8845,
      "SAEs": 8846,
      "Ġdownregulated": 8847,
      "Ġcorticobasal": 8848,
      "Ġdependence": 8849,
      "Ġspecialized": 8850,
      "Ġdiaphragmatic": 8851,
      "Ġsituation": 8852,
      "Ġsuicidal": 8853,
      "olinergic": 8854,
      "Ġspeakers": 8855,
      "administered": 8856,
      "ropriate": 8857,
      "ĠDatabase": 8858,
      "Trials": 8859,
      "Ep": 8860,
      "HL": 8861,
      "MBP": 8862,
      "OG": 8863,
      "SALS": 8864,
      "bable": 8865,
      "di": 8866,
      "lip": 8867,
      "sa": 8868,
      "enger": 8869,
      "Ġpairs": 8870,
      "Ġcaspase": 8871,
      "orption": 8872,
      "orrect": 8873,
      "iture": 8874,
      "Ġwant": 8875,
      "ĠmTOR": 8876,
      "Ġrein": 8877,
      "Ġelement": 8878,
      "Ġharm": 8879,
      "Ġprostate": 8880,
      "ĠProspective": 8881,
      "Ġvast": 8882,
      "Ġord": 8883,
      "ALSAQ": 8884,
      "Ġchart": 8885,
      "Ġcompl": 8886,
      "Ġ93": 8887,
      "Ġconditional": 8888,
      "ĠVeter": 8889,
      "Ġmanage": 8890,
      "Ġ82": 8891,
      "Ġcognitively": 8892,
      "ĠExposure": 8893,
      "Ġproduces": 8894,
      "Ġpriorit": 8895,
      "Ġarticulatory": 8896,
      "Ġpercentile": 8897,
      "ĠNeurone": 8898,
      "Ġconnected": 8899,
      "Ġsafely": 8900,
      "Ġligand": 8901,
      "Ġtablet": 8902,
      "Ġstabilization": 8903,
      "Ġconfounding": 8904,
      "Ġtibialis": 8905,
      "ĠFebruary": 8906,
      "mediately": 8907,
      "Gly": 8908,
      "IE": 8909,
      "bulbar": 8910,
      "gdal": 8911,
      "psych": 8912,
      "aline": 8913,
      "Ġisometric": 8914,
      "Ġimag": 8915,
      "ĠNether": 8916,
      "Ġsubcutaneous": 8917,
      "Ġroot": 8918,
      "Ġmediate": 8919,
      "Ġtimely": 8920,
      "Ġformal": 8921,
      "ĠStage": 8922,
      "Ġnormalized": 8923,
      "Ġmyocardial": 8924,
      "Ġclasses": 8925,
      "Exp": 8926,
      "Ġworks": 8927,
      "Ġenter": 8928,
      "ĠOnset": 8929,
      "Ġpurposes": 8930,
      "Ġtranslocation": 8931,
      "Ġfragment": 8932,
      "azol": 8933,
      "Ġbioinformatic": 8934,
      "ibrill": 8935,
      "Ġmitigate": 8936,
      "Ġdiscontinued": 8937,
      "Ġconnection": 8938,
      "ĠUltras": 8939,
      "Ġganglia": 8940,
      "Ġpolicy": 8941,
      "Ġwords": 8942,
      "Ġalbumin": 8943,
      "ysteine": 8944,
      "Ġimpedance": 8945,
      "Ġpacemak": 8946,
      "ĠNetherlands": 8947,
      "App": 8948,
      "Cr": 8949,
      "gans": 8950,
      "Ġwave": 8951,
      "Ġwrist": 8952,
      "lege": 8953,
      "etime": 8954,
      "etite": 8955,
      "ulthood": 8956,
      "ĠSCI": 8957,
      "ĠDynam": 8958,
      "Ġimmediately": 8959,
      "Ġresident": 8960,
      "ĠHu": 8961,
      "Ġmodule": 8962,
      "ervised": 8963,
      "Ġbiom": 8964,
      "reland": 8965,
      "Ġcanonical": 8966,
      "Ġageing": 8967,
      "Ġdecreasing": 8968,
      "cont": 8969,
      "hylation": 8970,
      "Ġoptineurin": 8971,
      "ĠMNDs": 8972,
      "Ġbecame": 8973,
      "Ġastrocytic": 8974,
      "adequ": 8975,
      "Ġpromoted": 8976,
      "Ġ2006": 8977,
      "Ġframes": 8978,
      "Ġextensively": 8979,
      "synaptic": 8980,
      "ibrary": 8981,
      "Ġgeographic": 8982,
      "Ġameliorate": 8983,
      "odynamics": 8984,
      "Ġcircuits": 8985,
      "Ġoligodendrocytes": 8986,
      "Ġconstant": 8987,
      "ĠComparison": 8988,
      "Ġimbalance": 8989,
      "Ġbleeding": 8990,
      "Dis": 8991,
      "Sc": 8992,
      "Ġprone": 8993,
      "ester": 8994,
      "Ġbid": 8995,
      "ĠServ": 8996,
      "ĠMitochondrial": 8997,
      "ĠPMA": 8998,
      "ĠPGRN": 8999,
      "ĠFUND": 9000,
      "opor": 9001,
      "quality": 9002,
      "Ġtrue": 9003,
      "istence": 9004,
      "ĠLast": 9005,
      "Ġmodulates": 9006,
      "Ġpharyngeal": 9007,
      "Ġmediating": 9008,
      "yne": 9009,
      "Ġtravel": 9010,
      "Ġimmunoglob": 9011,
      "Ġcalor": 9012,
      "Ġfluorescent": 9013,
      "Ġspecimens": 9014,
      "Ġdirected": 9015,
      "Ġoligomers": 9016,
      "Ġantibi": 9017,
      "Ġtolerance": 9018,
      "Ġgained": 9019,
      "ĠHDAC": 9020,
      "prising": 9021,
      "Ġelectrode": 9022,
      "Association": 9023,
      "Ġintroduction": 9024,
      "Ġneurites": 9025,
      "Ġstriking": 9026,
      "ĠAustral": 9027,
      "domain": 9028,
      "Ġinferior": 9029,
      "menopausal": 9030,
      "nitine": 9031,
      "ĠMEASURES": 9032,
      "CK": 9033,
[...]
