{
  "version": "1.0",
  "truncation": null,
  "padding": null,
  "added_tokens": [
    {
      "id": 0,
      "content": "<|endoftext|>",
      "single_word": false,
      "lstrip": false,
      "rstrip": false,
      "normalized": false,
      "special": true
    }
  ],
  "normalizer": {
    "type": "NFC"
  },
  "pre_tokenizer": {
    "type": "ByteLevel",
    "add_prefix_space": false,
    "trim_offsets": true,
    "use_regex": true
  },
  "post_processor": {
    "type": "ByteLevel",
    "add_prefix_space": true,
    "trim_offsets": false,
    "use_regex": true
  },
  "decoder": {
    "type": "ByteLevel",
    "add_prefix_space": true,
    "trim_offsets": true,
    "use_regex": true
  },
  "model": {
    "type": "BPE",
    "dropout": null,
    "unk_token": null,
    "continuing_subword_prefix": null,
    "end_of_word_suffix": null,
    "fuse_unk": false,
    "byte_fallback": false,
    "ignore_merges": false,
    "vocab": {
      "<|endoftext|>": 0,
      "!": 1,
      "\"": 2,
      "#": 3,
      "$": 4,
      "%": 5,
      "&": 6,
      "'": 7,
      "(": 8,
      ")": 9,
      "*": 10,
      "+": 11,
      ",": 12,
      "-": 13,
      ".": 14,
      "/": 15,
      "0": 16,
      "1": 17,
      "2": 18,
      "3": 19,
      "4": 20,
      "5": 21,
      "6": 22,
      "7": 23,
      "8": 24,
      "9": 25,
      ":": 26,
      ";": 27,
      "<": 28,
      "=": 29,
      ">": 30,
      "?": 31,
      "@": 32,
      "A": 33,
      "B": 34,
      "C": 35,
      "D": 36,
      "E": 37,
      "F": 38,
      "G": 39,
      "H": 40,
      "I": 41,
      "J": 42,
      "K": 43,
      "L": 44,
      "M": 45,
      "N": 46,
      "O": 47,
      "P": 48,
      "Q": 49,
      "R": 50,
      "S": 51,
      "T": 52,
      "U": 53,
      "V": 54,
      "W": 55,
      "X": 56,
      "Y": 57,
      "Z": 58,
      "[": 59,
      "\\": 60,
      "]": 61,
      "^": 62,
      "_": 63,
      "`": 64,
      "a": 65,
      "b": 66,
      "c": 67,
      "d": 68,
      "e": 69,
      "f": 70,
      "g": 71,
      "h": 72,
      "i": 73,
      "j": 74,
      "k": 75,
      "l": 76,
      "m": 77,
      "n": 78,
      "o": 79,
      "p": 80,
      "q": 81,
      "r": 82,
      "s": 83,
      "t": 84,
      "u": 85,
      "v": 86,
      "w": 87,
      "x": 88,
      "y": 89,
      "z": 90,
      "{": 91,
      "|": 92,
      "}": 93,
      "~": 94,
      "¡": 95,
      "¢": 96,
      "£": 97,
      "¤": 98,
      "¥": 99,
      "¦": 100,
      "§": 101,
      "¨": 102,
      "©": 103,
      "ª": 104,
      "«": 105,
      "¬": 106,
      "®": 107,
      "¯": 108,
      "°": 109,
      "±": 110,
      "²": 111,
      "³": 112,
      "´": 113,
      "µ": 114,
      "¶": 115,
      "·": 116,
      "¸": 117,
      "¹": 118,
      "º": 119,
      "»": 120,
      "¼": 121,
      "½": 122,
      "¾": 123,
      "¿": 124,
      "À": 125,
      "Á": 126,
      "Â": 127,
      "Ã": 128,
      "Ä": 129,
      "Å": 130,
      "Æ": 131,
      "Ç": 132,
      "È": 133,
      "É": 134,
      "Ê": 135,
      "Ë": 136,
      "Ì": 137,
      "Í": 138,
      "Î": 139,
      "Ï": 140,
      "Ð": 141,
      "Ñ": 142,
      "Ò": 143,
      "Ó": 144,
      "Ô": 145,
      "Õ": 146,
      "Ö": 147,
      "×": 148,
      "Ø": 149,
      "Ù": 150,
      "Ú": 151,
      "Û": 152,
      "Ü": 153,
      "Ý": 154,
      "Þ": 155,
      "ß": 156,
      "à": 157,
      "á": 158,
      "â": 159,
      "ã": 160,
      "ä": 161,
      "å": 162,
      "æ": 163,
      "ç": 164,
      "è": 165,
      "é": 166,
      "ê": 167,
      "ë": 168,
      "ì": 169,
      "í": 170,
      "î": 171,
      "ï": 172,
      "ð": 173,
      "ñ": 174,
      "ò": 175,
      "ó": 176,
      "ô": 177,
      "õ": 178,
      "ö": 179,
      "÷": 180,
      "ø": 181,
      "ù": 182,
      "ú": 183,
      "û": 184,
      "ü": 185,
      "ý": 186,
      "þ": 187,
      "ÿ": 188,
      "Ā": 189,
      "ā": 190,
      "Ă": 191,
      "ă": 192,
      "Ą": 193,
      "ą": 194,
      "Ć": 195,
      "ć": 196,
      "Ĉ": 197,
      "ĉ": 198,
      "Ċ": 199,
      "ċ": 200,
      "Č": 201,
      "č": 202,
      "Ď": 203,
      "ď": 204,
      "Đ": 205,
      "đ": 206,
      "Ē": 207,
      "ē": 208,
      "Ĕ": 209,
      "ĕ": 210,
      "Ė": 211,
      "ė": 212,
      "Ę": 213,
      "ę": 214,
      "Ě": 215,
      "ě": 216,
      "Ĝ": 217,
      "ĝ": 218,
      "Ğ": 219,
      "ğ": 220,
      "Ġ": 221,
      "ġ": 222,
      "Ģ": 223,
      "ģ": 224,
      "Ĥ": 225,
      "ĥ": 226,
      "Ħ": 227,
      "ħ": 228,
      "Ĩ": 229,
      "ĩ": 230,
      "Ī": 231,
      "ī": 232,
      "Ĭ": 233,
      "ĭ": 234,
      "Į": 235,
      "į": 236,
      "İ": 237,
      "ı": 238,
      "Ĳ": 239,
      "ĳ": 240,
      "Ĵ": 241,
      "ĵ": 242,
      "Ķ": 243,
      "ķ": 244,
      "ĸ": 245,
      "Ĺ": 246,
      "ĺ": 247,
      "Ļ": 248,
      "ļ": 249,
      "Ľ": 250,
      "ľ": 251,
      "Ŀ": 252,
      "ŀ": 253,
      "Ł": 254,
      "ł": 255,
      "Ń": 256,
      "in": 257,
      "Ġa": 258,
      "on": 259,
      "en": 260,
      "at": 261,
      "Ġt": 262,
      "re": 263,
      "er": 264,
      "al": 265,
      "Ġm": 266,
      "he": 267,
      "or": 268,
      "is": 269,
      "Ġc": 270,
      "ed": 271,
      "Ġin": 272,
      "it": 273,
      "ion": 274,
      "ro": 275,
      "Ġd": 276,
      "of": 277,
      "Ġs": 278,
      "Ġp": 279,
      "ic": 280,
      "nd": 281,
      "ar": 282,
      "es": 283,
      "Ġof": 284,
      "ing": 285,
      "as": 286,
      "ĠA": 287,
      "Ġw": 288,
      "Ġf": 289,
      "Ġand": 290,
      "Ġb": 291,
      "an": 292,
      "ent": 293,
      "Ġthe": 294,
      "le": 295,
      "ot": 296,
      "LS": 297,
      "Ġn": 298,
      "Ġe": 299,
      "ĠT": 300,
      "Ġre": 301,
      "ation": 302,
      "ct": 303,
      "ĠALS": 304,
      "om": 305,
      "ur": 306,
      "os": 307,
      "us": 308,
      "te": 309,
      "ve": 310,
      "ly": 311,
      "ul": 312,
      "ol": 313,
      "end": 314,
      "im": 315,
      "Ġ(": 316,
      "Ġde": 317,
      "ut": 318,
      "Ġis": 319,
      "id": 320,
      "Ġl": 321,
      "Ġto": 322,
      "Ġth": 323,
      "ĠThe": 324,
      "et": 325,
      "Ġne": 326,
      "cl": 327,
      "ith": 328,
      "Ġwith": 329,
      "un": 330,
      "Ġpro": 331,
      "ce": 332,
      "ment": 333,
      "xt": 334,
      "ia": 335,
      "Ġg": 336,
      "Ġh": 337,
      "il": 338,
      "ons": 339,
      "ĠS": 340,
      "ud": 341,
      "ss": 342,
      "ial": 343,
      "ow": 344,
      "ated": 345,
      "ra": 346,
      "ate": 347,
      "otor": 348,
      "ch": 349,
      "ive": 350,
      "pp": 351,
      "Ġdis": 352,
      "ts": 353,
      "ction": 354,
      "Ġfor": 355,
      ".<": 356,
      "|>": 357,
      "ofte": 358,
      "endofte": 359,
      ".<|": 360,
      "endoftext": 361,
      "Ġmotor": 362,
      "Ġneur": 363,
      "iv": 364,
      "if": 365,
      "pe": 366,
      "ical": 367,
      "Ġby": 368,
      "Ġex": 369,
      "ig": 370,
      "ir": 371,
      "ph": 372,
      "ase": 373,
      "od": 374,
      "Ġ1": 375,
      "Ġcon": 376,
      "ys": 377,
      "Ġor": 378,
      "ĠF": 379,
      "ity": 380,
      "red": 381,
      "Ġst": 382,
      "am": 383,
      "Ġo": 384,
      "ĠE": 385,
      "ary": 386,
      "Ġcom": 387,
      "pt": 388,
      "ress": 389,
      "Ġbe": 390,
      "Ġare": 391,
      "Ġas": 392,
      "Ġv": 393,
      "ost": 394,
      "se": 395,
      "og": 396,
      "lin": 397,
      "ppro": 398,
      "Ġ2": 399,
      "ver": 400,
      "cle": 401,
      "tro": 402,
      "Ġme": 403,
      "ĠP": 404,
      "ll": 405,
      "Ġgen": 406,
      "Ġmus": 407,
      "Ġincl": 408,
      "Ġwh": 409,
      "uro": 410,
      "Ġpat": 411,
      "Ġdise": 412,
      "Ġappro": 413,
      "ad": 414,
      "Ġthat": 415,
      "qu": 416,
      "unction": 417,
      "ans": 418,
      "ers": 419,
      "ain": 420,
      "ents": 421,
      "th": 422,
      "oc": 423,
      "Ġca": 424,
      "ess": 425,
      "ge": 426,
      "ener": 427,
      "Ġan": 428,
      "Ġint": 429,
      "ab": 430,
      "ations": 431,
      "Ġprog": 432,
      "Ġch": 433,
      "OD": 434,
      "ory": 435,
      "Ġinclud": 436,
      "Ġneuro": 437,
      "ĠC": 438,
      "op": 439,
      "Ġinv": 440,
      "ug": 441,
      "osis": 442,
      "Ġdisease": 443,
      "iz": 444,
      "ĠR": 445,
      "Ġtr": 446,
      "av": 447,
      "Ġwe": 448,
      "ĠSOD": 449,
      "ions": 450,
      "Ġsp": 451,
      "Ġad": 452,
      "Ġev": 453,
      "ac": 454,
      "ff": 455,
      "low": 456,
      "Ġneuron": 457,
      "ĠM": 458,
      "Ġneurons": 459,
      "ide": 460,
      "tic": 461,
      "Ġim": 462,
      "du": 463,
      "um": 464,
      "Ġclin": 465,
      "rit": 466,
      "xim": 467,
      "Ġmut": 468,
      "iated": 469,
      "atory": 470,
      "olog": 471,
      "Ġinvol": 472,
      "Ġsur": 473,
      "Ġexp": 474,
      "Ġsurv": 475,
      "ect": 476,
      "ival": 477,
      "ients": 478,
      "Ġimp": 479,
      "Ġhas": 480,
      "Ġprogress": 481,
      "Ġu": 482,
      "rom": 483,
      "Ġend": 484,
      "43": 485,
      "DP": 486,
      "),": 487,
      "Ġcomm": 488,
      "Ġsurvival": 489,
      "po": 490,
      "one": 491,
      "ized": 492,
      "ence": 493,
      "and": 494,
      "Ġr": 495,
      "Ġclinical": 496,
      "tr": 497,
      "onset": 498,
      "ies": 499,
      "NA": 500,
      "ĠN": 501,
      "ym": 502,
      "ĠTDP": 503,
      "cre": 504,
      "gener": 505,
      "ucle": 506,
      "poin": 507,
      "Ġen": 508,
      "Ġsh": 509,
      "ib": 510,
      "ure": 511,
      "ally": 512,
      "Ġstud": 513,
      "Ġwas": 514,
      "ak": 515,
      "Ġgene": 516,
      "gn": 517,
      "iagn": 518,
      "Ġmost": 519,
      "Ġpr": 520,
      "ately": 521,
      "ximately": 522,
      "Ġat": 523,
      "Ġfrom": 524,
      "sp": 525,
      "Ġsu": 526,
      "ye": 527,
      "peat": 528,
      "era": 529,
      "age": 530,
      "Ġprote": 531,
      "Ġle": 532,
      "ave": 533,
      "ved": 534,
      "Ġhave": 535,
      "vel": 536,
      "Ġpatients": 537,
      "ay": 538,
      "roph": 539,
      "Ġ5": 540,
      "Ġcaus": 541,
      "ath": 542,
      "ous": 543,
      "Ġ3": 544,
      "ases": 545,
      "Ġapproximately": 546,
      "ine": 547,
      "com": 548,
      "Ġcrit": 549,
      "ian": 550,
      "TD": 551,
      "inal": 552,
      "ism": 553,
      "Ġsym": 554,
      "ptom": 555,
      "Ġsymptom": 556,
      "cles": 557,
      "ult": 558,
      "ox": 559,
      "Ġph": 560,
      "Ġrepeat": 561,
      "Ġendpoin": 562,
      "bar": 563,
      "Ġdys": 564,
      "Ġdegener": 565,
      "Ġinclude": 566,
      "ults": 567,
      "ater": 568,
      "st": 569,
      "ular": 570,
      "ign": 571,
      "Ġshow": 572,
      "ĠI": 573,
      "Ġmon": 574,
      "Ġdiagn": 575,
      "act": 576,
      "Ġit": 577,
      "ree": 578,
      "Ġce": 579,
      "Ġman": 580,
      "Ġtrial": 581,
      "Ġcommon": 582,
      "Ġprim": 583,
      "ole": 584,
      "zole": 585,
      "eria": 586,
      "ilu": 587,
      "Ġcriteria": 588,
      "etic": 589,
      "ip": 590,
      "ark": 591,
      "chan": 592,
      "Ġmechan": 593,
      "Ġfunction": 594,
      "Ġye": 595,
      "ech": 596,
      "Ġmuscle": 597,
      "VC": 598,
      "ĠL": 599,
      "ulbar": 600,
      "iratory": 601,
      "unt": 602,
      "function": 603,
      "Ġass": 604,
      "Ġspe": 605,
      "Ġthera": 606,
      "Ġprotein": 607,
      "rophic": 608,
      "min": 609,
      "ced": 610,
      "erosis": 611,
      "clerosis": 612,
      "ateral": 613,
      "Ġpl": 614,
      "ident": 615,
      "bo": 616,
      "ffect": 617,
      "el": 618,
      "Ġac": 619,
      "oth": 620,
      "iluzole": 621,
      "ding": 622,
      "inding": 623,
      "ile": 624,
      "Ġover": 625,
      "Ġhe": 626,
      "Ġmy": 627,
      "ative": 628,
      "Ġmechanism": 629,
      "Ġcor": 630,
      "ociated": 631,
      "cept": 632,
      "Ġpath": 633,
      "Ġmod": 634,
      "ort": 635,
      "Ġmuscles": 636,
      "ĠIn": 637,
      "Ġpar": 638,
      "Ġdysfunction": 639,
      "co": 640,
      "Ġinit": 641,
      "ility": 642,
      "Ġyear": 643,
      "Ġexpans": 644,
      "ium": 645,
      "Ġper": 646,
      "Ġal": 647,
      "Ġwhen": 648,
      "my": 649,
      "otrophic": 650,
      "myotrophic": 651,
      "ks": 652,
      "ist": 653,
      "Ġdegeneration": 654,
      "Ġsign": 655,
      "Ġreg": 656,
      "Ġthan": 657,
      "ifi": 658,
      "Ġbeen": 659,
      "MN": 660,
      "Ġident": 661,
      "Ġmed": 662,
      "Ġext": 663,
      "ĠPh": 664,
      "Ġprogressive": 665,
      "RS": 666,
      "rug": 667,
      "Ġdrug": 668,
      "Ġ20": 669,
      "Ġprimary": 670,
      "idence": 671,
      "Ġevidence": 672,
      "Ġda": 673,
      "iff": 674,
      "atment": 675,
      "reatment": 676,
      "Ġcell": 677,
      "Ġchan": 678,
      "ke": 679,
      "Ġgenetic": 680,
      "ily": 681,
      "urs": 682,
      "Ġfam": 683,
      "Ġmutation": 684,
      "ists": 685,
      "Ġag": 686,
      "iom": 687,
      "iomark": 688,
      "Ġexc": 689,
      "72": 690,
      "orf": 691,
      "lut": 692,
      "Ġrecept": 693,
      "Ġcomp": 694,
      "lutam": 695,
      "Ġreceptor": 696,
      "Ġcontro": 697,
      "Ġun": 698,
      "Ġbra": 699,
      "Ġyears": 700,
      "Ġbrain": 701,
      "ugh": 702,
      "agement": 703,
      "ong": 704,
      "spiratory": 705,
      "untary": 706,
      "Ġtherap": 707,
      "Ġbulbar": 708,
      "Ġ10": 709,
      "iste": 710,
      "ased": 711,
      "ulation": 712,
      "Ġlos": 713,
      "very": 714,
      "Ġweak": 715,
      "Ġsymptoms": 716,
      "ministe": 717,
      "ministered": 718,
      "Ġdem": 719,
      "ĠRNA": 720,
      "ag": 721,
      "dit": 722,
      "Ġfol": 723,
      "Ġno": 724,
      "Ġlow": 725,
      "Ġtrans": 726,
      "Ġfollow": 727,
      "Ġra": 728,
      "Ġredu": 729,
      "ĠFVC": 730,
      "adic": 731,
      "ucleot": 732,
      "Ġ14": 733,
      "Ġdos": 734,
      "ofers": 735,
      "ths": 736,
      "Ġmonths": 737,
      "ofersen": 738,
      "ates": 739,
      "res": 740,
      "ified": 741,
      "Ġidentified": 742,
      "ĠG": 743,
      "Ġdevel": 744,
      "Ġdevelop": 745,
      "FRS": 746,
      "yp": 747,
      "ĠALSFRS": 748,
      "ace": 749,
      "Ġele": 750,
      "tem": 751,
      "Ġmutations": 752,
      "Ġus": 753,
      "est": 754,
      "ĠFTD": 755,
      "Ġfamil": 756,
      "med": 757,
      "ĠAd": 758,
      "igh": 759,
      "Ġexcit": 760,
      "Ġdeath": 761,
      "oxic": 762,
      "ond": 763,
      "Ġbiomark": 764,
      "Ġinvolv": 765,
      "athe": 766,
      "athec": 767,
      "ared": 768,
      "Ġonset": 769,
      "Ġpartic": 770,
      "Ġcompared": 771,
      "lutamate": 772,
      "af": 773,
      "ology": 774,
      "vation": 775,
      "Ġcan": 776,
      "Ġmanagement": 777,
      "onstr": 778,
      "Ġlead": 779,
      "Ġdemonstr": 780,
      "DA": 781,
      "ness": 782,
      "ou": 783,
      "arav": 784,
      "ĠEl": 785,
      "Ġwee": 786,
      "Ġloss": 787,
      "Ġweakness": 788,
      "aravone": 789,
      "ĠU": 790,
      "Ġincre": 791,
      "cic": 792,
      "ter": 793,
      "Ġcases": 794,
      "ascic": 795,
      "ulations": 796,
      "Ġvol": 797,
      "Ġinter": 798,
      "Ġstudy": 799,
      "de": 800,
      "val": 801,
      "vement": 802,
      "pper": 803,
      "ostic": 804,
      "troph": 805,
      "Ġadministered": 806,
      "ens": 807,
      "ific": 808,
      "Ġcause": 809,
      "ucleotide": 810,
      "Ġlower": 811,
      "ination": 812,
      "ALS": 813,
      "The": 814,
      "Ġ50": 815,
      "acebo": 816,
      "SC": 817,
      "Ġmedian": 818,
      "Ġdiff": 819,
      "Ġwhile": 820,
      "Ġtreatment": 821,
      "Ġnot": 822,
      "Ġfamilial": 823,
      "ike": 824,
      "lu": 825,
      "yt": 826,
      "erg": 827,
      "otoxic": 828,
      "otoxicity": 829,
      "ament": 830,
      "entil": 831,
      "Ġincluding": 832,
      "Ġendpoints": 833,
      "iqu": 834,
      "tud": 835,
      "Ġmult": 836,
      "ĠStud": 837,
      "ffic": 838,
      "Ġtech": 839,
      "Ġreceptors": 840,
      "Ġtechn": 841,
      "RNA": 842,
      "mation": 843,
      "ating": 844,
      "erve": 845,
      "rog": 846,
      "Ġdi": 847,
      "Ġspinal": 848,
      "Ġcord": 849,
      "Ġaffect": 850,
      "orm": 851,
      "Ġcal": 852,
      "Ġdener": 853,
      "Ġrespiratory": 854,
      "Ġinvolves": 855,
      "Ġdenervation": 856,
      "ĠD": 857,
      "ening": 858,
      "Ġnucle": 859,
      "Ġimpro": 860,
      "eng": 861,
      "ential": 862,
      "Ġres": 863,
      "Ġapproved": 864,
      "Ġassociated": 865,
      "Ġvoluntary": 866,
      "Ġact": 867,
      "Ġtw": 868,
      "ĠAM": 869,
      "able": 870,
      "Ġdiagnosis": 871,
      "ĠPhase": 872,
      "ec": 873,
      "all": 874,
      "ional": 875,
      "Ġwhe": 876,
      "Ġcondit": 877,
      "ability": 878,
      "Ġstudies": 879,
      "main": 880,
      "ĠO": 881,
      "erized": 882,
      "Ġsclerosis": 883,
      "aract": 884,
      "Ġremain": 885,
      "omized": 886,
      "Ġlateral": 887,
      "Ġcharact": 888,
      "Ġimpa": 889,
      "Ġupper": 890,
      "Ġexpansion": 891,
      "Ġcharacterized": 892,
      "Ġfascic": 893,
      "ĠFDA": 894,
      "ological": 895,
      "Ġits": 896,
      "Ġcells": 897,
      "ast": 898,
      "phag": 899,
      "ody": 900,
      "Ġendpoint": 901,
      "cor": 902,
      "Ġboth": 903,
      "ore": 904,
      "Ġmet": 905,
      "Ġco": 906,
      "Ġrequ": 907,
      "ant": 908,
      "ue": 909,
      "Ġfir": 910,
      "odium": 911,
      "Ġfirst": 912,
      "Ġdecl": 913,
      "Ġund": 914,
      "Ġdecline": 915,
      "Ġon": 916,
      "Ġphen": 917,
      "US": 918,
      "ry": 919,
      "ĠFUS": 920,
      "Ġlike": 921,
      "Ġcare": 922,
      "fL": 923,
      "fil": 924,
      "Ġear": 925,
      "Ġexcitotoxicity": 926,
      "filament": 927,
      "ife": 928,
      "ard": 929,
      "asm": 930,
      "Ġventil": 931,
      "cess": 932,
      "get": 933,
      "Ġmic": 934,
      "hes": 935,
      "arget": 936,
      "Ġem": 937,
      "athecally": 938,
      "argeting": 939,
      "SO": 940,
      "TX": 941,
      "ĠATX": 942,
      "imb": 943,
      "Ġmechanisms": 944,
      "ight": 945,
      "ĠATXN": 946,
      "port": 947,
      "Ġqu": 948,
      "ĠTofersen": 949,
      "old": 950,
      "Ġwithin": 951,
      "Ġstress": 952,
      "Ġbiomarker": 953,
      "ormal": 954,
      "loc": 955,
      "rial": 956,
      "acy": 957,
      "ible": 958,
      "Ġleads": 959,
      "fficacy": 960,
      "cc": 961,
      "Ġ4": 962,
      "usion": 963,
      "ety": 964,
      "Ġocc": 965,
      "Ġagg": 966,
      "Ġcontrol": 967,
      "afety": 968,
      "Ġcalc": 969,
      "fl": 970,
      "his": 971,
      "tis": 972,
      "infl": 973,
      "ense": 974,
      "Ġsc": 975,
      "Ġwor": 976,
      "ĠThis": 977,
      "iver": 978,
      "igon": 979,
      "ammation": 980,
      "Ġox": 981,
      "Ġtechnology": 982,
      "tisense": 983,
      "inflammation": 984,
      "ality": 985,
      "Ġcons": 986,
      "rough": 987,
      "ane": 988,
      "Ġevery": 989,
      "Ġthrough": 990,
      "Ġglutamate": 991,
      "Ġdiagnostic": 992,
      "ĠStudy": 993,
      "aj": 994,
      "daravone": 995,
      "ĠB": 996,
      "Ġpop": 997,
      "utrit": 998,
      "Ġintr": 999,
      "Ġrepeats": 1000,
      "ĠLateral": 1001,
      "cod": 1002,
      "fer": 1003,
      "lic": 1004,
      "ute": 1005,
      "ĠW": 1006,
      "Ġone": 1007,
      "Ġencod": 1008,
      "Ġweeks": 1009,
      "Ġnuclear": 1010,
      "Ġconditions": 1011,
      "bination": 1012,
      "per": 1013,
      "Ġpot": 1014,
      "ance": 1015,
      "Ġcombination": 1016,
      "Ġspeech": 1017,
      "Ġresults": 1018,
      "Ġpotential": 1019,
      "free": 1020,
      "vis": 1021,
      "Ġatroph": 1022,
      "ene": 1023,
      "Ġpress": 1024,
      "Ġdef": 1025,
      "Ġintra": 1026,
      "duction": 1027,
      "els": 1028,
      "Ġinitial": 1029,
      "Ġremains": 1030,
      "vised": 1031,
      "Ġpressure": 1032,
      "day": 1033,
      "its": 1034,
      "astic": 1035,
      "ome": 1036,
      "Ġextend": 1037,
      "Ġdays": 1038,
      "Ġtherapy": 1039,
      "Ġfollowed": 1040,
      "Ġmg": 1041,
      "oradic": 1042,
      "Ġfe": 1043,
      "ived": 1044,
      "Ġsporadic": 1045,
      "Ġriluzole": 1046,
      "MA": 1047,
      "mend": 1048,
      "itor": 1049,
      "Ġsodium": 1050,
      "Ġrecom": 1051,
      "osed": 1052,
      "Ġshowed": 1053,
      "mended": 1054,
      "Ġrecommended": 1055,
      "iP": 1056,
      "alu": 1057,
      "usions": 1058,
      "oxide": 1059,
      "scor": 1060,
      "ĠEscor": 1061,
      "Ġmeet": 1062,
      "lled": 1063,
      "abol": 1064,
      "Ġplacebo": 1065,
      "Ġdaily": 1066,
      "Ġmetabol": 1067,
      "ĠEscorial": 1068,
      "FTD": 1069,
      "oral": 1070,
      "Ġelect": 1071,
      "ap": 1072,
      "verse": 1073,
      "arian": 1074,
      "Ġvarian": 1075,
      "ling": 1076,
      "ĠAss": 1077,
      "ĠEx": 1078,
      "Ġcalcium": 1079,
      "SF": 1080,
      "ication": 1081,
      "unication": 1082,
      "Ġcommunication": 1083,
      "king": 1084,
      "pac": 1085,
      "Ġflu": 1086,
      "Ġcapac": 1087,
      "Ġchain": 1088,
      "Ġfluid": 1089,
      "Ġcapacity": 1090,
      "reb": 1091,
      "Ġstand": 1092,
      "Ġneurofilament": 1093,
      "Ġstandard": 1094,
      "och": 1095,
      "itoch": 1096,
      "ondrial": 1097,
      "Ġearly": 1098,
      "itochondrial": 1099,
      "cip": 1100,
      "lia": 1101,
      "iscip": 1102,
      "arch": 1103,
      "idiscip": 1104,
      "Ġlimb": 1105,
      "linary": 1106,
      "roglia": 1107,
      "Ġmicroglia": 1108,
      "idisciplinary": 1109,
      "lasm": 1110,
      "liver": 1111,
      "reg": 1112,
      "ale": 1113,
      "Ġcyt": 1114,
      "ĠASO": 1115,
      "Ġdeliver": 1116,
      "Ġlife": 1117,
      "rac": 1118,
      "quent": 1119,
      "oplasm": 1120,
      "spinal": 1121,
      "Ġsuch": 1122,
      "Ġinitiated": 1123,
      "Ġexpansions": 1124,
      "Ġtransport": 1125,
      "Ġquality": 1126,
      "Ġaggreg": 1127,
      "Ġcytoplasm": 1128,
      "Ġdelivery": 1129,
      "iate": 1130,
      "Ġtargeting": 1131,
      "Ġscre": 1132,
      "Ġpred": 1133,
      "Ġtheir": 1134,
      "idative": 1135,
      "Ġprocess": 1136,
      "Ġhyp": 1137,
      "igible": 1138,
      "Ġsupp": 1139,
      "Ġventilation": 1140,
      "Ġoxidative": 1141,
      "Ġintrathecally": 1142,
      "Ġscreening": 1143,
      "ired": 1144,
      "wal": 1145,
      "ins": 1146,
      "Ġmis": 1147,
      "Ġinf": 1148,
      "Ġswal": 1149,
      "ants": 1150,
      "own": 1151,
      "Ġform": 1152,
      "ysical": 1153,
      "Ġneuroinflammation": 1154,
      "lowing": 1155,
      "ipants": 1156,
      "ĠAdults": 1157,
      "Ġparticipants": 1158,
      "Ġtwit": 1159,
      "Ġimpaired": 1160,
      "Ġswallowing": 1161,
      "Radic": 1162,
      "biqu": 1163,
      "ces": 1164,
      "log": 1165,
      "me": 1166,
      "posed": 1167,
      "so": 1168,
      "Ġnerve": 1169,
      "Ġnormal": 1170,
      "Ġprov": 1171,
      "Ġproposed": 1172,
      "Ġgra": 1173,
      "Ġvit": 1174,
      "ogen": 1175,
      "lling": 1176,
      "Ġneurolog": 1177,
      "ava": 1178,
      "Ġubiqu": 1179,
      "trib": 1180,
      "Ġwast": 1181,
      "ularly": 1182,
      "other": 1183,
      "Ġpathogen": 1184,
      "Ġalso": 1185,
      "Ġcontrolling": 1186,
      "Ġdevelopment": 1187,
      "Ġparticularly": 1188,
      "Ġdemonstrated": 1189,
      "Ġaffected": 1190,
      "aneous": 1191,
      "Radicava": 1192,
      "Ġgradu": 1193,
      "Ġubiquit": 1194,
      "Amyotrophic": 1195,
      "ovement": 1196,
      "ron": 1197,
      "Ġed": 1198,
      "atic": 1199,
      "ĠmRNA": 1200,
      "Ġmovement": 1201,
      "Ġslow": 1202,
      "asure": 1203,
      "cell": 1204,
      "Ġconf": 1205,
      "Ġmeasure": 1206,
      "Ġsignal": 1207,
      "onger": 1208,
      "phagia": 1209,
      "igonucleotide": 1210,
      "cellular": 1211,
      "dical": 1212,
      "iod": 1213,
      "mp": 1214,
      "nosis": 1215,
      "ub": 1216,
      "ually": 1217,
      "ving": 1218,
      "way": 1219,
      "Ġmay": 1220,
      "Ġpos": 1221,
      "ich": 1222,
      "ĠAmyotrophic": 1223,
      "ĠSclerosis": 1224,
      "ĠEdaravone": 1225,
      "Ġwhich": 1226,
      "Ġprognosis": 1227,
      "Ġacco": 1228,
      "Ġmodels": 1229,
      "Ġperiod": 1230,
      "Ġ201": 1231,
      "Ġradical": 1232,
      "ondary": 1233,
      "ound": 1234,
      "Ġincreased": 1235,
      "econdary": 1236,
      "Ġunder": 1237,
      "Ġposit": 1238,
      "waj": 1239,
      "Ġol": 1240,
      "erc": 1241,
      "ass": 1242,
      "ĠAwaj": 1243,
      "Ġbody": 1244,
      "Ġdisco": 1245,
      "Ġantisense": 1246,
      "Ġprogression": 1247,
      "come": 1248,
      "Ġproteins": 1249,
      "Ġregions": 1250,
      "Ġdiet": 1251,
      "ength": 1252,
      "ĠWh": 1253,
      "ĠAwaji": 1254,
      "Ġdiscovery": 1255,
      "pend": 1256,
      "ven": 1257,
      "vated": 1258,
      "Ġk": 1259,
      "astro": 1260,
      "Ġfinding": 1261,
      "Ġbut": 1262,
      "omy": 1263,
      "Ġgastro": 1264,
      "Ġmeans": 1265,
      "Ġwho": 1266,
      "Ġdiseases": 1267,
      "Ġapproval": 1268,
      "Ġneurop": 1269,
      "Ġimplic": 1270,
      "Ġmonitor": 1271,
      "Ġ100": 1272,
      "Ġelevated": 1273,
      "ĠUMN": 1274,
      "depend": 1275,
      "Ġfasciculations": 1276,
      "asticity": 1277,
      "venous": 1278,
      "Ġmonitoring": 1279,
      "dependent": 1280,
      "nect": 1281,
      "pres": 1282,
      "ru": 1283,
      "rum": 1284,
      "ontro": 1285,
      "isk": 1286,
      "Ġse": 1287,
      "Ġrevised": 1288,
      "Ġrepres": 1289,
      "ctrum": 1290,
      "Ġevalu": 1291,
      "andomized": 1292,
      "Ġrisk": 1293,
      "Ġassess": 1294,
      "Ġspectrum": 1295,
      "Ġsigns": 1296,
      "Ġdoses": 1297,
      "Ġatrophy": 1298,
      "Ġextends": 1299,
      "ontrolled": 1300,
      "Ġevaluates": 1301,
      "99": 1302,
      "Ġfat": 1303,
      "iring": 1304,
      "Ġ199": 1305,
      "Ġtrials": 1306,
      "Ġregion": 1307,
      "Ġrequiring": 1308,
      "der": 1309,
      "hib": 1310,
      "xan": 1311,
      "ĠH": 1312,
      "atients": 1313,
      "Ġbinding": 1314,
      "ĠThese": 1315,
      "Ġcont": 1316,
      "ysi": 1317,
      "ĠPatients": 1318,
      "Ġinclusions": 1319,
      "Ġevents": 1320,
      "Ġinvolved": 1321,
      "Ġsuper": 1322,
      "Ġhexan": 1323,
      "Ġextens": 1324,
      "Ġ202": 1325,
      "iPSC": 1326,
      "derived": 1327,
      "Ġsuperoxide": 1328,
      "Ġhexanucleotide": 1329,
      "een": 1330,
      "ween": 1331,
      "Ġbet": 1332,
      "thr": 1333,
      "Ġbetween": 1334,
      "aus": 1335,
      "ail": 1336,
      "binding": 1337,
      "Ġeffect": 1338,
      "ically": 1339,
      "ĠRiluzole": 1340,
      "ause": 1341,
      "00": 1342,
      "35": 1343,
      "aur": 1344,
      "but": 1345,
      "cific": 1346,
      "iol": 1347,
      "lbut": 1348,
      "rate": 1349,
      "spe": 1350,
      "ylbut": 1351,
      "yrate": 1352,
      "Ġsome": 1353,
      "Ġthree": 1354,
      "odiol": 1355,
      "ursodiol": 1356,
      "ĠAMX": 1357,
      "Ġphenot": 1358,
      "0035": 1359,
      "aurursodiol": 1360,
      "specific": 1361,
      "ylbutyrate": 1362,
      "Ġop": 1363,
      "Ġadverse": 1364,
      "Ġaut": 1365,
      "Ġtofersen": 1366,
      "icult": 1367,
      "ose": 1368,
      "Ġlin": 1369,
      "Ġdifficult": 1370,
      "ple": 1371,
      "hed": 1372,
      "ice": 1373,
      "ther": 1374,
      "Ġvariants": 1375,
      "lp": 1376,
      "Ġhelp": 1377,
      "Ġchang": 1378,
      "rying": 1379,
      "Ġdec": 1380,
      "ologists": 1381,
      "Ġtherapists": 1382,
      "PA": 1383,
      "Ġmitochondrial": 1384,
      "ĠCSF": 1385,
      "ĠNfL": 1386,
      "Ġchange": 1387,
      "ĠEligible": 1388,
      "ĠAMPA": 1389,
      "ĠAssociated": 1390,
      "ĠExp": 1391,
      "AA": 1392,
      "NfL": 1393,
      "rospinal": 1394,
      "Ġpre": 1395,
      "Ġrese": 1396,
      "Ġlight": 1397,
      "Ġincludes": 1398,
      "Ġlevel": 1399,
      "Ġphysical": 1400,
      "Ġcereb": 1401,
      "Ġmodific": 1402,
      "Ġresearch": 1403,
      "Ġlevels": 1404,
      "Ġcerebrospinal": 1405,
      "75": 1406,
      "cial": 1407,
      "gu": 1408,
      "mac": 1409,
      "oly": 1410,
      "up": 1411,
      "Ġ8": 1412,
      "Ġpoly": 1413,
      "armac": 1414,
      "angu": 1415,
      "Ġatt": 1416,
      "Ġpharmac": 1417,
      "bout": 1418,
      "ĠIntr": 1419,
      "erging": 1420,
      "Ġprocessing": 1421,
      "Ġvital": 1422,
      "anguage": 1423,
      "PE": 1424,
      "RI": 1425,
      "cent": 1426,
      "lo": 1427,
      "lated": 1428,
      "ner": 1429,
      "Ġab": 1430,
      "ities": 1431,
      "Ġsco": 1432,
      "ĠAn": 1433,
      "osph": 1434,
      "clud": 1435,
      "Ġexclud": 1436,
      "sequent": 1437,
      "orylated": 1438,
      "ĠMotor": 1439,
      "Ġsub": 1440,
      "iple": 1441,
      "Ġcorre": 1442,
      "Ġfollowing": 1443,
      "Ġmultiple": 1444,
      "Ġconfir": 1445,
      "osphorylated": 1446,
      "NI": 1447,
      "ax": 1448,
      "cyt": 1449,
      "les": 1450,
      "xon": 1451,
      "inated": 1452,
      "aliz": 1453,
      "asis": 1454,
      "Ġfra": 1455,
      "Ġfound": 1456,
      "Ġnutrit": 1457,
      "urse": 1458,
      "Ġtox": 1459,
      "raph": 1460,
      "Ġarea": 1461,
      "Ġastro": 1462,
      "ostasis": 1463,
      "ograph": 1464,
      "Ġintera": 1465,
      "ĠMut": 1466,
      "Ġatax": 1467,
      "Ġproteostasis": 1468,
      "Ġreduced": 1469,
      "mediated": 1470,
      "mediate": 1471,
      "Ġcourse": 1472,
      "localiz": 1473,
      "ĠASOs": 1474,
      "Ġaggregation": 1475,
      "Ġcytoplasmic": 1476,
      "Ġmislocaliz": 1477,
      "Ġubiquitinated": 1478,
      "cytes": 1479,
      "xonal": 1480,
      "Ġastrocytes": 1481,
      "ography": 1482,
      "Ġinteraction": 1483,
      "ches": 1484,
      "euro": 1485,
      "mon": 1486,
      "Ġro": 1487,
      "erability": 1488,
      "ict": 1489,
      "Ġefficacy": 1490,
      "tect": 1491,
      "olerability": 1492,
      "idine": 1493,
      "Ġless": 1494,
      "ĠSafety": 1495,
      "ĠSub": 1496,
      "Ġ18": 1497,
      "ysphagia": 1498,
      "ĠEval": 1499,
      "ĠEfficacy": 1500,
      "Ġmust": 1501,
      "Ġinvoluntary": 1502,
      "Ġexpress": 1503,
      "ects": 1504,
      "Ġclinically": 1505,
      "ĠNeuro": 1506,
      "Ġused": 1507,
      "Ġinterfer": 1508,
      "Ġwhere": 1509,
      "Ġpopulation": 1510,
      "Ġpredict": 1511,
      "Ġsupport": 1512,
      "Ġtwitches": 1513,
      "Ġpathogenic": 1514,
      "ĠEvalu": 1515,
      "Ġinterference": 1516,
      "'s": 1517,
      "BA": 1518,
      "Re": 1519,
      "Res": 1520,
      "appro": 1521,
      "gins": 1522,
      "hment": 1523,
      "nown": 1524,
      "ough": 1525,
      "stem": 1526,
      "ument": 1527,
      "Ġ9": 1528,
      "Ġke": 1529,
      "Ġaway": 1530,
      "ishment": 1531,
      "rop": 1532,
      "Ġdoc": 1533,
      "Ġsafety": 1534,
      "Ġfree": 1535,
      "Ġbloc": 1536,
      "lect": 1537,
      "urishment": 1538,
      "Ġthough": 1539,
      "ĠSecondary": 1540,
      "Ġconduction": 1541,
      "Ġbegins": 1542,
      "aveng": 1543,
      "Ġclinic": 1544,
      "Ġprogresses": 1545,
      "Ġenab": 1546,
      "Ġshows": 1547,
      "Ġbrainstem": 1548,
      "Ġnourishment": 1549,
      "Ġdose": 1550,
      "Ġbiomarkers": 1551,
      "Ġdemonstrating": 1552,
      "Ġmultidisciplinary": 1553,
      "Ġscaveng": 1554,
      "Ġencoding": 1555,
      "Ġwasting": 1556,
      "Ġgradual": 1557,
      "Ġ2017": 1558,
      "Ġknown": 1559,
      "approved": 1560,
      "umented": 1561,
      "Ġkey": 1562,
      "Ġdocumented": 1563,
      "Ġblock": 1564,
      "Ġscavenger": 1565,
      ").": 1566,
      "BP": 1567,
      "SP": 1568,
      "cop": 1569,
      "ie": 1570,
      "oad": 1571,
      "piratory": 1572,
      "vas": 1573,
      "inant": 1574,
      "invas": 1575,
      "ature": 1576,
      "Ġtim": 1577,
      "Ġtrac": 1578,
      "eds": 1579,
      "Ġinspiratory": 1580,
      "ndomized": 1581,
      "Ġfail": 1582,
      "ominant": 1583,
      "oscop": 1584,
      "Ġdecre": 1585,
      "utaneous": 1586,
      "Ġload": 1587,
      "Ġcontrib": 1588,
      "Ġbelow": 1589,
      "Ġ28": 1590,
      "Ġneurode": 1591,
      "Ġweight": 1592,
      "Ġadults": 1593,
      "Ġaddit": 1594,
      "Ġendoscop": 1595,
      "ĠNon": 1596,
      "generative": 1597,
      "Ġcaused": 1598,
      "stomy": 1599,
      "Ġshown": 1600,
      "active": 1601,
      "Ġrandomized": 1602,
      "afe": 1603,
      "Ġweek": 1604,
      "Ġactiv": 1605,
      "Ġfeature": 1606,
      "Ġsignaling": 1607,
      "Ġgastrostomy": 1608,
      "invasive": 1609,
      "Ġfailure": 1610,
      "Ġdecreased": 1611,
      "Ġloading": 1612,
      "Ġcontribute": 1613,
      "Ġneurodegenerative": 1614,
      "Ġadditional": 1615,
      "Ġendoscopic": 1616,
      "10": 1617,
      "Blin": 1618,
      "Controlled": 1619,
      "ble": 1620,
      "lacebo": 1621,
      "ycles": 1622,
      "Ġother": 1623,
      "Ġmim": 1624,
      "iss": 1625,
      "Ġcycles": 1626,
      "Ġpres": 1627,
      "Ġben": 1628,
      "entually": 1629,
      "ĠTreatment": 1630,
      "lying": 1631,
      "utcome": 1632,
      "Ġlonger": 1633,
      "Ġprom": 1634,
      "ĠSc": 1635,
      "Ġoutcome": 1636,
      "Ġ24": 1637,
      "ĠPlacebo": 1638,
      "Ġneurotroph": 1639,
      "ĠRandomized": 1640,
      "Ġinvolvement": 1641,
      "Ġshowing": 1642,
      "Ġfunctional": 1643,
      "ĠLMN": 1644,
      "ouble": 1645,
      "ĠDouble": 1646,
      "Ġconsist": 1647,
      "Ġintravenous": 1648,
      "Ġedaravone": 1649,
      "Ġaccount": 1650,
      "Ġunderlying": 1651,
      "Blind": 1652,
      "Ġmimic": 1653,
      "Ġpresence": 1654,
      ")-": 1655,
      "Riluzole": 1656,
      "ection": 1657,
      "emp": 1658,
      "ien": 1659,
      "jection": 1660,
      "mit": 1661,
      "mark": 1662,
      "out": 1663,
      "tot": 1664,
      "ype": 1665,
      "ĠiPSC": 1666,
      "Ġamin": 1667,
      "Ġamyotrophic": 1668,
      "Ġinhib": 1669,
      "Ġinjection": 1670,
      "itiv": 1671,
      "Ġsens": 1672,
      "arge": 1673,
      "lease": 1674,
      "Ġref": 1675,
      "Ġrelease": 1676,
      "Ġdement": 1677,
      "ution": 1678,
      "utic": 1679,
      "Ġlarge": 1680,
      "Ġgr": 1681,
      "peutic": 1682,
      "igated": 1683,
      "Ġ12": 1684,
      "Ġinvest": 1685,
      "Ġ30": 1686,
      "Ġtherapeutic": 1687,
      "Ġacid": 1688,
      "Ġchann": 1689,
      "Ġtransmit": 1690,
      "Ġexcitatory": 1691,
      "athecal": 1692,
      "Ġimproving": 1693,
      "Ġfasciculation": 1694,
      "Ġpopulations": 1695,
      "Ġpotentials": 1696,
      "Ġintracellular": 1697,
      "Ġprovide": 1698,
      "rontot": 1699,
      "ĠWhile": 1700,
      "Ġneuropath": 1701,
      "Ġimplications": 1702,
      "Ġ1993": 1703,
      "emporal": 1704,
      "Ġamino": 1705,
      "itivity": 1706,
      "Ġsensitivity": 1707,
      "Ġdementia": 1708,
      "Ġinvestigated": 1709,
      "Ġtransmitter": 1710,
      "rontotemporal": 1711,
      "GG": 1712,
      "ays": 1713,
      "cular": 1714,
      "eh": 1715,
      "gs": 1716,
      "ler": 1717,
      "nal": 1718,
      "zin": 1719,
      "Ġar": 1720,
      "alor": 1721,
      "alys": 1722,
      "ede": 1723,
      "ition": 1724,
      "Ġdid": 1725,
      "Ġpers": 1726,
      "arthr": 1727,
      "asing": 1728,
      "Ġthese": 1729,
      "ctur": 1730,
      "olated": 1731,
      "Ġisolated": 1732,
      "Ġthose": 1733,
      "celer": 1734,
      "Ġhy": 1735,
      "Ġconnect": 1736,
      "ĠPLS": 1737,
      "ĠPMA": 1738,
      "Ġmuscular": 1739,
      "aking": 1740,
      "Ġlegs": 1741,
      "activ": 1742,
      "Ġacceler": 1743,
      "Ġalle": 1744,
      "Ġgenetics": 1745,
      "Ġnoctur": 1746,
      "Ġreduces": 1747,
      "Ġincreasing": 1748,
      "rogen": 1749,
      "Ġoccurs": 1750,
      "Ġworse": 1751,
      "Ġpositive": 1752,
      "Ġoligonucleotide": 1753,
      "Ġdiets": 1754,
      "Ġcontain": 1755,
      "alysis": 1756,
      "Ġperson": 1757,
      "arthria": 1758,
      "Ġaccelerated": 1759,
      "Ġnocturnal": 1760,
      "axim": 1761,
      "ire": 1762,
      "mut": 1763,
      "Ġ6": 1764,
      "Ġtaurursodiol": 1765,
      "Ġmaxim": 1766,
      "ished": 1767,
      "Ġdur": 1768,
      "ided": 1769,
      "Ġproduction": 1770,
      "Ġdisru": 1771,
      "Ġdismut": 1772,
      "Ġspasticity": 1773,
      "point": 1774,
      "Ġcauses": 1775,
      "Ġrequire": 1776,
      "Ġphenylbutyrate": 1777,
      "Ġinitially": 1778,
      "Ġmetabolism": 1779,
      "ĠHe": 1780,
      "Ġextension": 1781,
      "Ġdisrupt": 1782,
      "Ġdismutase": 1783,
      "diagn": 1784,
      "gia": 1785,
      "und": 1786,
      "inases": 1787,
      "enia": 1788,
      "als": 1789,
      "rodiagn": 1790,
      "arily": 1791,
      "Ġexam": 1792,
      "aminases": 1793,
      "Ġasth": 1794,
      "Ġvia": 1795,
      "ands": 1796,
      "rophysi": 1797,
      "Ġprimarily": 1798,
      "Ġheav": 1799,
      "Ġtransaminases": 1800,
      "Ġreduce": 1801,
      "Ġuses": 1802,
      "Ġfew": 1803,
      "Ġelectrodiagn": 1804,
      "Ġelectrophysi": 1805,
      "Ġrepresent": 1806,
      "Ġeffects": 1807,
      "Ġphenotyp": 1808,
      "Ġexamination": 1809,
      "Ġasthenia": 1810,
      "Ġelectrodiagnostic": 1811,
      "Ġelectrophysiological": 1812,
      "fore": 1813,
      "oun": 1814,
      "init": 1815,
      "Ġbene": 1816,
      "Ġnause": 1817,
      "irment": 1818,
      "Ġorally": 1819,
      "Ġbefore": 1820,
      "ĠRes": 1821,
      "Ġdiffer": 1822,
      "Ġimpairment": 1823,
      "Ġdefinit": 1824,
      "Ġopen": 1825,
      "Ġbenef": 1826,
      "Ġnausea": 1827,
      "Ġdefinite": 1828,
      "fter": 1829,
      "ioral": 1830,
      "ophag": 1831,
      "Ġafter": 1832,
      "Ġtyp": 1833,
      "Ġmain": 1834,
      "Ġstem": 1835,
      "Ġpain": 1836,
      "enter": 1837,
      "ultic": 1838,
      "avioral": 1839,
      "Ġexper": 1840,
      "Ġrate": 1841,
      "SCs": 1842,
      "Ġautophag": 1843,
      "Ġtypically": 1844,
      "Ġmaint": 1845,
      "ulticenter": 1846,
      "Ġautophagy": 1847,
      "TA": 1848,
      "ked": 1849,
      "ĠK": 1850,
      "Ġsam": 1851,
      "Ġdeveloping": 1852,
      "Ġwhether": 1853,
      "Ġsame": 1854,
      "etr": 1855,
      "oes": 1856,
      "tand": 1857,
      "Ġdoes": 1858,
      "Ġfac": 1859,
      "unse": 1860,
      "Ġhad": 1861,
      "erstand": 1862,
      "ather": 1863,
      "esting": 1864,
      "Ġcounse": 1865,
      "Ġunderstand": 1866,
      "Ġhelped": 1867,
      "Ġchanged": 1868,
      "Ġcounseling": 1869,
      "Ġcar": 1870,
      "Ġmany": 1871,
      "Ġcarrying": 1872,
      "Mult": 1873,
      "air": 1874,
      "cus": 1875,
      "iative": 1876,
      "kers": 1877,
      "life": 1878,
      "language": 1879,
      "ning": 1880,
      "native": 1881,
      "oul": 1882,
      "sions": 1883,
      "trac": 1884,
      "vic": 1885,
      "vir": 1886,
      "vance": 1887,
      "Ġaug": 1888,
      "Ġabout": 1889,
      "onment": 1890,
      "ences": 1891,
      "ionists": 1892,
      "Ġsoc": 1893,
      "Ġpul": 1894,
      "Ġpall": 1895,
      "anning": 1896,
      "ational": 1897,
      "endance": 1898,
      "Ġdevic": 1899,
      "Ġlost": 1900,
      "mentative": 1901,
      "Ġgold": 1902,
      "Ġhome": 1903,
      "chair": 1904,
      "Ġdiscus": 1905,
      "Ġmotorized": 1906,
      "ĠEye": 1907,
      "idered": 1908,
      "Ġenvir": 1909,
      "Ġshoul": 1910,
      "Ġspecial": 1911,
      "Ġplanning": 1912,
      "elchair": 1913,
      "Ġpathologists": 1914,
      "Ġalter": 1915,
      "istive": 1916,
      "ĠAdvance": 1917,
      "Ġinvolving": 1918,
      "ĠStudies": 1919,
      "Ġimproved": 1920,
      "Ġwheelchair": 1921,
      "Ġventilatory": 1922,
      "Ġoccup": 1923,
      "Ġworkers": 1924,
      "Ġconsidered": 1925,
      "ferences": 1926,
      "ĠAssistive": 1927,
      "Ġneurologists": 1928,
      "AAC": 1929,
      "Ġpreferences": 1930,
      "Ġmodifications": 1931,
      "Ġattendance": 1932,
      "Ġnutritionists": 1933,
      "monologists": 1934,
      "Ġenables": 1935,
      "Multidisciplinary": 1936,
      "tracking": 1937,
      "Ġaugmentative": 1938,
      "onmental": 1939,
      "Ġsocial": 1940,
      "Ġpulmonologists": 1941,
      "Ġpalliative": 1942,
      "Ġdevices": 1943,
      "Ġdiscussions": 1944,
      "Ġenvironmental": 1945,
      "Ġshould": 1946,
      "Ġspecialists": 1947,
      "Ġalternative": 1948,
      "Ġwheelchairs": 1949,
      "Ġoccupational": 1950,
      "07": 1951,
      "GP": 1952,
      "Glutamate": 1953,
      "IB": 1954,
      "IIB": 1955,
      "MDA": 1956,
      "SVC": 1957,
      "bu": 1958,
      "cend": 1959,
      "epeat": 1960,
      "ior": 1961,
      "kin": 1962,
      "lor": 1963,
      "lies": 1964,
      "ligonucleotide": 1965,
      "man": 1966,
      "normal": 1967,
      "okin": 1968,
      "ration": 1969,
      "rim": 1970,
      "Ġold": 1971,
      "Ġaxonal": 1972,
      "Ġtot": 1973,
      "Ġtolerability": 1974,
      "ering": 1975,
      "aled": 1976,
      "Ġdue": 1977,
      "Ġbase": 1978,
      "othes": 1979,
      "ĠTargeting": 1980,
      "Ġreve": 1981,
      "Ġreactive": 1982,
      "ationale": 1983,
      "ulner": 1984,
      "imen": 1985,
      "Ġlac": 1986,
      "unit": 1987,
      "Ġhigh": 1988,
      "pept": 1989,
      "Ġconcent": 1990,
      "Ġascend": 1991,
      "Ġvulner": 1992,
      "line": 1993,
      "ĠPrim": 1994,
      "ansion": 1995,
      "ĠRepeat": 1996,
      "ffering": 1997,
      "Ġrationale": 1998,
      "ĠNMDA": 1999,
      "Ġprior": 2000,
      "Ġ36": 2001,
      "etics": 2002,
      "Ġassist": 2003,
      "Ġplasm": 2004,
      "Ġperman": 2005,
      "Ġregimen": 2006,
      "Ġmediated": 2007,
      "Ġaged": 2008,
      "ĠGlu": 2009,
      "ĠAdministered": 2010,
      "lux": 2011,
      "Ġdipept": 2012,
      "ĠOligonucleotide": 2013,
      "Ġearlies": 2014,
      "cessive": 2015,
      "ĠBIIB": 2016,
      "perme": 2017,
      "Ġdefects": 2018,
      "ĠExcessive": 2019,
      "Ġhypothes": 2020,
      "Ġinflux": 2021,
      "Ġprovided": 2022,
      "ĠExplor": 2023,
      "ĠExpansion": 2024,
      "Ġpharmacokin": 2025,
      "ĠIntrathecally": 2026,
      "Ġabnormal": 2027,
      "Ġscore": 2028,
      "ĠAntisense": 2029,
      "Ġexcludes": 2030,
      "Ġsubunit": 2031,
      "Ġconfirmed": 2032,
      "ĠMutation": 2033,
      "ĠSubsequent": 2034,
      "Ġexpression": 2035,
      "Ġpredicted": 2036,
      "ĠEvaluate": 2037,
      "Ġtime": 2038,
      "078": 2039,
      "buffering": 2040,
      "Ġolder": 2041,
      "Ġtotal": 2042,
      "Ġbaseline": 2043,
      "Ġrevealed": 2044,
      "Ġlacking": 2045,
      "Ġconcentration": 2046,
      "Ġascending": 2047,
      "Ġvulnerable": 2048,
      "ĠPrimary": 2049,
      "Ġassisted": 2050,
      "Ġplasma": 2051,
      "Ġpermanent": 2052,
      "ĠGluR": 2053,
      "Ġdipeptide": 2054,
      "Ġearliest": 2055,
      "permeable": 2056,
      "Ġhypothesis": 2057,
      "ĠExploratory": 2058,
      "Ġpharmacokinetics": 2059,
      "Ġabnormalities": 2060,
      "Biomark": 2061,
      "CD": 2062,
      "CSF": 2063,
      "DT": 2064,
      "ECD": 2065,
      "Nf": 2066,
      "based": 2067,
      "lating": 2068,
      "merging": 2069,
      "pinal": 2070,
      "pNf": 2071,
      "rin": 2072,
      "Ġut": 2073,
      "Ġtom": 2074,
      "Ġtra": 2075,
      "Ġtens": 2076,
      "ising": 2077,
      "isot": 2078,
      "Ġdom": 2079,
      "Ġblo": 2080,
      "ospinal": 2081,
      "Ġdetect": 2082,
      "racellular": 2083,
      "ctional": 2084,
      "ivo": 2085,
      "ĠEmerging": 2086,
      "Ġvivo": 2087,
      "Ġanother": 2088,
      "Ġanisot": 2089,
      "ĠMRI": 2090,
      "ticospinal": 2091,
      "Ġimag": 2092,
      "Ġcorticospinal": 2093,
      "Ġextracellular": 2094,
      "ĠPhosphorylated": 2095,
      "ĠUrin": 2096,
      "Ġdiffusion": 2097,
      "iques": 2098,
      "Ġtechniques": 2099,
      "Ġactive": 2100,
      "Ġemerging": 2101,
      "Ġemiss": 2102,
      "Ġpositron": 2103,
      "PET": 2104,
      "Ġcorrelating": 2105,
      "Ġfractional": 2106,
      "ĠNeurofilament": 2107,
      "ropy": 2108,
      "Ġtracers": 2109,
      "Ġpromising": 2110,
      "Ġneurotrophin": 2111,
      "Ġheavy": 2112,
      "Biomarkers": 2113,
      "DTI": 2114,
      "pNfH": 2115,
      "Ġutility": 2116,
      "Ġtomography": 2117,
      "Ġtract": 2118,
      "Ġtensor": 2119,
      "Ġdomain": 2120,
      "Ġblood": 2121,
      "Ġanisotropy": 2122,
      "Ġimaging": 2123,
      "ĠUrinary": 2124,
      "Ġemission": 2125,
      "23": 2126,
      "27": 2127,
      "33": 2128,
      "34": 2129,
      "AL": 2130,
      "AR": 2131,
      "AV": 2132,
      "ASO": 2133,
      "Cas": 2134,
      "DBP": 2135,
      "FVC": 2136,
      "Gene": 2137,
      "OR": 2138,
      "Sp": 2139,
      "SNI": 2140,
      "TDP": 2141,
      "VAL": 2142,
      "acl": 2143,
      "cy": 2144,
      "cutaneous": 2145,
      "ell": 2146,
      "equ": 2147,
      "fle": 2148,
      "frontotemporal": 2149,
      "gm": 2150,
      "glutam": 2151,
      "han": 2152,
      "hol": 2153,
      "ki": 2154,
      "lon": 2155,
      "lene": 2156,
      "length": 2157,
      "niff": 2158,
      "oce": 2159,
      "rhe": 2160,
      "rent": 2161,
      "su": 2162,
      "safe": 2163,
      "tch": 2164,
      "taneous": 2165,
      "ule": 2166,
      "ves": 2167,
      "xia": 2168,
      "ying": 2169,
      "Ġess": 2170,
      "Ġvel": 2171,
      "ĠVAL": 2172,
      "inum": 2173,
      "inerg": 2174,
      "inoce": 2175,
      "Ġach": 2176,
      "onent": 2177,
      "ontaneous": 2178,
      "eno": 2179,
      "enge": 2180,
      "Ġtiz": 2181,
      "Ġtone": 2182,
      "Ġtype": 2183,
      "ream": 2184,
      "refle": 2185,
      "retch": 2186,
      "errefle": 2187,
      "Ġmaj": 2188,
      "orts": 2189,
      "orced": 2190,
      "orrhe": 2191,
      "ises": 2192,
      "Ġcur": 2193,
      "Ġcra": 2194,
      "Ġcry": 2195,
      "Ġclon": 2196,
      "Ġinst": 2197,
      "Ġinsu": 2198,
      "iting": 2199,
      "roRNA": 2200,
      "Ġdan": 2201,
      "Ġdown": 2202,
      "ofen": 2203,
      "Ġsus": 2204,
      "Ġsniff": 2205,
      "Ġpac": 2206,
      "ications": 2207,
      "nder": 2208,
      "ests": 2209,
      "asal": 2210,
      "ĠAAV": 2211,
      "Ġbot": 2212,
      "Ġbacl": 2213,
      "anagement": 2214,
      "anidine": 2215,
      "anule": 2216,
      "Ġnasal": 2217,
      "ĠTAR": 2218,
      "cting": 2219,
      "uscle": 2220,
      "ulinum": 2221,
      "imal": 2222,
      "Ġ(>": 2223,
      "ides": 2224,
      "ĠThey": 2225,
      "ceeds": 2226,
      "iaph": 2227,
      "Ġgain": 2228,
      "ĠSial": 2229,
      "ragm": 2230,
      "Ġdistrib": 2231,
      "Ġformation": 2232,
      "ifying": 2233,
      "ifests": 2234,
      "Ġexon": 2235,
      "Ġexerc": 2236,
      "Ġexceeds": 2237,
      "irus": 2238,
      "ĠFascic": 2239,
      "ĠForced": 2240,
      "Ġstability": 2241,
      "Ġstretch": 2242,
      "ptic": 2243,
      "Ġbecom": 2244,
      "Ġvirus": 2245,
      "Ġ22": 2246,
      "trolene": 2247,
      "Ġinclusion": 2248,
      "Ġapproac": 2249,
      "ainst": 2250,
      "ocity": 2251,
      "Ġantic": 2252,
      "Ġanimal": 2253,
      "abins": 2254,
      "Ġchall": 2255,
      "ĠCRI": 2256,
      "ĠRec": 2257,
      "Ġsplic": 2258,
      "Ġspinoce": 2259,
      "Ġspontaneous": 2260,
      "Ġadequ": 2261,
      "Ġadeno": 2262,
      "Ġevident": 2263,
      "ĠManagement": 2264,
      "ĠMuscle": 2265,
      "Ġexplo": 2266,
      "Ġenhan": 2267,
      "ibility": 2268,
      "Ġsymptomatic": 2269,
      "Ġphosphorylated": 2270,
      "stream": 2271,
      "ignly": 2272,
      "Ġmanag": 2273,
      "Ġmanifests": 2274,
      "Ġcommonly": 2275,
      "Ġyeast": 2276,
      "ĠLonger": 2277,
      "cede": 2278,
      "ceptibility": 2279,
      "Ġpathology": 2280,
      "Ġpathological": 2281,
      "Ġmodifi": 2282,
      "ĠInter": 2283,
      "Ġpercutaneous": 2284,
      "Ġmedications": 2285,
      "Ġagents": 2286,
      "Ġagainst": 2287,
      "Ġcomponent": 2288,
      "Ġunit": 2289,
      "Ġuniqu": 2290,
      "Ġunsafe": 2291,
      "Ġunifying": 2292,
      "Ġreduction": 2293,
      "ucleotides": 2294,
      "Ġdevelops": 2295,
      "ĠUnder": 2296,
      "Ġincrease": 2297,
      "Ġintermediate": 2298,
      "SCA": 2299,
      "erged": 2300,
      "fficien": 2301,
      "RNAi": 2302,
      "ĠDysphagia": 2303,
      "ĠDiaph": 2304,
      "Ġnucleus": 2305,
      "Ġimproves": 2306,
      "Ġresult": 2307,
      "ĠmicroRNA": 2308,
      "Ġemerged": 2309,
      "Ġoccur": 2310,
      "Ġcontrols": 2311,
      "igonucleotides": 2312,
      "Ġthroughout": 2313,
      "ĠBabins": 2314,
      "Ġencoded": 2315,
      "rebell": 2316,
      "Ġaggregates": 2317,
      "Ġpredominant": 2318,
      "Ġhyperrefle": 2319,
      "Ġsupports": 2320,
      "Ġforms": 2321,
      "Ġediting": 2322,
      "Ġmeasures": 2323,
      "mps": 2324,
      "Ġoligonucleotides": 2325,
      "associated": 2326,
      "Ġdietary": 2327,
      "Ġrepresents": 2328,
      "AAV": 2329,
      "Ġprecede": 2330,
      "Ġmodification": 2331,
      "Ġ80": 2332,
      "Ġpolyglutam": 2333,
      "Ġpharmacological": 2334,
      "ĠIntrathecal": 2335,
      "PEG": 2336,
      "Ġcorrecting": 2337,
      "NIV": 2338,
      "Ġtoxin": 2339,
      "Ġtoxic": 2340,
      "Ġataxin": 2341,
      "Ġataxia": 2342,
      "Ġmislocalizes": 2343,
      "Ġmislocalization": 2344,
      "Ġroute": 2345,
      "Respiratory": 2346,
      "Ġ97": 2347,
      "SPR": 2348,
      "ieving": 2349,
      "Ġbenignly": 2350,
      "Ġinjections": 2351,
      "Ġgranule": 2352,
      "ASOs": 2353,
      "Spasticity": 2354,
      "SNIP": 2355,
      "holinerg": 2356,
      "Ġessential": 2357,
      "Ġvelocity": 2358,
      "ĠVALOR": 2359,
      "Ġachieving": 2360,
      "Ġtizanidine": 2361,
      "Ġmajor": 2362,
      "orrhea": 2363,
      "Ġcurrent": 2364,
      "Ġcramps": 2365,
      "Ġcryptic": 2366,
      "Ġclonus": 2367,
      "Ġinstability": 2368,
      "Ġinsufficien": 2369,
      "Ġdantrolene": 2370,
      "Ġdownstream": 2371,
      "Ġsusceptibility": 2372,
      "Ġpacing": 2373,
      "Ġbotulinum": 2374,
      "Ġbaclofen": 2375,
      "ĠTARDBP": 2376,
      "ĠSialorrhea": 2377,
      "ragmatic": 2378,
      "Ġdistribution": 2379,
      "Ġexercises": 2380,
      "ĠFasciculations": 2381,
      "Ġstretching": 2382,
      "Ġbecomes": 2383,
      "Ġapproaches": 2384,
      "Ġanticholinerg": 2385,
      "Ġchallenge": 2386,
      "ĠCRISPR": 2387,
      "ĠRecent": 2388,
      "Ġsplicing": 2389,
      "Ġspinocerebell": 2390,
      "Ġadequate": 2391,
      "Ġexplored": 2392,
      "Ġenhanced": 2393,
      "Ġmanaged": 2394,
      "Ġmodifier": 2395,
      "ĠIntermediate": 2396,
      "Ġunique": 2397,
      "ĠDiaphragmatic": 2398,
      "ĠBabinski": 2399,
      "Ġpredominantly": 2400,
      "Ġhyperreflexia": 2401,
      "Ġpolyglutamine": 2402,
      "Ġinsufficiency": 2403,
      "Ġanticholinergic": 2404,
      "Ġspinocerebellar": 2405,
      "Bulbar": 2406,
      "EM": 2407,
      "Edaravone": 2408,
      "Elect": 2409,
      "Nu": 2410,
      "PBA": 2411,
      "affect": 2412,
      "augh": 2413,
      "bated": 2414,
      "bulbar": 2415,
      "dys": 2416,
      "ders": 2417,
      "dysphagia": 2418,
      "ear": 2419,
      "eop": 2420,
      "for": 2421,
      "hor": 2422,
      "io": 2423,
      "long": 2424,
      "ms": 2425,
      "matory": 2426,
      "oing": 2427,
      "obulbar": 2428,
      "por": 2429,
      "pro": 2430,
      "pid": 2431,
      "ring": 2432,
      "rig": 2433,
      "rio": 2434,
      "sclerosis": 2435,
      "vous": 2436,
      "ventually": 2437,
      "vrio": 2438,
      "wor": 2439,
      "yography": 2440,
      "Ġong": 2441,
      "inut": 2442,
      "inate": 2443,
      "inner": 2444,
      "inidine": 2445,
      "Ġapp": 2446,
      "Ġaction": 2447,
      "ata": 2448,
      "Ġtrophic": 2449,
      "Ġtong": 2450,
      "requent": 2451,
      "ervous": 2452,
      "Ġmen": 2453,
      "Ġmore": 2454,
      "Ġminut": 2455,
      "orders": 2456,
      "Ġcru": 2457,
      "Ġcrying": 2458,
      "Ġincor": 2459,
      "ionate": 2460,
      "roup": 2461,
      "Ġdata": 2462,
      "Ġsys": 2463,
      "Ġserve": 2464,
      "Ġport": 2465,
      "Ġpeop": 2466,
      "arly": 2467,
      "arring": 2468,
      "ĠAs": 2469,
      "ĠAbout": 2470,
      "Ġwide": 2471,
      "Ġfive": 2472,
      "Ġfrequent": 2473,
      "otional": 2474,
      "Ġnervous": 2475,
      "Ġrece": 2476,
      "Ġresp": 2477,
      "Ġrecent": 2478,
      "Ġreinner": 2479,
      "omen": 2480,
      "lyvrio": 2481,
      "Ġdext": 2482,
      "Ġdebated": 2483,
      "Ġloc": 2484,
      "Ġlanguage": 2485,
      "Ġlaugh": 2486,
      "Ġthen": 2487,
      "Ġthis": 2488,
      "ethor": 2489,
      "unts": 2490,
      "xta": 2491,
      "Ġgroup": 2492,
      "Ġhard": 2493,
      "onsible": 2494,
      "udobulbar": 2495,
      "Ġdispro": 2496,
      "Ġdisorders": 2497,
      "ifoc": 2498,
      "ifies": 2499,
      "iginate": 2500,
      "phan": 2501,
      "Ġoral": 2502,
      "Ġoriginate": 2503,
      "ĠFunction": 2504,
      "Ġstate": 2505,
      "Ġstiff": 2506,
      "ĠEventually": 2507,
      "ĠEarly": 2508,
      "Ġcomes": 2509,
      "Ġbelong": 2510,
      "Ġareas": 2511,
      "seudobulbar": 2512,
      "linical": 2513,
      "Ġ25": 2514,
      "ĠPBA": 2515,
      "ĠPseudobulbar": 2516,
      "ade": 2517,
      "ĠClinical": 2518,
      "ĠRating": 2519,
      "acks": 2520,
      "ĠMost": 2521,
      "ĠMay": 2522,
      "ĠMore": 2523,
      "Ġsurvive": 2524,
      "romyography": 2525,
      "romethor": 2526,
      "Ġrated": 2527,
      "ĠNerve": 2528,
      "Ġwaste": 2529,
      "Ġcausing": 2530,
      "Ġ33": 2531,
      "Ġdegenerate": 2532,
      "Ġdegenerates": 2533,
      "reek": 2534,
      "ĠLou": 2535,
      "ĠLimb": 2536,
      "Ġspeaking": 2537,
      "Ġplays": 2538,
      "Ġmyo": 2539,
      "Ġmodest": 2540,
      "Ġparalysis": 2541,
      "Ġinitiate": 2542,
      "Ġperfor": 2543,
      "Ġidentifies": 2544,
      "Ġunits": 2545,
      "Ġunaffect": 2546,
      "Ġloses": 2547,
      "Ġweaken": 2548,
      "Ġrapid": 2549,
      "Ġdosing": 2550,
      "ĠGeh": 2551,
      "ĠGreek": 2552,
      "Ġusually": 2553,
      "Ġmultifoc": 2554,
      "Ġdie": 2555,
      "Ġtwo": 2556,
      "ĠORS": 2557,
      "Ġemotional": 2558,
      "portionate": 2559,
      "Ġquinidine": 2560,
      "Ġscale": 2561,
      "Ġscarring": 2562,
      "Ġword": 2563,
      "ĠWomen": 2564,
      "Ġatrophies": 2565,
      "Ġinfusion": 2566,
      "Ġformulation": 2567,
      "Ġtwitch": 2568,
      "mewor": 2569,
      "Ġneurological": 2570,
      "Ġwastes": 2571,
      "Ġgradually": 2572,
      "Ġaccounts": 2573,
      "ĠWhen": 2574,
      "Ġselect": 2575,
      "Ġassessing": 2576,
      "Ġfatal": 2577,
      "Ġ2022": 2578,
      "Ġlinks": 2579,
      "Ġdifficulty": 2580,
      "Ġattacks": 2581,
      "Ġability": 2582,
      "Ġscores": 2583,
      "Ġexclude": 2584,
      "sequently": 2585,
      "Ġsubsequently": 2586,
      "Ġconfirmatory": 2587,
      "Ġframewor": 2588,
      "Ġrole": 2589,
      "Revised": 2590,
      "Relyvrio": 2591,
      "Ġblockade": 2592,
      "Ġactivities": 2593,
      "ĠScale": 2594,
      "Ġmimicking": 2595,
      "Ġinhibition": 2596,
      "Ġrefers": 2597,
      "Ġchannel": 2598,
      "Ġneuropathy": 2599,
      "Ġarms": 2600,
      "edexta": 2601,
      "Ġ60": 2602,
      "EMG": 2603,
      "Electromyography": 2604,
      "Nuedexta": 2605,
      "dysarthria": 2606,
      "porate": 2607,
      "Ġongoing": 2608,
      "Ġappear": 2609,
      "Ġtongue": 2610,
      "Ġminutes": 2611,
      "Ġcrucial": 2612,
      "Ġincorporate": 2613,
      "Ġsystem": 2614,
      "Ġportions": 2615,
      "Ġpeople": 2616,
      "Ġwidely": 2617,
      "Ġfrequently": 2618,
      "Ġreceived": 2619,
      "Ġresponsible": 2620,
      "Ġrecently": 2621,
      "Ġreinnervation": 2622,
      "Ġdextromethor": 2623,
      "Ġlocated": 2624,
      "Ġlaughing": 2625,
      "Ġhardening": 2626,
      "Ġdisproportionate": 2627,
      "ĠFunctional": 2628,
      "Ġbelongs": 2629,
      "Ġperformed": 2630,
      "Ġunaffected": 2631,
      "Ġrapidly": 2632,
      "ĠGehrig": 2633,
      "Ġmultifocal": 2634,
      "Ġselected": 2635,
      "Ġframeworks": 2636,
      "Ġdextromethorphan": 2637,
      "95": 2638,
      "LMN": 2639,
      "UMN": 2640,
      "con": 2641,
      "cum": 2642,
      "earch": 2643,
      "fALS": 2644,
      "fold": 2645,
      "gy": 2646,
      "gane": 2647,
      "nerg": 2648,
      "oph": 2649,
      "sALS": 2650,
      "tion": 2651,
      "toxic": 2652,
      "xons": 2653,
      "ynerg": 2654,
      "Ġener": 2655,
      "Ġaxons": 2656,
      "rote": 2657,
      "rotect": 2658,
      "Ġsynerg": 2659,
      "icits": 2660,
      "esis": 2661,
      "ĠAppro": 2662,
      "ĠAxonal": 2663,
      "imulation": 2664,
      "Ġdeple": 2665,
      "Ġlength": 2666,
      "Ġhall": 2667,
      "pean": 2668,
      "Ġorgane": 2669,
      "Ġstimulation": 2670,
      "ĠEuro": 2671,
      "Ġbeing": 2672,
      "Ġbecome": 2673,
      "veral": 2674,
      "ĠProte": 2675,
      "lles": 2676,
      "Ġgenes": 2677,
      "essive": 2678,
      "Ġinto": 2679,
      "Ġneurotoxic": 2680,
      "ĠMitochondrial": 2681,
      "Ġinvolve": 2682,
      "Ġup": 2683,
      "Ġaccum": 2684,
      "Ġoveractiv": 2685,
      "Ġpathoph": 2686,
      "Ġalong": 2687,
      "istically": 2688,
      "Ġexcessive": 2689,
      "ĠGlutamate": 2690,
      "Ġleading": 2691,
      "Ġintercon": 2692,
      "Ġaffecting": 2693,
      "Ġremaining": 2694,
      "Ġmeter": 2695,
      "Ġcopper": 2696,
      "Ġlikely": 2697,
      "Ġ40": 2698,
      "Ġdeficits": 2699,
      "Ġmisfold": 2700,
      "Ġpathogenesis": 2701,
      "Ġneuroprotect": 2702,
      "Ġimplicated": 2703,
      "nected": 2704,
      "Ġseveral": 2705,
      "ysiology": 2706,
      "ĠMutations": 2707,
      "ĠNeuroinflammation": 2708,
      "Research": 2709,
      "Ġ90": 2710,
      "Ġactivation": 2711,
      "Ġaccounting": 2712,
      "zinc": 2713,
      "Ġenergy": 2714,
      "Ġsynergistically": 2715,
      "ĠApproximately": 2716,
      "Ġdepletion": 2717,
      "Ġhallmark": 2718,
      "Ġorganelles": 2719,
      "ĠEuropean": 2720,
      "ĠProtein": 2721,
      "Ġaccumulation": 2722,
      "Ġoveractivation": 2723,
      "Ġpathophysiology": 2724,
      "Ġinterconnected": 2725,
      "Ġmisfolded": 2726,
      "Ġneuroprotective": 2727,
      "70": 2728,
      "90": 2729,
      "AG": 2730,
      "AP": 2731,
      "BMA": 2732,
      "BiP": 2733,
      "CC": 2734,
      "GCC": 2735,
      "HSP": 2736,
      "Motor": 2737,
      "Nutrit": 2738,
      "PLS": 2739,
      "PMA": 2740,
      "PBP": 2741,
      "bable": 2742,
      "cause": 2743,
      "calor": 2744,
      "drogen": 2745,
      "gen": 2746,
      "ied": 2747,
      "iel": 2748,
      "jects": 2749,
      "lain": 2750,
      "mer": 2751,
      "ned": 2752,
      "nutrit": 2753,
      "pred": 2754,
      "pass": 2755,
      "ty": 2756,
      "ting": 2757,
      "tra": 2758,
      "uished": 2759,
      "ventil": 2760,
      "ygen": 2761,
      "zym": 2762,
      "ĠX": 2763,
      "Ġ70": 2764,
      "inav": 2765,
      "Ġair": 2766,
      "Ġabo": 2767,
      "enned": 2768,
      "reater": 2769,
      "alnutrit": 2770,
      "Ġmass": 2771,
      "Ġmalnutrit": 2772,
      "oric": 2773,
      "orth": 2774,
      "Ġinde": 2775,
      "Ġindependent": 2776,
      "itary": 2777,
      "Ġdrop": 2778,
      "Ġsecondary": 2779,
      "Ġsafe": 2780,
      "Ġpast": 2781,
      "Ġpals": 2782,
      "ica": 2783,
      "ĠAmer": 2784,
      "Ġfiel": 2785,
      "Ġandrogen": 2786,
      "Ġbile": 2787,
      "legia": 2788,
      "ĠTolerability": 2789,
      "ural": 2790,
      "Ġland": 2791,
      "Ġthous": 2792,
      "etry": 2793,
      "Ġneeds": 2794,
      "clusion": 2795,
      "Ġproced": 2796,
      "Ġprobable": 2797,
      "Ġgreater": 2798,
      "Ġhund": 2799,
      "ĠSBMA": 2800,
      "ively": 2801,
      "Ġdisting": 2802,
      "Ġconver": 2803,
      "Ġcontr": 2804,
      "reds": 2805,
      "reditary": 2806,
      "Ġoxim": 2807,
      "ressive": 2808,
      "Ġbecause": 2809,
      "linked": 2810,
      "ĠPerc": 2811,
      "ades": 2812,
      "Ġintak": 2813,
      "ĠCAG": 2814,
      "Ġspastic": 2815,
      "Ġeventually": 2816,
      "Ġexplain": 2817,
      "poventil": 2818,
      "andinav": 2819,
      "ĠNorth": 2820,
      "Ġencom": 2821,
      "Ġenzym": 2822,
      "Ġstudied": 2823,
      "ously": 2824,
      "Ġcritical": 2825,
      "Ġdysphagia": 2826,
      "Ġplace": 2827,
      "ĠIntra": 2828,
      "ĠInclusion": 2829,
      "Ġparap": 2830,
      "Ġperoxide": 2831,
      "Ġregular": 2832,
      "MND": 2833,
      "Ġdemand": 2834,
      "ĠGGG": 2835,
      "Ġcaloric": 2836,
      "Ġcondition": 2837,
      "ĠOver": 2838,
      "Ġaggressive": 2839,
      "Ġoxygen": 2840,
      "ĠBody": 2841,
      "Ġmetabolic": 2842,
      "Ġhyperc": 2843,
      "Ġinfusions": 2844,
      "Ġubiquitously": 2845,
      "Ġslows": 2846,
      "Ġslower": 2847,
      "Ġ2011": 2848,
      "Ġradicals": 2849,
      "Ġassesses": 2850,
      "Ġfatty": 2851,
      "ĠHigh": 2852,
      "Ġextensively": 2853,
      "Ġdecades": 2854,
      "Ġnutritional": 2855,
      "ĠSubjects": 2856,
      "Ġ180": 2857,
      "Ġexpressed": 2858,
      "Ġpredictor": 2859,
      "ĠEvaluating": 2860,
      "Ġfeatures": 2861,
      "ĠScandinav": 2862,
      "aloric": 2863,
      "Ġhydrogen": 2864,
      "Ġhypoventil": 2865,
      "Ġallele": 2866,
      "Ġalleles": 2867,
      "Ġcontains": 2868,
      "Ġmaximal": 2869,
      "Ġduration": 2870,
      "ĠHereditary": 2871,
      "Ġfewer": 2872,
      "Ġphenotypic": 2873,
      "ĠRespiratory": 2874,
      "Ġdifferent": 2875,
      "Ġopened": 2876,
      "Ġbenefits": 2877,
      "ĠKenned": 2878,
      "BiPAP": 2879,
      "Nutritional": 2880,
      "calorie": 2881,
      "predominant": 2882,
      "passes": 2883,
      "Ġairway": 2884,
      "Ġabove": 2885,
      "Ġmalnutrition": 2886,
      "Ġindex": 2887,
      "Ġdrops": 2888,
      "Ġsafely": 2889,
      "Ġpalsy": 2890,
      "ĠAmerica": 2891,
      "Ġfield": 2892,
      "Ġbilevel": 2893,
      "Ġlandmark": 2894,
      "Ġthousands": 2895,
      "Ġprocedural": 2896,
      "Ġhundreds": 2897,
      "Ġdistinguished": 2898,
      "Ġconverts": 2899,
      "Ġcontrast": 2900,
      "Ġoximetry": 2901,
      "ĠPercutaneous": 2902,
      "Ġintake": 2903,
      "Ġexplaining": 2904,
      "Ġencompasses": 2905,
      "Ġenzyme": 2906,
      "Ġplacement": 2907,
      "ĠIntravenous": 2908,
      "Ġparaplegia": 2909,
      "ĠGGGGCC": 2910,
      "Ġhypercaloric": 2911,
      "ĠScandinavian": 2912,
      "Ġhypoventilation": 2913,
      "ĠKennedy": 2914,
      "08": 2915,
      "Rilu": 2916,
      "Randomized": 2917,
      "YP": 2918,
      "cer": 2919,
      "eres": 2920,
      "feres": 2921,
      "him": 2922,
      "lished": 2923,
      "ours": 2924,
      "oast": 2925,
      "pat": 2926,
      "patic": 2927,
      "ral": 2928,
      "rength": 2929,
      "shim": 2930,
      "tage": 2931,
      "test": 2932,
      "ured": 2933,
      "zoth": 2934,
      "intest": 2935,
      "onoun": 2936,
      "Ġtak": 2937,
      "read": 2938,
      "Ġmulticenter": 2939,
      "heost": 2940,
      "Ġinactiv": 2941,
      "Ġdiz": 2942,
      "Ġpub": 2943,
      "asured": 2944,
      "Ġfur": 2945,
      "Ġbased": 2946,
      "Ġequ": 2947,
      "ĠTrial": 2948,
      "Ġrepe": 2949,
      "ommon": 2950,
      "ometr": 2951,
      "tek": 2952,
      "Ġisometr": 2953,
      "ider": 2954,
      "Ġliver": 2955,
      "iazole": 2956,
      "Ġhist": 2957,
      "Ġhours": 2958,
      "raction": 2959,
      "Ġconcer": 2960,
      "Ġstrength": 2961,
      "Ġvers": 2962,
      "ĠControlled": 2963,
      "ĠCYP": 2964,
      "ĠCoast": 2965,
      "ĠCommon": 2966,
      "Ġspread": 2967,
      "ivalent": 2968,
      "Ġpronoun": 2969,
      "Ġleast": 2970,
      "inement": 2971,
      "Ġacute": 2972,
      "Ġhepatic": 2973,
      "Ġsignific": 2974,
      "Ġ2008": 2975,
      "ĠGold": 2976,
      "ĠAdverse": 2977,
      "Ġdemonstrates": 2978,
      "Ġvoltage": 2979,
      "Ġinterferes": 2980,
      "ĠOral": 2981,
      "Ġconsider": 2982,
      "Ġmetabolized": 2983,
      "measured": 2984,
      "Ġfindings": 2985,
      "Ġgastrointest": 2986,
      "Ġassessment": 2987,
      "Ġ1995": 2988,
      "Ġcontraction": 2989,
      "Ġ2020": 2990,
      "Ġsupported": 2991,
      "Ġtracheost": 2992,
      "Ġbenzoth": 2993,
      "Ġinhibits": 2994,
      "Ġrefinement": 2995,
      "Ġchannels": 2996,
      "Ġneuropathological": 2997,
      "ziness": 2998,
      "Ġmaximum": 2999,
      "Ġduring": 3000,
      "ĠHepat": 3001,
      "Rilutek": 3002,
      "shima": 3003,
      "Ġtaken": 3004,
      "Ġinactivates": 3005,
      "Ġdizziness": 3006,
      "Ġpublished": 3007,
      "Ġfurther": 3008,
      "Ġequivalent": 3009,
      "Ġrepeated": 3010,
      "Ġisometric": 3011,
      "Ġhistory": 3012,
      "Ġconcern": 3013,
      "Ġversus": 3014,
      "Ġpronounced": 3015,
      "Ġsignificant": 3016,
      "Ġgastrointestinal": 3017,
      "Ġtracheostomy": 3018,
      "Ġbenzothiazole": 3019,
      "ĠHepatotoxicity": 3020,
      "BK": 3021,
      "EK": 3022,
      "Fus": 3023,
      "Frontotemporal": 3024,
      "Liv": 3025,
      "MSCs": 3026,
      "NK": 3027,
      "Ow": 3028,
      "Opt": 3029,
      "PT": 3030,
      "Qals": 3031,
      "SOD": 3032,
      "Stem": 3033,
      "action": 3034,
      "apt": 3035,
      "bv": 3036,
      "cap": 3037,
      "dation": 3038,
      "ered": 3039,
      "ful": 3040,
      "ger": 3041,
      "gra": 3042,
      "gine": 3043,
      "gesting": 3044,
      "havioral": 3045,
      "ix": 3046,
      "ient": 3047,
      "ious": 3048,
      "jar": 3049,
      "kB": 3050,
      "led": 3051,
      "lit": 3052,
      "like": 3053,
      "lap": 3054,
      "lede": 3055,
      "ma": 3056,
      "mor": 3057,
      "mun": 3058,
      "nit": 3059,
      "nlike": 3060,
      "oice": 3061,
      "pr": 3062,
      "path": 3063,
      "ton": 3064,
      "ted": 3065,
      "tled": 3066,
      "vol": 3067,
      "ways": 3068,
      "youn": 3069,
      "Ġjar": 3070,
      "Ġyoun": 3071,
      "inte": 3072,
      "inase": 3073,
      "inhib": 3074,
      "Ġage": 3075,
      "Ġapath": 3076,
      "ench": 3077,
      "enance": 3078,
      "enitor": 3079,
      "Ġtas": 3080,
      "Ġtiss": 3081,
      "eration": 3082,
      "erious": 3083,
      "algia": 3084,
      "Ġmar": 3085,
      "Ġmot": 3086,
      "Ġmak": 3087,
      "Ġmye": 3088,
      "Ġmaking": 3089,
      "ors": 3090,
      "istic": 3091,
      "Ġcog": 3092,
      "Ġindu": 3093,
      "itul": 3094,
      "itate": 3095,
      "row": 3096,
      "Ġdes": 3097,
      "Ġsim": 3098,
      "Ġset": 3099,
      "Ġsug": 3100,
      "Ġpun": 3101,
      "Ġpost": 3102,
      "Ġpap": 3103,
      "arcom": 3104,
      "arted": 3105,
      "esench": 3106,
      "ĠApr": 3107,
      "Ġful": 3108,
      "Ġfact": 3109,
      "Ġfall": 3110,
      "Ġfund": 3111,
      "Ġban": 3112,
      "Ġbone": 3113,
      "ange": 3114,
      "ental": 3115,
      "oting": 3116,
      "otent": 3117,
      "Ġnorm": 3118,
      "ĠTBK": 3119,
      "Ġreaction": 3120,
      "Ġrecap": 3121,
      "Ġrevol": 3122,
      "cture": 3123,
      "urin": 3124,
      "urip": 3125,
      "urOw": 3126,
      "immun": 3127,
      "imental": 3128,
      "Ġdegra": 3129,
      "utive": 3130,
      "Ġlum": 3131,
      "Ġwithout": 3132,
      "Ġgiv": 3133,
      "Ġhands": 3134,
      "illede": 3135,
      "ilitate": 3136,
      "ĠSix": 3137,
      "ĠSerious": 3138,
      "ĠSarcom": 3139,
      "Ġdisinhib": 3140,
      "Ġneural": 3141,
      "Ġexec": 3142,
      "igue": 3143,
      "irt": 3144,
      "Ġ15": 3145,
      "Ġstarted": 3146,
      "Ġbehavioral": 3147,
      "Ġvoice": 3148,
      "lligible": 3149,
      "Ġgeneration": 3150,
      "Ġwhat": 3151,
      "Ġpatient": 3152,
      "Ġanalysis": 3153,
      "Ġprogenitor": 3154,
      "Ġinvalu": 3155,
      "Ġadapt": 3156,
      "ĠMy": 3157,
      "ĠMSCs": 3158,
      "ĠMesench": 3159,
      "ologous": 3160,
      "Ġimport": 3161,
      "Ġprogressed": 3162,
      "Ġrather": 3163,
      "Ġrange": 3164,
      "ĠNF": 3165,
      "ĠNEK": 3166,
      "ĠNurOw": 3167,
      "ymal": 3168,
      "crete": 3169,
      "Ġengine": 3170,
      "Ġshirt": 3171,
      "Ġ35": 3172,
      "ineurin": 3173,
      "Ġdysarthria": 3174,
      "igned": 3175,
      "Ġmechanistic": 3176,
      "Ġplurip": 3177,
      "eling": 3178,
      "Ġoverlap": 3179,
      "Ġpathways": 3180,
      "Ġmodeling": 3181,
      "Ġalone": 3182,
      "ĠPhysical": 3183,
      "Ġcellular": 3184,
      "Ġuninte": 3185,
      "Ġtherapist": 3186,
      "Ġrare": 3187,
      "Ġdosage": 3188,
      "ĠUnlike": 3189,
      "Ġinterval": 3190,
      "vements": 3191,
      "Ġnotice": 3192,
      "amentally": 3193,
      "Ġimprovements": 3194,
      "Ġacting": 3195,
      "ĠOPT": 3196,
      "oreactive": 3197,
      "anted": 3198,
      "ĠBeh": 3199,
      "Ġintrathecal": 3200,
      "Ġencodes": 3201,
      "Ġvariant": 3202,
      "Ġvitro": 3203,
      "Ġneurologist": 3204,
      "Ġconfound": 3205,
      "Ġkinase": 3206,
      "Ġbutton": 3207,
      "Ġsecrete": 3208,
      "Ġfatigue": 3209,
      "Ġ2023": 3210,
      "thralgia": 3211,
      "Ġphenotype": 3212,
      "Ġopening": 3213,
      "Ġautologous": 3214,
      "Ġlink": 3215,
      "Ġhelps": 3216,
      "Ġchanges": 3217,
      "Ġenabling": 3218,
      "Ġtimes": 3219,
      "Ġpromoting": 3220,
      "Ġneurotrophic": 3221,
      "ienced": 3222,
      "utionized": 3223,
      "Ġlargely": 3224,
      "Ġgranted": 3225,
      "Ġarthralgia": 3226,
      "Ġconnecting": 3227,
      "Ġincreasingly": 3228,
      "Ġpersonality": 3229,
      "Ġdisruption": 3230,
      "Ġphenotypes": 3231,
      "Ġpainful": 3232,
      "Ġexperimental": 3233,
      "Ġexperienced": 3234,
      "Ġmaintain": 3235,
      "Ġmaintenance": 3236,
      "TANK": 3237,
      "Ġfacilitate": 3238,
      "Ġunderstanding": 3239,
      "Fused": 3240,
      "Living": 3241,
      "Optineurin": 3242,
      "Qalsody": 3243,
      "bvFTD": 3244,
      "litis": 3245,
      "mortem": 3246,
      "nitive": 3247,
      "Ġyounger": 3248,
      "Ġapathy": 3249,
      "Ġtasks": 3250,
      "Ġtissue": 3251,
      "Ġmarrow": 3252,
      "Ġmotion": 3253,
      "Ġmakes": 3254,
      "Ġmyelitis": 3255,
      "Ġcognitive": 3256,
      "Ġinduced": 3257,
      "itulate": 3258,
      "Ġdesigned": 3259,
      "Ġsimple": 3260,
      "Ġsettled": 3261,
      "Ġsuggesting": 3262,
      "Ġpuncture": 3263,
      "Ġpostmortem": 3264,
      "Ġpapillede": 3265,
      "ĠApril": 3266,
      "Ġfull": 3267,
      "Ġfactors": 3268,
      "Ġfundamentally": 3269,
      "Ġbank": 3270,
      "Ġnormally": 3271,
      "Ġreactions": 3272,
      "Ġrecapitulate": 3273,
      "Ġrevolutionized": 3274,
      "immunoreactive": 3275,
      "Ġdegradation": 3276,
      "Ġlumbar": 3277,
      "Ġgiven": 3278,
      "ĠSarcoma": 3279,
      "Ġdisinhibition": 3280,
      "Ġexecutive": 3281,
      "Ġinvaluable": 3282,
      "ĠMesenchymal": 3283,
      "Ġimportant": 3284,
      "ĠNurOwn": 3285,
      "Ġengineered": 3286,
      "Ġpluripotent": 3287,
      "Ġunintelligible": 3288,
      "Ġintervals": 3289,
      "Ġnoticeable": 3290,
      "ĠOPTN": 3291,
      "ĠBehavioral": 3292,
      "Ġconfounds": 3293,
      "Ġbuttoning": 3294,
      "Ġpapilledema": 3295,
      "32": 3296,
      "37": 3297,
      "EN": 3298,
      "Sodium": 3299,
      "Taurursodiol": 3300,
      "UR": 3301,
      "lab": 3302,
      "enylbutyrate": 3303,
      "oring": 3304,
      "rolled": 3305,
      "Ġfav": 3306,
      "Ġ137": 3307,
      "ĠCEN": 3308,
      "ĠMulticenter": 3309,
      "Ġenrolled": 3310,
      "Ġoverall": 3311,
      "ĠPhenylbutyrate": 3312,
      "Ġtwice": 3313,
      "ĠResults": 3314,
      "Ġdifference": 3315,
      "Ġbenefit": 3316,
      "TAUR": 3317,
      "label": 3318,
      "Ġfavoring": 3319,
      "ĠCENTAUR": 3320,
      "Wh": 3321,
      "ait": 3322,
      "ach": 3323,
      "now": 3324,
      "uar": 3325,
      "vail": 3326,
      "wo": 3327,
      "Ġall": 3328,
      "Ġavail": 3329,
      "enetic": 3330,
      "enetr": 3331,
      "Ġtest": 3332,
      "Ġtesting": 3333,
      "ision": 3334,
      "Ġincom": 3335,
      "Ġsib": 3336,
      "Ġpurs": 3337,
      "Ġpenetr": 3338,
      "Ġoffer": 3339,
      "Ġwait": 3340,
      "Ġfather": 3341,
      "ante": 3342,
      "Ġeach": 3343,
      "ĠTwo": 3344,
      "ulus": 3345,
      "Ġguar": 3346,
      "ighed": 3347,
      "Ġour": 3348,
      "Ġopt": 3349,
      "Ġours": 3350,
      "Ġchose": 3351,
      "Ġweighed": 3352,
      "Ġdiagnosed": 3353,
      "Ġchance": 3354,
      "Ġfamily": 3355,
      "ĠGenetic": 3356,
      "Ġfamilies": 3357,
      "Ġcalculus": 3358,
      "lings": 3359,
      "Ġlinked": 3360,
      "plete": 3361,
      "Ġdecided": 3362,
      "Ġdecision": 3363,
      "Ġheavily": 3364,
      "ĠKnow": 3365,
      "Ġfaced": 3366,
      "When": 3367,
      "Ġavailability": 3368,
      "Ġtested": 3369,
      "Ġincomplete": 3370,
      "Ġsiblings": 3371,
      "Ġpursue": 3372,
      "Ġpenetrance": 3373,
      "Ġoffering": 3374,
      "antee": 3375,
      "Ġguarantee": 3376,
      "Ġoption": 3377,
      "ĠKnowing": 3378
    },
    "merges": [
      [
        "i",
        "n"
      ],
      [
        "Ġ",
        "a"
      ],
      [
        "o",
        "n"
      ],
      [
        "e",
        "n"
      ],
      [
        "a",
        "t"
      ],
      [
        "Ġ",
        "t"
      ],
      [
        "r",
        "e"
      ],
      [
        "e",
        "r"
      ],
      [
        "a",
        "l"
      ],
      [
        "Ġ",
        "m"
      ],
      [
        "h",
        "e"
      ],
      [
        "o",
        "r"
      ],
      [
        "i",
        "s"
      ],
      [
        "Ġ",
        "c"
      ],
      [
        "e",
        "d"
      ],
      [
        "Ġ",
        "in"
      ],
      [
        "i",
        "t"
      ],
      [
        "i",
        "on"
      ],
      [
        "r",
        "o"
      ],
      [
        "Ġ",
        "d"
      ],
      [
        "o",
        "f"
      ],
      [
        "Ġ",
        "s"
      ],
      [
        "Ġ",
        "p"
      ],
      [
        "i",
        "c"
      ],
      [
        "n",
        "d"
      ],
      [
        "a",
        "r"
      ],
      [
        "e",
        "s"
      ],
      [
        "Ġ",
        "of"
      ],
      [
        "in",
        "g"
      ],
      [
        "a",
        "s"
      ],
      [
        "Ġ",
        "A"
      ],
      [
        "Ġ",
        "w"
      ],
      [
        "Ġ",
        "f"
      ],
      [
        "Ġa",
        "nd"
      ],
      [
        "Ġ",
        "b"
      ],
      [
        "a",
        "n"
      ],
      [
        "en",
        "t"
      ],
      [
        "Ġt",
        "he"
      ],
      [
        "l",
        "e"
      ],
      [
        "o",
        "t"
      ],
      [
        "L",
        "S"
      ],
      [
        "Ġ",
        "n"
      ],
      [
        "Ġ",
        "e"
      ],
      [
        "Ġ",
        "T"
      ],
      [
        "Ġ",
        "re"
      ],
      [
        "at",
        "ion"
      ],
      [
        "c",
        "t"
      ],
      [
        "ĠA",
        "LS"
      ],
      [
        "o",
        "m"
      ],
      [
        "u",
        "r"
      ],
      [
        "o",
        "s"
      ],
      [
        "u",
        "s"
      ],
      [
        "t",
        "e"
      ],
      [
        "v",
        "e"
      ],
      [
        "l",
        "y"
      ],
      [
        "u",
        "l"
      ],
      [
        "o",
        "l"
      ],
      [
        "en",
        "d"
      ],
      [
        "i",
        "m"
      ],
      [
        "Ġ",
        "("
      ],
      [
        "Ġd",
        "e"
      ],
      [
        "u",
        "t"
      ],
      [
        "Ġ",
        "is"
      ],
      [
        "i",
        "d"
      ],
      [
        "Ġ",
        "l"
      ],
      [
        "Ġt",
        "o"
      ],
      [
        "Ġt",
        "h"
      ],
      [
        "ĠT",
        "he"
      ],
      [
        "e",
        "t"
      ],
      [
        "Ġn",
        "e"
      ],
      [
        "c",
        "l"
      ],
      [
        "it",
        "h"
      ],
      [
        "Ġw",
        "ith"
      ],
      [
        "u",
        "n"
      ],
      [
        "Ġp",
        "ro"
      ],
      [
        "c",
        "e"
      ],
      [
        "m",
        "ent"
      ],
      [
        "x",
        "t"
      ],
      [
        "i",
        "a"
      ],
      [
        "Ġ",
        "g"
      ],
      [
        "Ġ",
        "h"
      ],
      [
        "i",
        "l"
      ],
      [
        "on",
        "s"
      ],
      [
        "Ġ",
        "S"
      ],
      [
        "u",
        "d"
      ],
      [
        "s",
        "s"
      ],
      [
        "i",
        "al"
      ],
      [
        "o",
        "w"
      ],
      [
        "at",
        "ed"
      ],
      [
        "r",
        "a"
      ],
      [
        "at",
        "e"
      ],
      [
        "ot",
        "or"
      ],
      [
        "c",
        "h"
      ],
      [
        "i",
        "ve"
      ],
      [
        "p",
        "p"
      ],
      [
        "Ġd",
        "is"
      ],
      [
        "t",
        "s"
      ],
      [
        "ct",
        "ion"
      ],
      [
        "Ġf",
        "or"
      ],
      [
        ".",
        "<"
      ],
      [
        "|",
        ">"
      ],
      [
        "of",
        "te"
      ],
      [
        "end",
        "ofte"
      ],
      [
        ".<",
        "|"
      ],
      [
        "endofte",
        "xt"
      ],
      [
        "Ġm",
        "otor"
      ],
      [
        "Ġne",
        "ur"
      ],
      [
        "i",
        "v"
      ],
      [
        "i",
        "f"
      ],
      [
        "p",
        "e"
      ],
      [
        "ic",
        "al"
      ],
      [
        "Ġb",
        "y"
      ],
      [
        "Ġe",
        "x"
      ],
      [
        "i",
        "g"
      ],
      [
        "i",
        "r"
      ],
      [
        "p",
        "h"
      ],
      [
        "as",
        "e"
      ],
      [
        "o",
        "d"
      ],
      [
        "Ġ",
        "1"
      ],
      [
        "Ġc",
        "on"
      ],
      [
        "y",
        "s"
      ],
      [
        "Ġ",
        "or"
      ],
      [
        "Ġ",
        "F"
      ],
      [
        "it",
        "y"
      ],
      [
        "re",
        "d"
      ],
      [
        "Ġs",
        "t"
      ],
      [
        "a",
        "m"
      ],
      [
        "Ġ",
        "o"
      ],
      [
        "Ġ",
        "E"
      ],
      [
        "ar",
        "y"
      ],
      [
        "Ġc",
        "om"
      ],
      [
        "p",
        "t"
      ],
      [
        "re",
        "ss"
      ],
      [
        "Ġb",
        "e"
      ],
      [
        "Ġa",
        "re"
      ],
      [
        "Ġa",
        "s"
      ],
      [
        "Ġ",
        "v"
      ],
      [
        "os",
        "t"
      ],
      [
        "s",
        "e"
      ],
      [
        "o",
        "g"
      ],
      [
        "l",
        "in"
      ],
      [
        "pp",
        "ro"
      ],
      [
        "Ġ",
        "2"
      ],
      [
        "v",
        "er"
      ],
      [
        "c",
        "le"
      ],
      [
        "t",
        "ro"
      ],
      [
        "Ġm",
        "e"
      ],
      [
        "Ġ",
        "P"
      ],
      [
        "l",
        "l"
      ],
      [
        "Ġg",
        "en"
      ],
      [
        "Ġm",
        "us"
      ],
      [
        "Ġin",
        "cl"
      ],
      [
        "Ġw",
        "h"
      ],
      [
        "u",
        "ro"
      ],
      [
        "Ġp",
        "at"
      ],
      [
        "Ġdis",
        "e"
      ],
      [
        "Ġa",
        "ppro"
      ],
      [
        "a",
        "d"
      ],
      [
        "Ġth",
        "at"
      ],
      [
        "q",
        "u"
      ],
      [
        "un",
        "ction"
      ],
      [
        "an",
        "s"
      ],
      [
        "er",
        "s"
      ],
      [
        "a",
        "in"
      ],
      [
        "ent",
        "s"
      ],
      [
        "t",
        "h"
      ],
      [
        "o",
        "c"
      ],
      [
        "Ġc",
        "a"
      ],
      [
        "es",
        "s"
      ],
      [
        "g",
        "e"
      ],
      [
        "en",
        "er"
      ],
      [
        "Ġa",
        "n"
      ],
      [
        "Ġin",
        "t"
      ],
      [
        "a",
        "b"
      ],
      [
        "ation",
        "s"
      ],
      [
        "Ġpro",
        "g"
      ],
      [
        "Ġc",
        "h"
      ],
      [
        "O",
        "D"
      ],
      [
        "or",
        "y"
      ],
      [
        "Ġincl",
        "ud"
      ],
      [
        "Ġne",
        "uro"
      ],
      [
        "Ġ",
        "C"
      ],
      [
        "o",
        "p"
      ],
      [
        "Ġin",
        "v"
      ],
      [
        "u",
        "g"
      ],
      [
        "os",
        "is"
      ],
      [
        "Ġdise",
        "ase"
      ],
      [
        "i",
        "z"
      ],
      [
        "Ġ",
        "R"
      ],
      [
        "Ġt",
        "r"
      ],
      [
        "a",
        "v"
      ],
      [
        "Ġw",
        "e"
      ],
      [
        "ĠS",
        "OD"
      ],
      [
        "ion",
        "s"
      ],
      [
        "Ġs",
        "p"
      ],
      [
        "Ġa",
        "d"
      ],
      [
        "Ġe",
        "v"
      ],
      [
        "a",
        "c"
      ],
      [
        "f",
        "f"
      ],
      [
        "l",
        "ow"
      ],
      [
        "Ġneur",
        "on"
      ],
      [
        "Ġ",
        "M"
      ],
      [
        "Ġneur",
        "ons"
      ],
      [
        "id",
        "e"
      ],
      [
        "t",
        "ic"
      ],
      [
        "Ġ",
        "im"
      ],
      [
        "d",
        "u"
      ],
      [
        "u",
        "m"
      ],
      [
        "Ġc",
        "lin"
      ],
      [
        "r",
        "it"
      ],
      [
        "x",
        "im"
      ],
      [
        "Ġm",
        "ut"
      ],
      [
        "i",
        "ated"
      ],
      [
        "at",
        "ory"
      ],
      [
        "ol",
        "og"
      ],
      [
        "Ġinv",
        "ol"
      ],
      [
        "Ġs",
        "ur"
      ],
      [
        "Ġex",
        "p"
      ],
      [
        "Ġsur",
        "v"
      ],
      [
        "e",
        "ct"
      ],
      [
        "iv",
        "al"
      ],
      [
        "i",
        "ents"
      ],
      [
        "Ġim",
        "p"
      ],
      [
        "Ġh",
        "as"
      ],
      [
        "Ġprog",
        "ress"
      ],
      [
        "Ġ",
        "u"
      ],
      [
        "ro",
        "m"
      ],
      [
        "Ġ",
        "end"
      ],
      [
        "4",
        "3"
      ],
      [
        "D",
        "P"
      ],
      [
        ")",
        ","
      ],
      [
        "Ġcom",
        "m"
      ],
      [
        "Ġsurv",
        "ival"
      ],
      [
        "p",
        "o"
      ],
      [
        "on",
        "e"
      ],
      [
        "iz",
        "ed"
      ],
      [
        "en",
        "ce"
      ],
      [
        "a",
        "nd"
      ],
      [
        "Ġ",
        "r"
      ],
      [
        "Ġclin",
        "ical"
      ],
      [
        "t",
        "r"
      ],
      [
        "ons",
        "et"
      ],
      [
        "i",
        "es"
      ],
      [
        "N",
        "A"
      ],
      [
        "Ġ",
        "N"
      ],
      [
        "y",
        "m"
      ],
      [
        "ĠT",
        "DP"
      ],
      [
        "c",
        "re"
      ],
      [
        "g",
        "ener"
      ],
      [
        "u",
        "cle"
      ],
      [
        "po",
        "in"
      ],
      [
        "Ġ",
        "en"
      ],
      [
        "Ġs",
        "h"
      ],
      [
        "i",
        "b"
      ],
      [
        "u",
        "re"
      ],
      [
        "al",
        "ly"
      ],
      [
        "Ġst",
        "ud"
      ],
      [
        "Ġw",
        "as"
      ],
      [
        "a",
        "k"
      ],
      [
        "Ġgen",
        "e"
      ],
      [
        "g",
        "n"
      ],
      [
        "ia",
        "gn"
      ],
      [
        "Ġm",
        "ost"
      ],
      [
        "Ġp",
        "r"
      ],
      [
        "ate",
        "ly"
      ],
      [
        "xim",
        "ately"
      ],
      [
        "Ġa",
        "t"
      ],
      [
        "Ġf",
        "rom"
      ],
      [
        "s",
        "p"
      ],
      [
        "Ġs",
        "u"
      ],
      [
        "y",
        "e"
      ],
      [
        "pe",
        "at"
      ],
      [
        "er",
        "a"
      ],
      [
        "a",
        "ge"
      ],
      [
        "Ġpro",
        "te"
      ],
      [
        "Ġ",
        "le"
      ],
      [
        "a",
        "ve"
      ],
      [
        "v",
        "ed"
      ],
      [
        "Ġh",
        "ave"
      ],
      [
        "ve",
        "l"
      ],
      [
        "Ġpat",
        "ients"
      ],
      [
        "a",
        "y"
      ],
      [
        "ro",
        "ph"
      ],
      [
        "Ġ",
        "5"
      ],
      [
        "Ġca",
        "us"
      ],
      [
        "at",
        "h"
      ],
      [
        "o",
        "us"
      ],
      [
        "Ġ",
        "3"
      ],
      [
        "as",
        "es"
      ],
      [
        "Ġappro",
        "ximately"
      ],
      [
        "in",
        "e"
      ],
      [
        "c",
        "om"
      ],
      [
        "Ġc",
        "rit"
      ],
      [
        "i",
        "an"
      ],
      [
        "T",
        "D"
      ],
      [
        "in",
        "al"
      ],
      [
        "is",
        "m"
      ],
      [
        "Ġs",
        "ym"
      ],
      [
        "pt",
        "om"
      ],
      [
        "Ġsym",
        "ptom"
      ],
      [
        "cl",
        "es"
      ],
      [
        "ul",
        "t"
      ],
      [
        "o",
        "x"
      ],
      [
        "Ġp",
        "h"
      ],
      [
        "Ġre",
        "peat"
      ],
      [
        "Ġend",
        "poin"
      ],
      [
        "b",
        "ar"
      ],
      [
        "Ġd",
        "ys"
      ],
      [
        "Ġde",
        "gener"
      ],
      [
        "Ġinclud",
        "e"
      ],
      [
        "ul",
        "ts"
      ],
      [
        "at",
        "er"
      ],
      [
        "s",
        "t"
      ],
      [
        "ul",
        "ar"
      ],
      [
        "ig",
        "n"
      ],
      [
        "Ġsh",
        "ow"
      ],
      [
        "Ġ",
        "I"
      ],
      [
        "Ġm",
        "on"
      ],
      [
        "Ġd",
        "iagn"
      ],
      [
        "a",
        "ct"
      ],
      [
        "Ġ",
        "it"
      ],
      [
        "re",
        "e"
      ],
      [
        "Ġc",
        "e"
      ],
      [
        "Ġm",
        "an"
      ],
      [
        "Ġtr",
        "ial"
      ],
      [
        "Ġcomm",
        "on"
      ],
      [
        "Ġpr",
        "im"
      ],
      [
        "o",
        "le"
      ],
      [
        "z",
        "ole"
      ],
      [
        "er",
        "ia"
      ],
      [
        "il",
        "u"
      ],
      [
        "Ġcrit",
        "eria"
      ],
      [
        "et",
        "ic"
      ],
      [
        "i",
        "p"
      ],
      [
        "ar",
        "k"
      ],
      [
        "ch",
        "an"
      ],
      [
        "Ġme",
        "chan"
      ],
      [
        "Ġf",
        "unction"
      ],
      [
        "Ġ",
        "ye"
      ],
      [
        "e",
        "ch"
      ],
      [
        "Ġmus",
        "cle"
      ],
      [
        "V",
        "C"
      ],
      [
        "Ġ",
        "L"
      ],
      [
        "ul",
        "bar"
      ],
      [
        "ir",
        "atory"
      ],
      [
        "un",
        "t"
      ],
      [
        "f",
        "unction"
      ],
      [
        "Ġa",
        "ss"
      ],
      [
        "Ġs",
        "pe"
      ],
      [
        "Ġth",
        "era"
      ],
      [
        "Ġprote",
        "in"
      ],
      [
        "roph",
        "ic"
      ],
      [
        "m",
        "in"
      ],
      [
        "c",
        "ed"
      ],
      [
        "er",
        "osis"
      ],
      [
        "cl",
        "erosis"
      ],
      [
        "ater",
        "al"
      ],
      [
        "Ġp",
        "l"
      ],
      [
        "id",
        "ent"
      ],
      [
        "b",
        "o"
      ],
      [
        "ff",
        "ect"
      ],
      [
        "e",
        "l"
      ],
      [
        "Ġa",
        "c"
      ],
      [
        "ot",
        "h"
      ],
      [
        "ilu",
        "zole"
      ],
      [
        "d",
        "ing"
      ],
      [
        "in",
        "ding"
      ],
      [
        "i",
        "le"
      ],
      [
        "Ġo",
        "ver"
      ],
      [
        "Ġ",
        "he"
      ],
      [
        "Ġm",
        "y"
      ],
      [
        "at",
        "ive"
      ],
      [
        "Ġmechan",
        "ism"
      ],
      [
        "Ġc",
        "or"
      ],
      [
        "oc",
        "iated"
      ],
      [
        "ce",
        "pt"
      ],
      [
        "Ġpat",
        "h"
      ],
      [
        "Ġm",
        "od"
      ],
      [
        "or",
        "t"
      ],
      [
        "Ġmus",
        "cles"
      ],
      [
        "ĠI",
        "n"
      ],
      [
        "Ġp",
        "ar"
      ],
      [
        "Ġdys",
        "function"
      ],
      [
        "c",
        "o"
      ],
      [
        "Ġin",
        "it"
      ],
      [
        "il",
        "ity"
      ],
      [
        "Ġye",
        "ar"
      ],
      [
        "Ġexp",
        "ans"
      ],
      [
        "i",
        "um"
      ],
      [
        "Ġp",
        "er"
      ],
      [
        "Ġa",
        "l"
      ],
      [
        "Ġwh",
        "en"
      ],
      [
        "m",
        "y"
      ],
      [
        "ot",
        "rophic"
      ],
      [
        "my",
        "otrophic"
      ],
      [
        "k",
        "s"
      ],
      [
        "is",
        "t"
      ],
      [
        "Ġdegener",
        "ation"
      ],
      [
        "Ġs",
        "ign"
      ],
      [
        "Ġre",
        "g"
      ],
      [
        "Ġth",
        "an"
      ],
      [
        "if",
        "i"
      ],
      [
        "Ġbe",
        "en"
      ],
      [
        "M",
        "N"
      ],
      [
        "Ġ",
        "ident"
      ],
      [
        "Ġm",
        "ed"
      ],
      [
        "Ġe",
        "xt"
      ],
      [
        "ĠP",
        "h"
      ],
      [
        "Ġprogress",
        "ive"
      ],
      [
        "R",
        "S"
      ],
      [
        "r",
        "ug"
      ],
      [
        "Ġd",
        "rug"
      ],
      [
        "Ġ2",
        "0"
      ],
      [
        "Ġprim",
        "ary"
      ],
      [
        "id",
        "ence"
      ],
      [
        "Ġev",
        "idence"
      ],
      [
        "Ġd",
        "a"
      ],
      [
        "if",
        "f"
      ],
      [
        "at",
        "ment"
      ],
      [
        "re",
        "atment"
      ],
      [
        "Ġce",
        "ll"
      ],
      [
        "Ġch",
        "an"
      ],
      [
        "k",
        "e"
      ],
      [
        "Ġgen",
        "etic"
      ],
      [
        "i",
        "ly"
      ],
      [
        "ur",
        "s"
      ],
      [
        "Ġf",
        "am"
      ],
      [
        "Ġmut",
        "ation"
      ],
      [
        "is",
        "ts"
      ],
      [
        "Ġa",
        "g"
      ],
      [
        "i",
        "om"
      ],
      [
        "iom",
        "ark"
      ],
      [
        "Ġex",
        "c"
      ],
      [
        "7",
        "2"
      ],
      [
        "or",
        "f"
      ],
      [
        "l",
        "ut"
      ],
      [
        "Ġre",
        "cept"
      ],
      [
        "Ġcom",
        "p"
      ],
      [
        "lut",
        "am"
      ],
      [
        "Ġrecept",
        "or"
      ],
      [
        "Ġcon",
        "tro"
      ],
      [
        "Ġ",
        "un"
      ],
      [
        "Ġb",
        "ra"
      ],
      [
        "Ġyear",
        "s"
      ],
      [
        "Ġbra",
        "in"
      ],
      [
        "ug",
        "h"
      ],
      [
        "age",
        "ment"
      ],
      [
        "on",
        "g"
      ],
      [
        "sp",
        "iratory"
      ],
      [
        "unt",
        "ary"
      ],
      [
        "Ġthera",
        "p"
      ],
      [
        "Ġb",
        "ulbar"
      ],
      [
        "Ġ1",
        "0"
      ],
      [
        "is",
        "te"
      ],
      [
        "as",
        "ed"
      ],
      [
        "ul",
        "ation"
      ],
      [
        "Ġl",
        "os"
      ],
      [
        "ver",
        "y"
      ],
      [
        "Ġwe",
        "ak"
      ],
      [
        "Ġsymptom",
        "s"
      ],
      [
        "min",
        "iste"
      ],
      [
        "ministe",
        "red"
      ],
      [
        "Ġde",
        "m"
      ],
      [
        "ĠR",
        "NA"
      ],
      [
        "a",
        "g"
      ],
      [
        "d",
        "it"
      ],
      [
        "Ġf",
        "ol"
      ],
      [
        "Ġn",
        "o"
      ],
      [
        "Ġl",
        "ow"
      ],
      [
        "Ġtr",
        "ans"
      ],
      [
        "Ġfol",
        "low"
      ],
      [
        "Ġ",
        "ra"
      ],
      [
        "Ġre",
        "du"
      ],
      [
        "ĠF",
        "VC"
      ],
      [
        "ad",
        "ic"
      ],
      [
        "ucle",
        "ot"
      ],
      [
        "Ġ1",
        "4"
      ],
      [
        "Ġd",
        "os"
      ],
      [
        "of",
        "ers"
      ],
      [
        "th",
        "s"
      ],
      [
        "Ġmon",
        "ths"
      ],
      [
        "ofers",
        "en"
      ],
      [
        "at",
        "es"
      ],
      [
        "re",
        "s"
      ],
      [
        "ifi",
        "ed"
      ],
      [
        "Ġident",
        "ified"
      ],
      [
        "Ġ",
        "G"
      ],
      [
        "Ġde",
        "vel"
      ],
      [
        "Ġdevel",
        "op"
      ],
      [
        "F",
        "RS"
      ],
      [
        "y",
        "p"
      ],
      [
        "ĠALS",
        "FRS"
      ],
      [
        "a",
        "ce"
      ],
      [
        "Ġe",
        "le"
      ],
      [
        "te",
        "m"
      ],
      [
        "Ġmut",
        "ations"
      ],
      [
        "Ġ",
        "us"
      ],
      [
        "es",
        "t"
      ],
      [
        "ĠF",
        "TD"
      ],
      [
        "Ġfam",
        "il"
      ],
      [
        "m",
        "ed"
      ],
      [
        "ĠA",
        "d"
      ],
      [
        "ig",
        "h"
      ],
      [
        "Ġexc",
        "it"
      ],
      [
        "Ġde",
        "ath"
      ],
      [
        "ox",
        "ic"
      ],
      [
        "on",
        "d"
      ],
      [
        "Ġb",
        "iomark"
      ],
      [
        "Ġinvol",
        "v"
      ],
      [
        "at",
        "he"
      ],
      [
        "athe",
        "c"
      ],
      [
        "a",
        "red"
      ],
      [
        "Ġ",
        "onset"
      ],
      [
        "Ġpar",
        "tic"
      ],
      [
        "Ġcomp",
        "ared"
      ],
      [
        "lutam",
        "ate"
      ],
      [
        "a",
        "f"
      ],
      [
        "olog",
        "y"
      ],
      [
        "v",
        "ation"
      ],
      [
        "Ġc",
        "an"
      ],
      [
        "Ġman",
        "agement"
      ],
      [
        "ons",
        "tr"
      ],
      [
        "Ġle",
        "ad"
      ],
      [
        "Ġdem",
        "onstr"
      ],
      [
        "D",
        "A"
      ],
      [
        "n",
        "ess"
      ],
      [
        "o",
        "u"
      ],
      [
        "ar",
        "av"
      ],
      [
        "ĠE",
        "l"
      ],
      [
        "Ġwe",
        "e"
      ],
      [
        "Ġlos",
        "s"
      ],
      [
        "Ġweak",
        "ness"
      ],
      [
        "arav",
        "one"
      ],
      [
        "Ġ",
        "U"
      ],
      [
        "Ġin",
        "cre"
      ],
      [
        "c",
        "ic"
      ],
      [
        "t",
        "er"
      ],
      [
        "Ġc",
        "ases"
      ],
      [
        "as",
        "cic"
      ],
      [
        "ul",
        "ations"
      ],
      [
        "Ġv",
        "ol"
      ],
      [
        "Ġint",
        "er"
      ],
      [
        "Ġstud",
        "y"
      ],
      [
        "d",
        "e"
      ],
      [
        "v",
        "al"
      ],
      [
        "ve",
        "ment"
      ],
      [
        "pp",
        "er"
      ],
      [
        "ost",
        "ic"
      ],
      [
        "tro",
        "ph"
      ],
      [
        "Ġad",
        "ministered"
      ],
      [
        "en",
        "s"
      ],
      [
        "if",
        "ic"
      ],
      [
        "Ġcaus",
        "e"
      ],
      [
        "ucleot",
        "ide"
      ],
      [
        "Ġlow",
        "er"
      ],
      [
        "in",
        "ation"
      ],
      [
        "A",
        "LS"
      ],
      [
        "T",
        "he"
      ],
      [
        "Ġ5",
        "0"
      ],
      [
        "ace",
        "bo"
      ],
      [
        "S",
        "C"
      ],
      [
        "Ġmed",
        "ian"
      ],
      [
        "Ġd",
        "iff"
      ],
      [
        "Ġwh",
        "ile"
      ],
      [
        "Ġt",
        "reatment"
      ],
      [
        "Ġn",
        "ot"
      ],
      [
        "Ġfamil",
        "ial"
      ],
      [
        "i",
        "ke"
      ],
      [
        "l",
        "u"
      ],
      [
        "y",
        "t"
      ],
      [
        "er",
        "g"
      ],
      [
        "ot",
        "oxic"
      ],
      [
        "otoxic",
        "ity"
      ],
      [
        "a",
        "ment"
      ],
      [
        "ent",
        "il"
      ],
      [
        "Ġinclud",
        "ing"
      ],
      [
        "Ġendpoin",
        "ts"
      ],
      [
        "i",
        "qu"
      ],
      [
        "t",
        "ud"
      ],
      [
        "Ġm",
        "ult"
      ],
      [
        "ĠS",
        "tud"
      ],
      [
        "ff",
        "ic"
      ],
      [
        "Ġt",
        "ech"
      ],
      [
        "Ġreceptor",
        "s"
      ],
      [
        "Ġtech",
        "n"
      ],
      [
        "R",
        "NA"
      ],
      [
        "m",
        "ation"
      ],
      [
        "at",
        "ing"
      ],
      [
        "er",
        "ve"
      ],
      [
        "ro",
        "g"
      ],
      [
        "Ġd",
        "i"
      ],
      [
        "Ġsp",
        "inal"
      ],
      [
        "Ġcor",
        "d"
      ],
      [
        "Ġa",
        "ffect"
      ],
      [
        "or",
        "m"
      ],
      [
        "Ġc",
        "al"
      ],
      [
        "Ġd",
        "ener"
      ],
      [
        "Ġre",
        "spiratory"
      ],
      [
        "Ġinvolv",
        "es"
      ],
      [
        "Ġdener",
        "vation"
      ],
      [
        "Ġ",
        "D"
      ],
      [
        "en",
        "ing"
      ],
      [
        "Ġn",
        "ucle"
      ],
      [
        "Ġimp",
        "ro"
      ],
      [
        "en",
        "g"
      ],
      [
        "ent",
        "ial"
      ],
      [
        "Ġre",
        "s"
      ],
      [
        "Ġappro",
        "ved"
      ],
      [
        "Ġass",
        "ociated"
      ],
      [
        "Ġvol",
        "untary"
      ],
      [
        "Ġa",
        "ct"
      ],
      [
        "Ġt",
        "w"
      ],
      [
        "ĠA",
        "M"
      ],
      [
        "ab",
        "le"
      ],
      [
        "Ġdiagn",
        "osis"
      ],
      [
        "ĠPh",
        "ase"
      ],
      [
        "e",
        "c"
      ],
      [
        "al",
        "l"
      ],
      [
        "ion",
        "al"
      ],
      [
        "Ġw",
        "he"
      ],
      [
        "Ġcon",
        "dit"
      ],
      [
        "ab",
        "ility"
      ],
      [
        "Ġstud",
        "ies"
      ],
      [
        "m",
        "ain"
      ],
      [
        "Ġ",
        "O"
      ],
      [
        "er",
        "ized"
      ],
      [
        "Ġs",
        "clerosis"
      ],
      [
        "ar",
        "act"
      ],
      [
        "Ġre",
        "main"
      ],
      [
        "om",
        "ized"
      ],
      [
        "Ġl",
        "ateral"
      ],
      [
        "Ġch",
        "aract"
      ],
      [
        "Ġimp",
        "a"
      ],
      [
        "Ġu",
        "pper"
      ],
      [
        "Ġexpans",
        "ion"
      ],
      [
        "Ġcharact",
        "erized"
      ],
      [
        "Ġf",
        "ascic"
      ],
      [
        "ĠF",
        "DA"
      ],
      [
        "olog",
        "ical"
      ],
      [
        "Ġit",
        "s"
      ],
      [
        "Ġcell",
        "s"
      ],
      [
        "as",
        "t"
      ],
      [
        "ph",
        "ag"
      ],
      [
        "od",
        "y"
      ],
      [
        "Ġendpoin",
        "t"
      ],
      [
        "c",
        "or"
      ],
      [
        "Ġb",
        "oth"
      ],
      [
        "o",
        "re"
      ],
      [
        "Ġm",
        "et"
      ],
      [
        "Ġc",
        "o"
      ],
      [
        "Ġre",
        "qu"
      ],
      [
        "an",
        "t"
      ],
      [
        "u",
        "e"
      ],
      [
        "Ġf",
        "ir"
      ],
      [
        "od",
        "ium"
      ],
      [
        "Ġfir",
        "st"
      ],
      [
        "Ġde",
        "cl"
      ],
      [
        "Ġu",
        "nd"
      ],
      [
        "Ġdecl",
        "ine"
      ],
      [
        "Ġ",
        "on"
      ],
      [
        "Ġph",
        "en"
      ],
      [
        "U",
        "S"
      ],
      [
        "r",
        "y"
      ],
      [
        "ĠF",
        "US"
      ],
      [
        "Ġl",
        "ike"
      ],
      [
        "Ġca",
        "re"
      ],
      [
        "f",
        "L"
      ],
      [
        "f",
        "il"
      ],
      [
        "Ġe",
        "ar"
      ],
      [
        "Ġexcit",
        "otoxicity"
      ],
      [
        "fil",
        "ament"
      ],
      [
        "if",
        "e"
      ],
      [
        "ar",
        "d"
      ],
      [
        "as",
        "m"
      ],
      [
        "Ġv",
        "entil"
      ],
      [
        "c",
        "ess"
      ],
      [
        "g",
        "et"
      ],
      [
        "Ġm",
        "ic"
      ],
      [
        "he",
        "s"
      ],
      [
        "ar",
        "get"
      ],
      [
        "Ġe",
        "m"
      ],
      [
        "athec",
        "ally"
      ],
      [
        "arget",
        "ing"
      ],
      [
        "S",
        "O"
      ],
      [
        "T",
        "X"
      ],
      [
        "ĠA",
        "TX"
      ],
      [
        "im",
        "b"
      ],
      [
        "Ġmechanism",
        "s"
      ],
      [
        "igh",
        "t"
      ],
      [
        "ĠATX",
        "N"
      ],
      [
        "p",
        "ort"
      ],
      [
        "Ġ",
        "qu"
      ],
      [
        "ĠT",
        "ofersen"
      ],
      [
        "ol",
        "d"
      ],
      [
        "Ġwith",
        "in"
      ],
      [
        "Ġst",
        "ress"
      ],
      [
        "Ġbiomark",
        "er"
      ],
      [
        "orm",
        "al"
      ],
      [
        "l",
        "oc"
      ],
      [
        "r",
        "ial"
      ],
      [
        "ac",
        "y"
      ],
      [
        "ib",
        "le"
      ],
      [
        "Ġlead",
        "s"
      ],
      [
        "ffic",
        "acy"
      ],
      [
        "c",
        "c"
      ],
      [
        "Ġ",
        "4"
      ],
      [
        "us",
        "ion"
      ],
      [
        "et",
        "y"
      ],
      [
        "Ġo",
        "cc"
      ],
      [
        "Ġag",
        "g"
      ],
      [
        "Ġcontro",
        "l"
      ],
      [
        "af",
        "ety"
      ],
      [
        "Ġcal",
        "c"
      ],
      [
        "f",
        "l"
      ],
      [
        "h",
        "is"
      ],
      [
        "t",
        "is"
      ],
      [
        "in",
        "fl"
      ],
      [
        "en",
        "se"
      ],
      [
        "Ġs",
        "c"
      ],
      [
        "Ġw",
        "or"
      ],
      [
        "ĠT",
        "his"
      ],
      [
        "iv",
        "er"
      ],
      [
        "ig",
        "on"
      ],
      [
        "am",
        "mation"
      ],
      [
        "Ġo",
        "x"
      ],
      [
        "Ġtechn",
        "ology"
      ],
      [
        "tis",
        "ense"
      ],
      [
        "infl",
        "ammation"
      ],
      [
        "al",
        "ity"
      ],
      [
        "Ġc",
        "ons"
      ],
      [
        "ro",
        "ugh"
      ],
      [
        "an",
        "e"
      ],
      [
        "Ġe",
        "very"
      ],
      [
        "Ġth",
        "rough"
      ],
      [
        "Ġg",
        "lutamate"
      ],
      [
        "Ġdiagn",
        "ostic"
      ],
      [
        "ĠStud",
        "y"
      ],
      [
        "a",
        "j"
      ],
      [
        "d",
        "aravone"
      ],
      [
        "Ġ",
        "B"
      ],
      [
        "Ġp",
        "op"
      ],
      [
        "ut",
        "rit"
      ],
      [
        "Ġint",
        "r"
      ],
      [
        "Ġrepeat",
        "s"
      ],
      [
        "ĠL",
        "ateral"
      ],
      [
        "c",
        "od"
      ],
      [
        "f",
        "er"
      ],
      [
        "l",
        "ic"
      ],
      [
        "u",
        "te"
      ],
      [
        "Ġ",
        "W"
      ],
      [
        "Ġ",
        "one"
      ],
      [
        "Ġen",
        "cod"
      ],
      [
        "Ġwee",
        "ks"
      ],
      [
        "Ġnucle",
        "ar"
      ],
      [
        "Ġcondit",
        "ions"
      ],
      [
        "b",
        "ination"
      ],
      [
        "p",
        "er"
      ],
      [
        "Ġp",
        "ot"
      ],
      [
        "an",
        "ce"
      ],
      [
        "Ġcom",
        "bination"
      ],
      [
        "Ġspe",
        "ech"
      ],
      [
        "Ġres",
        "ults"
      ],
      [
        "Ġpot",
        "ential"
      ],
      [
        "f",
        "ree"
      ],
      [
        "v",
        "is"
      ],
      [
        "Ġa",
        "troph"
      ],
      [
        "en",
        "e"
      ],
      [
        "Ġp",
        "ress"
      ],
      [
        "Ġde",
        "f"
      ],
      [
        "Ġint",
        "ra"
      ],
      [
        "du",
        "ction"
      ],
      [
        "el",
        "s"
      ],
      [
        "Ġinit",
        "ial"
      ],
      [
        "Ġremain",
        "s"
      ],
      [
        "vis",
        "ed"
      ],
      [
        "Ġpress",
        "ure"
      ],
      [
        "d",
        "ay"
      ],
      [
        "it",
        "s"
      ],
      [
        "as",
        "tic"
      ],
      [
        "om",
        "e"
      ],
      [
        "Ġext",
        "end"
      ],
      [
        "Ġda",
        "ys"
      ],
      [
        "Ġtherap",
        "y"
      ],
      [
        "Ġfollow",
        "ed"
      ],
      [
        "Ġm",
        "g"
      ],
      [
        "or",
        "adic"
      ],
      [
        "Ġf",
        "e"
      ],
      [
        "iv",
        "ed"
      ],
      [
        "Ġsp",
        "oradic"
      ],
      [
        "Ġr",
        "iluzole"
      ],
      [
        "M",
        "A"
      ],
      [
        "m",
        "end"
      ],
      [
        "it",
        "or"
      ],
      [
        "Ġs",
        "odium"
      ],
      [
        "Ġre",
        "com"
      ],
      [
        "os",
        "ed"
      ],
      [
        "Ġshow",
        "ed"
      ],
      [
        "mend",
        "ed"
      ],
      [
        "Ġrecom",
        "mended"
      ],
      [
        "i",
        "P"
      ],
      [
        "al",
        "u"
      ],
      [
        "us",
        "ions"
      ],
      [
        "ox",
        "ide"
      ],
      [
        "s",
        "cor"
      ],
      [
        "ĠE",
        "scor"
      ],
      [
        "Ġme",
        "et"
      ],
      [
        "ll",
        "ed"
      ],
      [
        "ab",
        "ol"
      ],
      [
        "Ġpl",
        "acebo"
      ],
      [
        "Ġda",
        "ily"
      ],
      [
        "Ġmet",
        "abol"
      ],
      [
        "ĠEscor",
        "ial"
      ],
      [
        "F",
        "TD"
      ],
      [
        "or",
        "al"
      ],
      [
        "Ġele",
        "ct"
      ],
      [
        "a",
        "p"
      ],
      [
        "ver",
        "se"
      ],
      [
        "ar",
        "ian"
      ],
      [
        "Ġv",
        "arian"
      ],
      [
        "l",
        "ing"
      ],
      [
        "ĠA",
        "ss"
      ],
      [
        "ĠE",
        "x"
      ],
      [
        "Ġcalc",
        "ium"
      ],
      [
        "S",
        "F"
      ],
      [
        "ic",
        "ation"
      ],
      [
        "un",
        "ication"
      ],
      [
        "Ġcomm",
        "unication"
      ],
      [
        "k",
        "ing"
      ],
      [
        "p",
        "ac"
      ],
      [
        "Ġf",
        "lu"
      ],
      [
        "Ġca",
        "pac"
      ],
      [
        "Ġch",
        "ain"
      ],
      [
        "Ġflu",
        "id"
      ],
      [
        "Ġcapac",
        "ity"
      ],
      [
        "re",
        "b"
      ],
      [
        "Ġst",
        "and"
      ],
      [
        "Ġneuro",
        "filament"
      ],
      [
        "Ġstand",
        "ard"
      ],
      [
        "o",
        "ch"
      ],
      [
        "it",
        "och"
      ],
      [
        "ond",
        "rial"
      ],
      [
        "Ġear",
        "ly"
      ],
      [
        "itoch",
        "ondrial"
      ],
      [
        "c",
        "ip"
      ],
      [
        "l",
        "ia"
      ],
      [
        "is",
        "cip"
      ],
      [
        "ar",
        "ch"
      ],
      [
        "id",
        "iscip"
      ],
      [
        "Ġl",
        "imb"
      ],
      [
        "lin",
        "ary"
      ],
      [
        "rog",
        "lia"
      ],
      [
        "Ġmic",
        "roglia"
      ],
      [
        "idiscip",
        "linary"
      ],
      [
        "l",
        "asm"
      ],
      [
        "l",
        "iver"
      ],
      [
        "re",
        "g"
      ],
      [
        "al",
        "e"
      ],
      [
        "Ġc",
        "yt"
      ],
      [
        "ĠA",
        "SO"
      ],
      [
        "Ġde",
        "liver"
      ],
      [
        "Ġl",
        "ife"
      ],
      [
        "ra",
        "c"
      ],
      [
        "qu",
        "ent"
      ],
      [
        "op",
        "lasm"
      ],
      [
        "sp",
        "inal"
      ],
      [
        "Ġsu",
        "ch"
      ],
      [
        "Ġinit",
        "iated"
      ],
      [
        "Ġexpans",
        "ions"
      ],
      [
        "Ġtrans",
        "port"
      ],
      [
        "Ġqu",
        "ality"
      ],
      [
        "Ġagg",
        "reg"
      ],
      [
        "Ġcyt",
        "oplasm"
      ],
      [
        "Ġdeliver",
        "y"
      ],
      [
        "i",
        "ate"
      ],
      [
        "Ġt",
        "argeting"
      ],
      [
        "Ġs",
        "cre"
      ],
      [
        "Ġp",
        "red"
      ],
      [
        "Ġthe",
        "ir"
      ],
      [
        "id",
        "ative"
      ],
      [
        "Ġpro",
        "cess"
      ],
      [
        "Ġh",
        "yp"
      ],
      [
        "ig",
        "ible"
      ],
      [
        "Ġsu",
        "pp"
      ],
      [
        "Ġventil",
        "ation"
      ],
      [
        "Ġox",
        "idative"
      ],
      [
        "Ġintr",
        "athecally"
      ],
      [
        "Ġscre",
        "ening"
      ],
      [
        "i",
        "red"
      ],
      [
        "w",
        "al"
      ],
      [
        "in",
        "s"
      ],
      [
        "Ġm",
        "is"
      ],
      [
        "Ġin",
        "f"
      ],
      [
        "Ġs",
        "wal"
      ],
      [
        "an",
        "ts"
      ],
      [
        "ow",
        "n"
      ],
      [
        "Ġfor",
        "m"
      ],
      [
        "ys",
        "ical"
      ],
      [
        "Ġneuro",
        "inflammation"
      ],
      [
        "low",
        "ing"
      ],
      [
        "ip",
        "ants"
      ],
      [
        "ĠAd",
        "ults"
      ],
      [
        "Ġpartic",
        "ipants"
      ],
      [
        "Ġtw",
        "it"
      ],
      [
        "Ġimpa",
        "ired"
      ],
      [
        "Ġswal",
        "lowing"
      ],
      [
        "R",
        "adic"
      ],
      [
        "b",
        "iqu"
      ],
      [
        "c",
        "es"
      ],
      [
        "l",
        "og"
      ],
      [
        "m",
        "e"
      ],
      [
        "p",
        "osed"
      ],
      [
        "s",
        "o"
      ],
      [
        "Ġn",
        "erve"
      ],
      [
        "Ġn",
        "ormal"
      ],
      [
        "Ġpro",
        "v"
      ],
      [
        "Ġpro",
        "posed"
      ],
      [
        "Ġg",
        "ra"
      ],
      [
        "Ġv",
        "it"
      ],
      [
        "og",
        "en"
      ],
      [
        "ll",
        "ing"
      ],
      [
        "Ġneuro",
        "log"
      ],
      [
        "av",
        "a"
      ],
      [
        "Ġu",
        "biqu"
      ],
      [
        "tr",
        "ib"
      ],
      [
        "Ġwas",
        "t"
      ],
      [
        "ular",
        "ly"
      ],
      [
        "oth",
        "er"
      ],
      [
        "Ġpath",
        "ogen"
      ],
      [
        "Ġal",
        "so"
      ],
      [
        "Ġcontro",
        "lling"
      ],
      [
        "Ġdevelop",
        "ment"
      ],
      [
        "Ġpartic",
        "ularly"
      ],
      [
        "Ġdemonstr",
        "ated"
      ],
      [
        "Ġaffect",
        "ed"
      ],
      [
        "ane",
        "ous"
      ],
      [
        "Radic",
        "ava"
      ],
      [
        "Ġgra",
        "du"
      ],
      [
        "Ġubiqu",
        "it"
      ],
      [
        "A",
        "myotrophic"
      ],
      [
        "o",
        "vement"
      ],
      [
        "r",
        "on"
      ],
      [
        "Ġ",
        "ed"
      ],
      [
        "at",
        "ic"
      ],
      [
        "Ġm",
        "RNA"
      ],
      [
        "Ġm",
        "ovement"
      ],
      [
        "Ġs",
        "low"
      ],
      [
        "as",
        "ure"
      ],
      [
        "ce",
        "ll"
      ],
      [
        "Ġcon",
        "f"
      ],
      [
        "Ġme",
        "asure"
      ],
      [
        "Ġsign",
        "al"
      ],
      [
        "ong",
        "er"
      ],
      [
        "phag",
        "ia"
      ],
      [
        "igon",
        "ucleotide"
      ],
      [
        "cell",
        "ular"
      ],
      [
        "d",
        "ical"
      ],
      [
        "i",
        "od"
      ],
      [
        "m",
        "p"
      ],
      [
        "n",
        "osis"
      ],
      [
        "u",
        "b"
      ],
      [
        "u",
        "ally"
      ],
      [
        "v",
        "ing"
      ],
      [
        "w",
        "ay"
      ],
      [
        "Ġm",
        "ay"
      ],
      [
        "Ġp",
        "os"
      ],
      [
        "ic",
        "h"
      ],
      [
        "ĠA",
        "myotrophic"
      ],
      [
        "ĠS",
        "clerosis"
      ],
      [
        "ĠE",
        "daravone"
      ],
      [
        "Ġwh",
        "ich"
      ],
      [
        "Ġprog",
        "nosis"
      ],
      [
        "Ġac",
        "co"
      ],
      [
        "Ġmod",
        "els"
      ],
      [
        "Ġper",
        "iod"
      ],
      [
        "Ġ20",
        "1"
      ],
      [
        "Ġra",
        "dical"
      ],
      [
        "ond",
        "ary"
      ],
      [
        "ou",
        "nd"
      ],
      [
        "Ġincre",
        "ased"
      ],
      [
        "ec",
        "ondary"
      ],
      [
        "Ġund",
        "er"
      ],
      [
        "Ġpos",
        "it"
      ],
      [
        "w",
        "aj"
      ],
      [
        "Ġ",
        "ol"
      ],
      [
        "er",
        "c"
      ],
      [
        "as",
        "s"
      ],
      [
        "ĠA",
        "waj"
      ],
      [
        "Ġb",
        "ody"
      ],
      [
        "Ġdis",
        "co"
      ],
      [
        "Ġan",
        "tisense"
      ],
      [
        "Ġprogress",
        "ion"
      ],
      [
        "com",
        "e"
      ],
      [
        "Ġprotein",
        "s"
      ],
      [
        "Ġreg",
        "ions"
      ],
      [
        "Ġdi",
        "et"
      ],
      [
        "eng",
        "th"
      ],
      [
        "ĠW",
        "h"
      ],
      [
        "ĠAwaj",
        "i"
      ],
      [
        "Ġdisco",
        "very"
      ],
      [
        "p",
        "end"
      ],
      [
        "v",
        "en"
      ],
      [
        "v",
        "ated"
      ],
      [
        "Ġ",
        "k"
      ],
      [
        "as",
        "tro"
      ],
      [
        "Ġf",
        "inding"
      ],
      [
        "Ġb",
        "ut"
      ],
      [
        "om",
        "y"
      ],
      [
        "Ġg",
        "astro"
      ],
      [
        "Ġme",
        "ans"
      ],
      [
        "Ġwh",
        "o"
      ],
      [
        "Ġdise",
        "ases"
      ],
      [
        "Ġappro",
        "val"
      ],
      [
        "Ġneuro",
        "p"
      ],
      [
        "Ġimp",
        "lic"
      ],
      [
        "Ġmon",
        "itor"
      ],
      [
        "Ġ10",
        "0"
      ],
      [
        "Ġele",
        "vated"
      ],
      [
        "ĠU",
        "MN"
      ],
      [
        "de",
        "pend"
      ],
      [
        "Ġfascic",
        "ulations"
      ],
      [
        "astic",
        "ity"
      ],
      [
        "ven",
        "ous"
      ],
      [
        "Ġmonitor",
        "ing"
      ],
      [
        "depend",
        "ent"
      ],
      [
        "n",
        "ect"
      ],
      [
        "p",
        "res"
      ],
      [
        "r",
        "u"
      ],
      [
        "r",
        "um"
      ],
      [
        "on",
        "tro"
      ],
      [
        "is",
        "k"
      ],
      [
        "Ġs",
        "e"
      ],
      [
        "Ġre",
        "vised"
      ],
      [
        "Ġre",
        "pres"
      ],
      [
        "ct",
        "rum"
      ],
      [
        "Ġev",
        "alu"
      ],
      [
        "and",
        "omized"
      ],
      [
        "Ġr",
        "isk"
      ],
      [
        "Ġass",
        "ess"
      ],
      [
        "Ġspe",
        "ctrum"
      ],
      [
        "Ġsign",
        "s"
      ],
      [
        "Ġdos",
        "es"
      ],
      [
        "Ġatroph",
        "y"
      ],
      [
        "Ġextend",
        "s"
      ],
      [
        "ontro",
        "lled"
      ],
      [
        "Ġevalu",
        "ates"
      ],
      [
        "9",
        "9"
      ],
      [
        "Ġf",
        "at"
      ],
      [
        "ir",
        "ing"
      ],
      [
        "Ġ1",
        "99"
      ],
      [
        "Ġtrial",
        "s"
      ],
      [
        "Ġreg",
        "ion"
      ],
      [
        "Ġrequ",
        "iring"
      ],
      [
        "d",
        "er"
      ],
      [
        "h",
        "ib"
      ],
      [
        "x",
        "an"
      ],
      [
        "Ġ",
        "H"
      ],
      [
        "at",
        "ients"
      ],
      [
        "Ġb",
        "inding"
      ],
      [
        "ĠThe",
        "se"
      ],
      [
        "Ġcon",
        "t"
      ],
      [
        "ys",
        "i"
      ],
      [
        "ĠP",
        "atients"
      ],
      [
        "Ġincl",
        "usions"
      ],
      [
        "Ġev",
        "ents"
      ],
      [
        "Ġinvol",
        "ved"
      ],
      [
        "Ġsu",
        "per"
      ],
      [
        "Ġhe",
        "xan"
      ],
      [
        "Ġext",
        "ens"
      ],
      [
        "Ġ20",
        "2"
      ],
      [
        "iP",
        "SC"
      ],
      [
        "der",
        "ived"
      ],
      [
        "Ġsuper",
        "oxide"
      ],
      [
        "Ġhexan",
        "ucleotide"
      ],
      [
        "e",
        "en"
      ],
      [
        "w",
        "een"
      ],
      [
        "Ġb",
        "et"
      ],
      [
        "th",
        "r"
      ],
      [
        "Ġbet",
        "ween"
      ],
      [
        "a",
        "us"
      ],
      [
        "a",
        "il"
      ],
      [
        "b",
        "inding"
      ],
      [
        "Ġe",
        "ffect"
      ],
      [
        "ical",
        "ly"
      ],
      [
        "ĠR",
        "iluzole"
      ],
      [
        "aus",
        "e"
      ],
      [
        "0",
        "0"
      ],
      [
        "3",
        "5"
      ],
      [
        "a",
        "ur"
      ],
      [
        "b",
        "ut"
      ],
      [
        "c",
        "ific"
      ],
      [
        "i",
        "ol"
      ],
      [
        "l",
        "but"
      ],
      [
        "r",
        "ate"
      ],
      [
        "s",
        "pe"
      ],
      [
        "y",
        "lbut"
      ],
      [
        "y",
        "rate"
      ],
      [
        "Ġs",
        "ome"
      ],
      [
        "Ġth",
        "ree"
      ],
      [
        "od",
        "iol"
      ],
      [
        "urs",
        "odiol"
      ],
      [
        "ĠAM",
        "X"
      ],
      [
        "Ġphen",
        "ot"
      ],
      [
        "00",
        "35"
      ],
      [
        "aur",
        "ursodiol"
      ],
      [
        "spe",
        "cific"
      ],
      [
        "ylbut",
        "yrate"
      ],
      [
        "Ġo",
        "p"
      ],
      [
        "Ġad",
        "verse"
      ],
      [
        "Ġa",
        "ut"
      ],
      [
        "Ġt",
        "ofersen"
      ],
      [
        "ic",
        "ult"
      ],
      [
        "os",
        "e"
      ],
      [
        "Ġl",
        "in"
      ],
      [
        "Ġdiff",
        "icult"
      ],
      [
        "p",
        "le"
      ],
      [
        "he",
        "d"
      ],
      [
        "ic",
        "e"
      ],
      [
        "th",
        "er"
      ],
      [
        "Ġvarian",
        "ts"
      ],
      [
        "l",
        "p"
      ],
      [
        "Ġhe",
        "lp"
      ],
      [
        "Ġchan",
        "g"
      ],
      [
        "ry",
        "ing"
      ],
      [
        "Ġde",
        "c"
      ],
      [
        "olog",
        "ists"
      ],
      [
        "Ġtherap",
        "ists"
      ],
      [
        "P",
        "A"
      ],
      [
        "Ġm",
        "itochondrial"
      ],
      [
        "ĠC",
        "SF"
      ],
      [
        "ĠN",
        "fL"
      ],
      [
        "Ġchan",
        "ge"
      ],
      [
        "ĠEl",
        "igible"
      ],
      [
        "ĠAM",
        "PA"
      ],
      [
        "ĠAss",
        "ociated"
      ],
      [
        "ĠEx",
        "p"
      ],
      [
        "A",
        "A"
      ],
      [
        "N",
        "fL"
      ],
      [
        "ro",
        "spinal"
      ],
      [
        "Ġp",
        "re"
      ],
      [
        "Ġre",
        "se"
      ],
      [
        "Ġl",
        "ight"
      ],
      [
        "Ġinclud",
        "es"
      ],
      [
        "Ġle",
        "vel"
      ],
      [
        "Ġph",
        "ysical"
      ],
      [
        "Ġce",
        "reb"
      ],
      [
        "Ġmod",
        "ific"
      ],
      [
        "Ġrese",
        "arch"
      ],
      [
        "Ġlevel",
        "s"
      ],
      [
        "Ġcereb",
        "rospinal"
      ],
      [
        "7",
        "5"
      ],
      [
        "c",
        "ial"
      ],
      [
        "g",
        "u"
      ],
      [
        "m",
        "ac"
      ],
      [
        "o",
        "ly"
      ],
      [
        "u",
        "p"
      ],
      [
        "Ġ",
        "8"
      ],
      [
        "Ġp",
        "oly"
      ],
      [
        "ar",
        "mac"
      ],
      [
        "an",
        "gu"
      ],
      [
        "Ġat",
        "t"
      ],
      [
        "Ġph",
        "armac"
      ],
      [
        "bo",
        "ut"
      ],
      [
        "ĠIn",
        "tr"
      ],
      [
        "erg",
        "ing"
      ],
      [
        "Ġprocess",
        "ing"
      ],
      [
        "Ġvit",
        "al"
      ],
      [
        "angu",
        "age"
      ],
      [
        "P",
        "E"
      ],
      [
        "R",
        "I"
      ],
      [
        "c",
        "ent"
      ],
      [
        "l",
        "o"
      ],
      [
        "l",
        "ated"
      ],
      [
        "n",
        "er"
      ],
      [
        "Ġa",
        "b"
      ],
      [
        "it",
        "ies"
      ],
      [
        "Ġs",
        "co"
      ],
      [
        "ĠA",
        "n"
      ],
      [
        "os",
        "ph"
      ],
      [
        "cl",
        "ud"
      ],
      [
        "Ġex",
        "clud"
      ],
      [
        "se",
        "quent"
      ],
      [
        "ory",
        "lated"
      ],
      [
        "ĠM",
        "otor"
      ],
      [
        "Ġsu",
        "b"
      ],
      [
        "ip",
        "le"
      ],
      [
        "Ġcor",
        "re"
      ],
      [
        "Ġfollow",
        "ing"
      ],
      [
        "Ġmult",
        "iple"
      ],
      [
        "Ġconf",
        "ir"
      ],
      [
        "osph",
        "orylated"
      ],
      [
        "N",
        "I"
      ],
      [
        "a",
        "x"
      ],
      [
        "c",
        "yt"
      ],
      [
        "l",
        "es"
      ],
      [
        "x",
        "on"
      ],
      [
        "in",
        "ated"
      ],
      [
        "al",
        "iz"
      ],
      [
        "as",
        "is"
      ],
      [
        "Ġf",
        "ra"
      ],
      [
        "Ġf",
        "ound"
      ],
      [
        "Ġn",
        "utrit"
      ],
      [
        "ur",
        "se"
      ],
      [
        "Ġto",
        "x"
      ],
      [
        "ra",
        "ph"
      ],
      [
        "Ġare",
        "a"
      ],
      [
        "Ġas",
        "tro"
      ],
      [
        "ost",
        "asis"
      ],
      [
        "og",
        "raph"
      ],
      [
        "Ġint",
        "era"
      ],
      [
        "ĠM",
        "ut"
      ],
      [
        "Ġat",
        "ax"
      ],
      [
        "Ġprote",
        "ostasis"
      ],
      [
        "Ġredu",
        "ced"
      ],
      [
        "med",
        "iated"
      ],
      [
        "med",
        "iate"
      ],
      [
        "Ġco",
        "urse"
      ],
      [
        "loc",
        "aliz"
      ],
      [
        "ĠASO",
        "s"
      ],
      [
        "Ġaggreg",
        "ation"
      ],
      [
        "Ġcytoplasm",
        "ic"
      ],
      [
        "Ġmis",
        "localiz"
      ],
      [
        "Ġubiquit",
        "inated"
      ],
      [
        "cyt",
        "es"
      ],
      [
        "xon",
        "al"
      ],
      [
        "Ġastro",
        "cytes"
      ],
      [
        "ograph",
        "y"
      ],
      [
        "Ġintera",
        "ction"
      ],
      [
        "c",
        "hes"
      ],
      [
        "e",
        "uro"
      ],
      [
        "m",
        "on"
      ],
      [
        "Ġ",
        "ro"
      ],
      [
        "er",
        "ability"
      ],
      [
        "ic",
        "t"
      ],
      [
        "Ġe",
        "fficacy"
      ],
      [
        "te",
        "ct"
      ],
      [
        "ol",
        "erability"
      ],
      [
        "id",
        "ine"
      ],
      [
        "Ġl",
        "ess"
      ],
      [
        "ĠS",
        "afety"
      ],
      [
        "ĠS",
        "ub"
      ],
      [
        "Ġ1",
        "8"
      ],
      [
        "ys",
        "phagia"
      ],
      [
        "ĠE",
        "val"
      ],
      [
        "ĠE",
        "fficacy"
      ],
      [
        "Ġmus",
        "t"
      ],
      [
        "Ġinvol",
        "untary"
      ],
      [
        "Ġexp",
        "ress"
      ],
      [
        "ect",
        "s"
      ],
      [
        "Ġclinical",
        "ly"
      ],
      [
        "ĠN",
        "euro"
      ],
      [
        "Ġus",
        "ed"
      ],
      [
        "Ġinter",
        "fer"
      ],
      [
        "Ġwhe",
        "re"
      ],
      [
        "Ġpop",
        "ulation"
      ],
      [
        "Ġpred",
        "ict"
      ],
      [
        "Ġsupp",
        "ort"
      ],
      [
        "Ġtwit",
        "ches"
      ],
      [
        "Ġpathogen",
        "ic"
      ],
      [
        "ĠEval",
        "u"
      ],
      [
        "Ġinterfer",
        "ence"
      ],
      [
        "'",
        "s"
      ],
      [
        "B",
        "A"
      ],
      [
        "R",
        "e"
      ],
      [
        "R",
        "es"
      ],
      [
        "a",
        "ppro"
      ],
      [
        "g",
        "ins"
      ],
      [
        "h",
        "ment"
      ],
      [
        "n",
        "own"
      ],
      [
        "o",
        "ugh"
      ],
      [
        "s",
        "tem"
      ],
      [
        "u",
        "ment"
      ],
      [
        "Ġ",
        "9"
      ],
      [
        "Ġ",
        "ke"
      ],
      [
        "Ġa",
        "way"
      ],
      [
        "is",
        "hment"
      ],
      [
        "ro",
        "p"
      ],
      [
        "Ġd",
        "oc"
      ],
      [
        "Ġs",
        "afety"
      ],
      [
        "Ġf",
        "ree"
      ],
      [
        "Ġb",
        "loc"
      ],
      [
        "le",
        "ct"
      ],
      [
        "ur",
        "ishment"
      ],
      [
        "Ġth",
        "ough"
      ],
      [
        "ĠS",
        "econdary"
      ],
      [
        "Ġcon",
        "duction"
      ],
      [
        "Ġbe",
        "gins"
      ],
      [
        "av",
        "eng"
      ],
      [
        "Ġclin",
        "ic"
      ],
      [
        "Ġprogress",
        "es"
      ],
      [
        "Ġen",
        "ab"
      ],
      [
        "Ġshow",
        "s"
      ],
      [
        "Ġbrain",
        "stem"
      ],
      [
        "Ġno",
        "urishment"
      ],
      [
        "Ġdos",
        "e"
      ],
      [
        "Ġbiomark",
        "ers"
      ],
      [
        "Ġdemonstr",
        "ating"
      ],
      [
        "Ġmult",
        "idisciplinary"
      ],
      [
        "Ġsc",
        "aveng"
      ],
      [
        "Ġencod",
        "ing"
      ],
      [
        "Ġwast",
        "ing"
      ],
      [
        "Ġgradu",
        "al"
      ],
      [
        "Ġ201",
        "7"
      ],
      [
        "Ġk",
        "nown"
      ],
      [
        "appro",
        "ved"
      ],
      [
        "ument",
        "ed"
      ],
      [
        "Ġke",
        "y"
      ],
      [
        "Ġdoc",
        "umented"
      ],
      [
        "Ġbloc",
        "k"
      ],
      [
        "Ġscaveng",
        "er"
      ],
      [
        ")",
        "."
      ],
      [
        "B",
        "P"
      ],
      [
        "S",
        "P"
      ],
      [
        "c",
        "op"
      ],
      [
        "i",
        "e"
      ],
      [
        "o",
        "ad"
      ],
      [
        "p",
        "iratory"
      ],
      [
        "v",
        "as"
      ],
      [
        "in",
        "ant"
      ],
      [
        "in",
        "vas"
      ],
      [
        "at",
        "ure"
      ],
      [
        "Ġt",
        "im"
      ],
      [
        "Ġt",
        "rac"
      ],
      [
        "ed",
        "s"
      ],
      [
        "Ġin",
        "spiratory"
      ],
      [
        "nd",
        "omized"
      ],
      [
        "Ġf",
        "ail"
      ],
      [
        "om",
        "inant"
      ],
      [
        "os",
        "cop"
      ],
      [
        "Ġde",
        "cre"
      ],
      [
        "ut",
        "aneous"
      ],
      [
        "Ġl",
        "oad"
      ],
      [
        "Ġcon",
        "trib"
      ],
      [
        "Ġbe",
        "low"
      ],
      [
        "Ġ2",
        "8"
      ],
      [
        "Ġneuro",
        "de"
      ],
      [
        "Ġwe",
        "ight"
      ],
      [
        "Ġad",
        "ults"
      ],
      [
        "Ġad",
        "dit"
      ],
      [
        "Ġend",
        "oscop"
      ],
      [
        "ĠN",
        "on"
      ],
      [
        "gener",
        "ative"
      ],
      [
        "Ġcaus",
        "ed"
      ],
      [
        "st",
        "omy"
      ],
      [
        "Ġshow",
        "n"
      ],
      [
        "act",
        "ive"
      ],
      [
        "Ġra",
        "ndomized"
      ],
      [
        "af",
        "e"
      ],
      [
        "Ġwee",
        "k"
      ],
      [
        "Ġact",
        "iv"
      ],
      [
        "Ġfe",
        "ature"
      ],
      [
        "Ġsignal",
        "ing"
      ],
      [
        "Ġgastro",
        "stomy"
      ],
      [
        "invas",
        "ive"
      ],
      [
        "Ġfail",
        "ure"
      ],
      [
        "Ġdecre",
        "ased"
      ],
      [
        "Ġload",
        "ing"
      ],
      [
        "Ġcontrib",
        "ute"
      ],
      [
        "Ġneurode",
        "generative"
      ],
      [
        "Ġaddit",
        "ional"
      ],
      [
        "Ġendoscop",
        "ic"
      ],
      [
        "1",
        "0"
      ],
      [
        "B",
        "lin"
      ],
      [
        "C",
        "ontrolled"
      ],
      [
        "b",
        "le"
      ],
      [
        "l",
        "acebo"
      ],
      [
        "y",
        "cles"
      ],
      [
        "Ġ",
        "other"
      ],
      [
        "Ġm",
        "im"
      ],
      [
        "is",
        "s"
      ],
      [
        "Ġc",
        "ycles"
      ],
      [
        "Ġp",
        "res"
      ],
      [
        "Ġb",
        "en"
      ],
      [
        "ent",
        "ually"
      ],
      [
        "ĠT",
        "reatment"
      ],
      [
        "ly",
        "ing"
      ],
      [
        "ut",
        "come"
      ],
      [
        "Ġl",
        "onger"
      ],
      [
        "Ġpro",
        "m"
      ],
      [
        "ĠS",
        "c"
      ],
      [
        "Ġo",
        "utcome"
      ],
      [
        "Ġ2",
        "4"
      ],
      [
        "ĠP",
        "lacebo"
      ],
      [
        "Ġneuro",
        "troph"
      ],
      [
        "ĠR",
        "andomized"
      ],
      [
        "Ġinvol",
        "vement"
      ],
      [
        "Ġshow",
        "ing"
      ],
      [
        "Ġfunction",
        "al"
      ],
      [
        "ĠL",
        "MN"
      ],
      [
        "ou",
        "ble"
      ],
      [
        "ĠD",
        "ouble"
      ],
      [
        "Ġcons",
        "ist"
      ],
      [
        "Ġintra",
        "venous"
      ],
      [
        "Ġed",
        "aravone"
      ],
      [
        "Ġacco",
        "unt"
      ],
      [
        "Ġunder",
        "lying"
      ],
      [
        "Blin",
        "d"
      ],
      [
        "Ġmim",
        "ic"
      ],
      [
        "Ġpres",
        "ence"
      ],
      [
        ")",
        "-"
      ],
      [
        "R",
        "iluzole"
      ],
      [
        "e",
        "ction"
      ],
      [
        "e",
        "mp"
      ],
      [
        "i",
        "en"
      ],
      [
        "j",
        "ection"
      ],
      [
        "m",
        "it"
      ],
      [
        "m",
        "ark"
      ],
      [
        "o",
        "ut"
      ],
      [
        "t",
        "ot"
      ],
      [
        "y",
        "pe"
      ],
      [
        "Ġ",
        "iPSC"
      ],
      [
        "Ġa",
        "min"
      ],
      [
        "Ġa",
        "myotrophic"
      ],
      [
        "Ġin",
        "hib"
      ],
      [
        "Ġin",
        "jection"
      ],
      [
        "it",
        "iv"
      ],
      [
        "Ġs",
        "ens"
      ],
      [
        "ar",
        "ge"
      ],
      [
        "le",
        "ase"
      ],
      [
        "Ġre",
        "f"
      ],
      [
        "Ġre",
        "lease"
      ],
      [
        "Ġde",
        "ment"
      ],
      [
        "ut",
        "ion"
      ],
      [
        "ut",
        "ic"
      ],
      [
        "Ġl",
        "arge"
      ],
      [
        "Ġg",
        "r"
      ],
      [
        "pe",
        "utic"
      ],
      [
        "ig",
        "ated"
      ],
      [
        "Ġ1",
        "2"
      ],
      [
        "Ġinv",
        "est"
      ],
      [
        "Ġ3",
        "0"
      ],
      [
        "Ġthera",
        "peutic"
      ],
      [
        "Ġac",
        "id"
      ],
      [
        "Ġchan",
        "n"
      ],
      [
        "Ġtrans",
        "mit"
      ],
      [
        "Ġexcit",
        "atory"
      ],
      [
        "athec",
        "al"
      ],
      [
        "Ġimpro",
        "ving"
      ],
      [
        "Ġfascic",
        "ulation"
      ],
      [
        "Ġpop",
        "ulations"
      ],
      [
        "Ġpotential",
        "s"
      ],
      [
        "Ġintra",
        "cellular"
      ],
      [
        "Ġprov",
        "ide"
      ],
      [
        "ron",
        "tot"
      ],
      [
        "ĠWh",
        "ile"
      ],
      [
        "Ġneurop",
        "ath"
      ],
      [
        "Ġimplic",
        "ations"
      ],
      [
        "Ġ199",
        "3"
      ],
      [
        "emp",
        "oral"
      ],
      [
        "Ġamin",
        "o"
      ],
      [
        "itiv",
        "ity"
      ],
      [
        "Ġsens",
        "itivity"
      ],
      [
        "Ġdement",
        "ia"
      ],
      [
        "Ġinvest",
        "igated"
      ],
      [
        "Ġtransmit",
        "ter"
      ],
      [
        "rontot",
        "emporal"
      ],
      [
        "G",
        "G"
      ],
      [
        "a",
        "ys"
      ],
      [
        "c",
        "ular"
      ],
      [
        "e",
        "h"
      ],
      [
        "g",
        "s"
      ],
      [
        "l",
        "er"
      ],
      [
        "n",
        "al"
      ],
      [
        "z",
        "in"
      ],
      [
        "Ġa",
        "r"
      ],
      [
        "al",
        "or"
      ],
      [
        "al",
        "ys"
      ],
      [
        "ed",
        "e"
      ],
      [
        "it",
        "ion"
      ],
      [
        "Ġd",
        "id"
      ],
      [
        "Ġp",
        "ers"
      ],
      [
        "ar",
        "thr"
      ],
      [
        "as",
        "ing"
      ],
      [
        "Ġthe",
        "se"
      ],
      [
        "ct",
        "ur"
      ],
      [
        "ol",
        "ated"
      ],
      [
        "Ġis",
        "olated"
      ],
      [
        "Ġth",
        "ose"
      ],
      [
        "ce",
        "ler"
      ],
      [
        "Ġh",
        "y"
      ],
      [
        "Ġcon",
        "nect"
      ],
      [
        "ĠP",
        "LS"
      ],
      [
        "ĠP",
        "MA"
      ],
      [
        "Ġmus",
        "cular"
      ],
      [
        "ak",
        "ing"
      ],
      [
        "Ġle",
        "gs"
      ],
      [
        "act",
        "iv"
      ],
      [
        "Ġac",
        "celer"
      ],
      [
        "Ġal",
        "le"
      ],
      [
        "Ġgenetic",
        "s"
      ],
      [
        "Ġno",
        "ctur"
      ],
      [
        "Ġredu",
        "ces"
      ],
      [
        "Ġincre",
        "asing"
      ],
      [
        "rog",
        "en"
      ],
      [
        "Ġocc",
        "urs"
      ],
      [
        "Ġwor",
        "se"
      ],
      [
        "Ġposit",
        "ive"
      ],
      [
        "Ġol",
        "igonucleotide"
      ],
      [
        "Ġdiet",
        "s"
      ],
      [
        "Ġcont",
        "ain"
      ],
      [
        "alys",
        "is"
      ],
      [
        "Ġpers",
        "on"
      ],
      [
        "arthr",
        "ia"
      ],
      [
        "Ġacceler",
        "ated"
      ],
      [
        "Ġnoctur",
        "nal"
      ],
      [
        "a",
        "xim"
      ],
      [
        "i",
        "re"
      ],
      [
        "m",
        "ut"
      ],
      [
        "Ġ",
        "6"
      ],
      [
        "Ġt",
        "aurursodiol"
      ],
      [
        "Ġm",
        "axim"
      ],
      [
        "is",
        "hed"
      ],
      [
        "Ġd",
        "ur"
      ],
      [
        "id",
        "ed"
      ],
      [
        "Ġpro",
        "duction"
      ],
      [
        "Ġdis",
        "ru"
      ],
      [
        "Ġdis",
        "mut"
      ],
      [
        "Ġsp",
        "asticity"
      ],
      [
        "poin",
        "t"
      ],
      [
        "Ġcaus",
        "es"
      ],
      [
        "Ġrequ",
        "ire"
      ],
      [
        "Ġphen",
        "ylbutyrate"
      ],
      [
        "Ġinitial",
        "ly"
      ],
      [
        "Ġmetabol",
        "ism"
      ],
      [
        "ĠH",
        "e"
      ],
      [
        "Ġextens",
        "ion"
      ],
      [
        "Ġdisru",
        "pt"
      ],
      [
        "Ġdismut",
        "ase"
      ],
      [
        "d",
        "iagn"
      ],
      [
        "g",
        "ia"
      ],
      [
        "u",
        "nd"
      ],
      [
        "in",
        "ases"
      ],
      [
        "en",
        "ia"
      ],
      [
        "al",
        "s"
      ],
      [
        "ro",
        "diagn"
      ],
      [
        "ar",
        "ily"
      ],
      [
        "Ġex",
        "am"
      ],
      [
        "am",
        "inases"
      ],
      [
        "Ġas",
        "th"
      ],
      [
        "Ġv",
        "ia"
      ],
      [
        "and",
        "s"
      ],
      [
        "roph",
        "ysi"
      ],
      [
        "Ġprim",
        "arily"
      ],
      [
        "Ġhe",
        "av"
      ],
      [
        "Ġtrans",
        "aminases"
      ],
      [
        "Ġredu",
        "ce"
      ],
      [
        "Ġus",
        "es"
      ],
      [
        "Ġfe",
        "w"
      ],
      [
        "Ġelect",
        "rodiagn"
      ],
      [
        "Ġelect",
        "rophysi"
      ],
      [
        "Ġrepres",
        "ent"
      ],
      [
        "Ġeffect",
        "s"
      ],
      [
        "Ġphenot",
        "yp"
      ],
      [
        "Ġexam",
        "ination"
      ],
      [
        "Ġasth",
        "enia"
      ],
      [
        "Ġelectrodiagn",
        "ostic"
      ],
      [
        "Ġelectrophysi",
        "ological"
      ],
      [
        "f",
        "ore"
      ],
      [
        "o",
        "un"
      ],
      [
        "in",
        "it"
      ],
      [
        "Ġb",
        "ene"
      ],
      [
        "Ġn",
        "ause"
      ],
      [
        "ir",
        "ment"
      ],
      [
        "Ġor",
        "ally"
      ],
      [
        "Ġbe",
        "fore"
      ],
      [
        "ĠR",
        "es"
      ],
      [
        "Ġdiff",
        "er"
      ],
      [
        "Ġimpa",
        "irment"
      ],
      [
        "Ġdef",
        "init"
      ],
      [
        "Ġop",
        "en"
      ],
      [
        "Ġbene",
        "f"
      ],
      [
        "Ġnause",
        "a"
      ],
      [
        "Ġdefinit",
        "e"
      ],
      [
        "f",
        "ter"
      ],
      [
        "i",
        "oral"
      ],
      [
        "o",
        "phag"
      ],
      [
        "Ġa",
        "fter"
      ],
      [
        "Ġt",
        "yp"
      ],
      [
        "Ġm",
        "ain"
      ],
      [
        "Ġs",
        "tem"
      ],
      [
        "Ġp",
        "ain"
      ],
      [
        "ent",
        "er"
      ],
      [
        "ul",
        "tic"
      ],
      [
        "av",
        "ioral"
      ],
      [
        "Ġexp",
        "er"
      ],
      [
        "Ġr",
        "ate"
      ],
      [
        "SC",
        "s"
      ],
      [
        "Ġaut",
        "ophag"
      ],
      [
        "Ġtyp",
        "ically"
      ],
      [
        "Ġmain",
        "t"
      ],
      [
        "ultic",
        "enter"
      ],
      [
        "Ġautophag",
        "y"
      ],
      [
        "T",
        "A"
      ],
      [
        "k",
        "ed"
      ],
      [
        "Ġ",
        "K"
      ],
      [
        "Ġs",
        "am"
      ],
      [
        "Ġdevelop",
        "ing"
      ],
      [
        "Ġwhe",
        "ther"
      ],
      [
        "Ġsam",
        "e"
      ],
      [
        "et",
        "r"
      ],
      [
        "o",
        "es"
      ],
      [
        "t",
        "and"
      ],
      [
        "Ġd",
        "oes"
      ],
      [
        "Ġf",
        "ac"
      ],
      [
        "un",
        "se"
      ],
      [
        "Ġh",
        "ad"
      ],
      [
        "ers",
        "tand"
      ],
      [
        "ath",
        "er"
      ],
      [
        "est",
        "ing"
      ],
      [
        "Ġco",
        "unse"
      ],
      [
        "Ġund",
        "erstand"
      ],
      [
        "Ġhelp",
        "ed"
      ],
      [
        "Ġchang",
        "ed"
      ],
      [
        "Ġcounse",
        "ling"
      ],
      [
        "Ġc",
        "ar"
      ],
      [
        "Ġman",
        "y"
      ],
      [
        "Ġcar",
        "rying"
      ],
      [
        "M",
        "ult"
      ],
      [
        "a",
        "ir"
      ],
      [
        "c",
        "us"
      ],
      [
        "i",
        "ative"
      ],
      [
        "k",
        "ers"
      ],
      [
        "l",
        "ife"
      ],
      [
        "l",
        "anguage"
      ],
      [
        "n",
        "ing"
      ],
      [
        "n",
        "ative"
      ],
      [
        "o",
        "ul"
      ],
      [
        "s",
        "ions"
      ],
      [
        "t",
        "rac"
      ],
      [
        "v",
        "ic"
      ],
      [
        "v",
        "ir"
      ],
      [
        "v",
        "ance"
      ],
      [
        "Ġa",
        "ug"
      ],
      [
        "Ġa",
        "bout"
      ],
      [
        "on",
        "ment"
      ],
      [
        "en",
        "ces"
      ],
      [
        "ion",
        "ists"
      ],
      [
        "Ġs",
        "oc"
      ],
      [
        "Ġp",
        "ul"
      ],
      [
        "Ġp",
        "all"
      ],
      [
        "an",
        "ning"
      ],
      [
        "ation",
        "al"
      ],
      [
        "end",
        "ance"
      ],
      [
        "Ġde",
        "vic"
      ],
      [
        "Ġl",
        "ost"
      ],
      [
        "ment",
        "ative"
      ],
      [
        "Ġg",
        "old"
      ],
      [
        "Ġh",
        "ome"
      ],
      [
        "ch",
        "air"
      ],
      [
        "Ġdis",
        "cus"
      ],
      [
        "Ġmotor",
        "ized"
      ],
      [
        "ĠE",
        "ye"
      ],
      [
        "ide",
        "red"
      ],
      [
        "Ġen",
        "vir"
      ],
      [
        "Ġsh",
        "oul"
      ],
      [
        "Ġspe",
        "cial"
      ],
      [
        "Ġpl",
        "anning"
      ],
      [
        "el",
        "chair"
      ],
      [
        "Ġpath",
        "ologists"
      ],
      [
        "Ġal",
        "ter"
      ],
      [
        "ist",
        "ive"
      ],
      [
        "ĠAd",
        "vance"
      ],
      [
        "Ġinvolv",
        "ing"
      ],
      [
        "ĠStud",
        "ies"
      ],
      [
        "Ġimpro",
        "ved"
      ],
      [
        "Ġwhe",
        "elchair"
      ],
      [
        "Ġventil",
        "atory"
      ],
      [
        "Ġocc",
        "up"
      ],
      [
        "Ġwor",
        "kers"
      ],
      [
        "Ġcons",
        "idered"
      ],
      [
        "fer",
        "ences"
      ],
      [
        "ĠAss",
        "istive"
      ],
      [
        "Ġneurolog",
        "ists"
      ],
      [
        "AA",
        "C"
      ],
      [
        "Ġpre",
        "ferences"
      ],
      [
        "Ġmodific",
        "ations"
      ],
      [
        "Ġatt",
        "endance"
      ],
      [
        "Ġnutrit",
        "ionists"
      ],
      [
        "mon",
        "ologists"
      ],
      [
        "Ġenab",
        "les"
      ],
      [
        "Mult",
        "idisciplinary"
      ],
      [
        "trac",
        "king"
      ],
      [
        "Ġaug",
        "mentative"
      ],
      [
        "onment",
        "al"
      ],
      [
        "Ġsoc",
        "ial"
      ],
      [
        "Ġpul",
        "monologists"
      ],
      [
        "Ġpall",
        "iative"
      ],
      [
        "Ġdevic",
        "es"
      ],
      [
        "Ġdiscus",
        "sions"
      ],
      [
        "Ġenvir",
        "onmental"
      ],
      [
        "Ġshoul",
        "d"
      ],
      [
        "Ġspecial",
        "ists"
      ],
      [
        "Ġalter",
        "native"
      ],
      [
        "Ġwheelchair",
        "s"
      ],
      [
        "Ġoccup",
        "ational"
      ],
      [
        "0",
        "7"
      ],
      [
        "G",
        "P"
      ],
      [
        "G",
        "lutamate"
      ],
      [
        "I",
        "B"
      ],
      [
        "I",
        "IB"
      ],
      [
        "M",
        "DA"
      ],
      [
        "S",
        "VC"
      ],
      [
        "b",
        "u"
      ],
      [
        "c",
        "end"
      ],
      [
        "e",
        "peat"
      ],
      [
        "i",
        "or"
      ],
      [
        "k",
        "in"
      ],
      [
        "l",
        "or"
      ],
      [
        "l",
        "ies"
      ],
      [
        "l",
        "igonucleotide"
      ],
      [
        "m",
        "an"
      ],
      [
        "n",
        "ormal"
      ],
      [
        "o",
        "kin"
      ],
      [
        "r",
        "ation"
      ],
      [
        "r",
        "im"
      ],
      [
        "Ġ",
        "old"
      ],
      [
        "Ġa",
        "xonal"
      ],
      [
        "Ġt",
        "ot"
      ],
      [
        "Ġt",
        "olerability"
      ],
      [
        "er",
        "ing"
      ],
      [
        "al",
        "ed"
      ],
      [
        "Ġd",
        "ue"
      ],
      [
        "Ġb",
        "ase"
      ],
      [
        "ot",
        "hes"
      ],
      [
        "ĠT",
        "argeting"
      ],
      [
        "Ġre",
        "ve"
      ],
      [
        "Ġre",
        "active"
      ],
      [
        "ation",
        "ale"
      ],
      [
        "ul",
        "ner"
      ],
      [
        "im",
        "en"
      ],
      [
        "Ġl",
        "ac"
      ],
      [
        "un",
        "it"
      ],
      [
        "Ġh",
        "igh"
      ],
      [
        "pe",
        "pt"
      ],
      [
        "Ġcon",
        "cent"
      ],
      [
        "Ġas",
        "cend"
      ],
      [
        "Ġv",
        "ulner"
      ],
      [
        "lin",
        "e"
      ],
      [
        "ĠP",
        "rim"
      ],
      [
        "ans",
        "ion"
      ],
      [
        "ĠR",
        "epeat"
      ],
      [
        "ff",
        "ering"
      ],
      [
        "Ġr",
        "ationale"
      ],
      [
        "ĠN",
        "MDA"
      ],
      [
        "Ġpr",
        "ior"
      ],
      [
        "Ġ3",
        "6"
      ],
      [
        "etic",
        "s"
      ],
      [
        "Ġass",
        "ist"
      ],
      [
        "Ġpl",
        "asm"
      ],
      [
        "Ġper",
        "man"
      ],
      [
        "Ġreg",
        "imen"
      ],
      [
        "Ġmed",
        "iated"
      ],
      [
        "Ġag",
        "ed"
      ],
      [
        "ĠG",
        "lu"
      ],
      [
        "ĠAd",
        "ministered"
      ],
      [
        "lu",
        "x"
      ],
      [
        "Ġdi",
        "pept"
      ],
      [
        "ĠO",
        "ligonucleotide"
      ],
      [
        "Ġear",
        "lies"
      ],
      [
        "cess",
        "ive"
      ],
      [
        "ĠB",
        "IIB"
      ],
      [
        "per",
        "me"
      ],
      [
        "Ġdef",
        "ects"
      ],
      [
        "ĠEx",
        "cessive"
      ],
      [
        "Ġhyp",
        "othes"
      ],
      [
        "Ġinf",
        "lux"
      ],
      [
        "Ġprov",
        "ided"
      ],
      [
        "ĠExp",
        "lor"
      ],
      [
        "ĠExp",
        "ansion"
      ],
      [
        "Ġpharmac",
        "okin"
      ],
      [
        "ĠIntr",
        "athecally"
      ],
      [
        "Ġab",
        "normal"
      ],
      [
        "Ġsco",
        "re"
      ],
      [
        "ĠAn",
        "tisense"
      ],
      [
        "Ġexclud",
        "es"
      ],
      [
        "Ġsub",
        "unit"
      ],
      [
        "Ġconfir",
        "med"
      ],
      [
        "ĠMut",
        "ation"
      ],
      [
        "ĠSub",
        "sequent"
      ],
      [
        "Ġexpress",
        "ion"
      ],
      [
        "Ġpredict",
        "ed"
      ],
      [
        "ĠEvalu",
        "ate"
      ],
      [
        "Ġtim",
        "e"
      ],
      [
        "07",
        "8"
      ],
      [
        "bu",
        "ffering"
      ],
      [
        "Ġold",
        "er"
      ],
      [
        "Ġtot",
        "al"
      ],
      [
        "Ġbase",
        "line"
      ],
      [
        "Ġreve",
        "aled"
      ],
      [
        "Ġlac",
        "king"
      ],
      [
        "Ġconcent",
        "ration"
      ],
      [
        "Ġascend",
        "ing"
      ],
      [
        "Ġvulner",
        "able"
      ],
      [
        "ĠPrim",
        "ary"
      ],
      [
        "Ġassist",
        "ed"
      ],
      [
        "Ġplasm",
        "a"
      ],
      [
        "Ġperman",
        "ent"
      ],
      [
        "ĠGlu",
        "R"
      ],
      [
        "Ġdipept",
        "ide"
      ],
      [
        "Ġearlies",
        "t"
      ],
      [
        "perme",
        "able"
      ],
      [
        "Ġhypothes",
        "is"
      ],
      [
        "ĠExplor",
        "atory"
      ],
      [
        "Ġpharmacokin",
        "etics"
      ],
      [
        "Ġabnormal",
        "ities"
      ],
      [
        "B",
        "iomark"
      ],
      [
        "C",
        "D"
      ],
      [
        "C",
        "SF"
      ],
      [
        "D",
        "T"
      ],
      [
        "E",
        "CD"
      ],
      [
        "N",
        "f"
      ],
      [
        "b",
        "ased"
      ],
      [
        "l",
        "ating"
      ],
      [
        "m",
        "erging"
      ],
      [
        "p",
        "inal"
      ],
      [
        "p",
        "Nf"
      ],
      [
        "r",
        "in"
      ],
      [
        "Ġ",
        "ut"
      ],
      [
        "Ġt",
        "om"
      ],
      [
        "Ġt",
        "ra"
      ],
      [
        "Ġt",
        "ens"
      ],
      [
        "is",
        "ing"
      ],
      [
        "is",
        "ot"
      ],
      [
        "Ġd",
        "om"
      ],
      [
        "Ġb",
        "lo"
      ],
      [
        "os",
        "pinal"
      ],
      [
        "Ġde",
        "tect"
      ],
      [
        "ra",
        "cellular"
      ],
      [
        "ction",
        "al"
      ],
      [
        "iv",
        "o"
      ],
      [
        "ĠE",
        "merging"
      ],
      [
        "Ġv",
        "ivo"
      ],
      [
        "Ġan",
        "other"
      ],
      [
        "Ġan",
        "isot"
      ],
      [
        "ĠM",
        "RI"
      ],
      [
        "tic",
        "ospinal"
      ],
      [
        "Ġim",
        "ag"
      ],
      [
        "Ġcor",
        "ticospinal"
      ],
      [
        "Ġext",
        "racellular"
      ],
      [
        "ĠPh",
        "osphorylated"
      ],
      [
        "ĠU",
        "rin"
      ],
      [
        "Ġdiff",
        "usion"
      ],
      [
        "iqu",
        "es"
      ],
      [
        "Ġtechn",
        "iques"
      ],
      [
        "Ġact",
        "ive"
      ],
      [
        "Ġem",
        "erging"
      ],
      [
        "Ġem",
        "iss"
      ],
      [
        "Ġposit",
        "ron"
      ],
      [
        "PE",
        "T"
      ],
      [
        "Ġcorre",
        "lating"
      ],
      [
        "Ġfra",
        "ctional"
      ],
      [
        "ĠNeuro",
        "filament"
      ],
      [
        "rop",
        "y"
      ],
      [
        "Ġtrac",
        "ers"
      ],
      [
        "Ġprom",
        "ising"
      ],
      [
        "Ġneurotroph",
        "in"
      ],
      [
        "Ġheav",
        "y"
      ],
      [
        "Biomark",
        "ers"
      ],
      [
        "DT",
        "I"
      ],
      [
        "pNf",
        "H"
      ],
      [
        "Ġut",
        "ility"
      ],
      [
        "Ġtom",
        "ography"
      ],
      [
        "Ġtra",
        "ct"
      ],
      [
        "Ġtens",
        "or"
      ],
      [
        "Ġdom",
        "ain"
      ],
      [
        "Ġblo",
        "od"
      ],
      [
        "Ġanisot",
        "ropy"
      ],
      [
        "Ġimag",
        "ing"
      ],
      [
        "ĠUrin",
        "ary"
      ],
      [
        "Ġemiss",
        "ion"
      ],
      [
        "2",
        "3"
      ],
      [
        "2",
        "7"
      ],
      [
        "3",
        "3"
      ],
      [
        "3",
        "4"
      ],
      [
        "A",
        "L"
      ],
      [
        "A",
        "R"
      ],
      [
        "A",
        "V"
      ],
      [
        "A",
        "SO"
      ],
      [
        "C",
        "as"
      ],
      [
        "D",
        "BP"
      ],
      [
        "F",
        "VC"
      ],
      [
        "G",
        "ene"
      ],
      [
        "O",
        "R"
      ],
      [
        "S",
        "p"
      ],
      [
        "S",
        "NI"
      ],
      [
        "T",
        "DP"
      ],
      [
        "V",
        "AL"
      ],
      [
        "a",
        "cl"
      ],
      [
        "c",
        "y"
      ],
      [
        "c",
        "utaneous"
      ],
      [
        "e",
        "ll"
      ],
      [
        "e",
        "qu"
      ],
      [
        "f",
        "le"
      ],
      [
        "f",
        "rontotemporal"
      ],
      [
        "g",
        "m"
      ],
      [
        "g",
        "lutam"
      ],
      [
        "h",
        "an"
      ],
      [
        "h",
        "ol"
      ],
      [
        "k",
        "i"
      ],
      [
        "l",
        "on"
      ],
      [
        "l",
        "ene"
      ],
      [
        "l",
        "ength"
      ],
      [
        "n",
        "iff"
      ],
      [
        "o",
        "ce"
      ],
      [
        "r",
        "he"
      ],
      [
        "r",
        "ent"
      ],
      [
        "s",
        "u"
      ],
      [
        "s",
        "afe"
      ],
      [
        "t",
        "ch"
      ],
      [
        "t",
        "aneous"
      ],
      [
        "u",
        "le"
      ],
      [
        "v",
        "es"
      ],
      [
        "x",
        "ia"
      ],
      [
        "y",
        "ing"
      ],
      [
        "Ġ",
        "ess"
      ],
      [
        "Ġ",
        "vel"
      ],
      [
        "Ġ",
        "VAL"
      ],
      [
        "in",
        "um"
      ],
      [
        "in",
        "erg"
      ],
      [
        "in",
        "oce"
      ],
      [
        "Ġa",
        "ch"
      ],
      [
        "on",
        "ent"
      ],
      [
        "on",
        "taneous"
      ],
      [
        "en",
        "o"
      ],
      [
        "en",
        "ge"
      ],
      [
        "Ġt",
        "iz"
      ],
      [
        "Ġt",
        "one"
      ],
      [
        "Ġt",
        "ype"
      ],
      [
        "re",
        "am"
      ],
      [
        "re",
        "fle"
      ],
      [
        "re",
        "tch"
      ],
      [
        "er",
        "refle"
      ],
      [
        "Ġm",
        "aj"
      ],
      [
        "or",
        "ts"
      ],
      [
        "or",
        "ced"
      ],
      [
        "or",
        "rhe"
      ],
      [
        "is",
        "es"
      ],
      [
        "Ġc",
        "ur"
      ],
      [
        "Ġc",
        "ra"
      ],
      [
        "Ġc",
        "ry"
      ],
      [
        "Ġc",
        "lon"
      ],
      [
        "Ġin",
        "st"
      ],
      [
        "Ġin",
        "su"
      ],
      [
        "it",
        "ing"
      ],
      [
        "ro",
        "RNA"
      ],
      [
        "Ġd",
        "an"
      ],
      [
        "Ġd",
        "own"
      ],
      [
        "of",
        "en"
      ],
      [
        "Ġs",
        "us"
      ],
      [
        "Ġs",
        "niff"
      ],
      [
        "Ġp",
        "ac"
      ],
      [
        "ic",
        "ations"
      ],
      [
        "nd",
        "er"
      ],
      [
        "es",
        "ts"
      ],
      [
        "as",
        "al"
      ],
      [
        "ĠA",
        "AV"
      ],
      [
        "Ġb",
        "ot"
      ],
      [
        "Ġb",
        "acl"
      ],
      [
        "an",
        "agement"
      ],
      [
        "an",
        "idine"
      ],
      [
        "an",
        "ule"
      ],
      [
        "Ġn",
        "asal"
      ],
      [
        "ĠT",
        "AR"
      ],
      [
        "ct",
        "ing"
      ],
      [
        "us",
        "cle"
      ],
      [
        "ul",
        "inum"
      ],
      [
        "im",
        "al"
      ],
      [
        "Ġ(",
        ">"
      ],
      [
        "id",
        "es"
      ],
      [
        "ĠThe",
        "y"
      ],
      [
        "ce",
        "eds"
      ],
      [
        "ia",
        "ph"
      ],
      [
        "Ġg",
        "ain"
      ],
      [
        "ĠS",
        "ial"
      ],
      [
        "ra",
        "gm"
      ],
      [
        "Ġdis",
        "trib"
      ],
      [
        "Ġfor",
        "mation"
      ],
      [
        "if",
        "ying"
      ],
      [
        "if",
        "ests"
      ],
      [
        "Ġex",
        "on"
      ],
      [
        "Ġex",
        "erc"
      ],
      [
        "Ġex",
        "ceeds"
      ],
      [
        "ir",
        "us"
      ],
      [
        "ĠF",
        "ascic"
      ],
      [
        "ĠF",
        "orced"
      ],
      [
        "Ġst",
        "ability"
      ],
      [
        "Ġst",
        "retch"
      ],
      [
        "pt",
        "ic"
      ],
      [
        "Ġbe",
        "com"
      ],
      [
        "Ġv",
        "irus"
      ],
      [
        "Ġ2",
        "2"
      ],
      [
        "tro",
        "lene"
      ],
      [
        "Ġincl",
        "usion"
      ],
      [
        "Ġappro",
        "ac"
      ],
      [
        "ain",
        "st"
      ],
      [
        "oc",
        "ity"
      ],
      [
        "Ġan",
        "tic"
      ],
      [
        "Ġan",
        "imal"
      ],
      [
        "ab",
        "ins"
      ],
      [
        "Ġch",
        "all"
      ],
      [
        "ĠC",
        "RI"
      ],
      [
        "ĠR",
        "ec"
      ],
      [
        "Ġsp",
        "lic"
      ],
      [
        "Ġsp",
        "inoce"
      ],
      [
        "Ġsp",
        "ontaneous"
      ],
      [
        "Ġad",
        "equ"
      ],
      [
        "Ġad",
        "eno"
      ],
      [
        "Ġev",
        "ident"
      ],
      [
        "ĠM",
        "anagement"
      ],
      [
        "ĠM",
        "uscle"
      ],
      [
        "Ġexp",
        "lo"
      ],
      [
        "Ġen",
        "han"
      ],
      [
        "ib",
        "ility"
      ],
      [
        "Ġsymptom",
        "atic"
      ],
      [
        "Ġph",
        "osphorylated"
      ],
      [
        "st",
        "ream"
      ],
      [
        "ign",
        "ly"
      ],
      [
        "Ġman",
        "ag"
      ],
      [
        "Ġman",
        "ifests"
      ],
      [
        "Ġcommon",
        "ly"
      ],
      [
        "Ġye",
        "ast"
      ],
      [
        "ĠL",
        "onger"
      ],
      [
        "ced",
        "e"
      ],
      [
        "cept",
        "ibility"
      ],
      [
        "Ġpath",
        "ology"
      ],
      [
        "Ġpath",
        "ological"
      ],
      [
        "Ġmod",
        "ifi"
      ],
      [
        "ĠIn",
        "ter"
      ],
      [
        "Ġper",
        "cutaneous"
      ],
      [
        "Ġmed",
        "ications"
      ],
      [
        "Ġag",
        "ents"
      ],
      [
        "Ġag",
        "ainst"
      ],
      [
        "Ġcomp",
        "onent"
      ],
      [
        "Ġun",
        "it"
      ],
      [
        "Ġun",
        "iqu"
      ],
      [
        "Ġun",
        "safe"
      ],
      [
        "Ġun",
        "ifying"
      ],
      [
        "Ġredu",
        "ction"
      ],
      [
        "ucleot",
        "ides"
      ],
      [
        "Ġdevelop",
        "s"
      ],
      [
        "ĠU",
        "nder"
      ],
      [
        "Ġincre",
        "ase"
      ],
      [
        "Ġinter",
        "mediate"
      ],
      [
        "SC",
        "A"
      ],
      [
        "erg",
        "ed"
      ],
      [
        "ffic",
        "ien"
      ],
      [
        "RNA",
        "i"
      ],
      [
        "ĠD",
        "ysphagia"
      ],
      [
        "ĠD",
        "iaph"
      ],
      [
        "Ġnucle",
        "us"
      ],
      [
        "Ġimpro",
        "ves"
      ],
      [
        "Ġres",
        "ult"
      ],
      [
        "Ġmic",
        "roRNA"
      ],
      [
        "Ġem",
        "erged"
      ],
      [
        "Ġocc",
        "ur"
      ],
      [
        "Ġcontrol",
        "s"
      ],
      [
        "igon",
        "ucleotides"
      ],
      [
        "Ġthrough",
        "out"
      ],
      [
        "ĠB",
        "abins"
      ],
      [
        "Ġencod",
        "ed"
      ],
      [
        "reb",
        "ell"
      ],
      [
        "Ġaggreg",
        "ates"
      ],
      [
        "Ġpred",
        "ominant"
      ],
      [
        "Ġhyp",
        "errefle"
      ],
      [
        "Ġsupp",
        "orts"
      ],
      [
        "Ġform",
        "s"
      ],
      [
        "Ġed",
        "iting"
      ],
      [
        "Ġmeasure",
        "s"
      ],
      [
        "mp",
        "s"
      ],
      [
        "Ġol",
        "igonucleotides"
      ],
      [
        "ass",
        "ociated"
      ],
      [
        "Ġdiet",
        "ary"
      ],
      [
        "Ġrepres",
        "ents"
      ],
      [
        "AA",
        "V"
      ],
      [
        "Ġpre",
        "cede"
      ],
      [
        "Ġmodific",
        "ation"
      ],
      [
        "Ġ8",
        "0"
      ],
      [
        "Ġpoly",
        "glutam"
      ],
      [
        "Ġpharmac",
        "ological"
      ],
      [
        "ĠIntr",
        "athecal"
      ],
      [
        "PE",
        "G"
      ],
      [
        "Ġcorre",
        "cting"
      ],
      [
        "NI",
        "V"
      ],
      [
        "Ġtox",
        "in"
      ],
      [
        "Ġtox",
        "ic"
      ],
      [
        "Ġatax",
        "in"
      ],
      [
        "Ġatax",
        "ia"
      ],
      [
        "Ġmislocaliz",
        "es"
      ],
      [
        "Ġmislocaliz",
        "ation"
      ],
      [
        "Ġro",
        "ute"
      ],
      [
        "Res",
        "piratory"
      ],
      [
        "Ġ9",
        "7"
      ],
      [
        "SP",
        "R"
      ],
      [
        "ie",
        "ving"
      ],
      [
        "Ġben",
        "ignly"
      ],
      [
        "Ġinjection",
        "s"
      ],
      [
        "Ġgr",
        "anule"
      ],
      [
        "ASO",
        "s"
      ],
      [
        "Sp",
        "asticity"
      ],
      [
        "SNI",
        "P"
      ],
      [
        "hol",
        "inerg"
      ],
      [
        "Ġess",
        "ential"
      ],
      [
        "Ġvel",
        "ocity"
      ],
      [
        "ĠVAL",
        "OR"
      ],
      [
        "Ġach",
        "ieving"
      ],
      [
        "Ġtiz",
        "anidine"
      ],
      [
        "Ġmaj",
        "or"
      ],
      [
        "orrhe",
        "a"
      ],
      [
        "Ġcur",
        "rent"
      ],
      [
        "Ġcra",
        "mps"
      ],
      [
        "Ġcry",
        "ptic"
      ],
      [
        "Ġclon",
        "us"
      ],
      [
        "Ġinst",
        "ability"
      ],
      [
        "Ġinsu",
        "fficien"
      ],
      [
        "Ġdan",
        "trolene"
      ],
      [
        "Ġdown",
        "stream"
      ],
      [
        "Ġsus",
        "ceptibility"
      ],
      [
        "Ġpac",
        "ing"
      ],
      [
        "Ġbot",
        "ulinum"
      ],
      [
        "Ġbacl",
        "ofen"
      ],
      [
        "ĠTAR",
        "DBP"
      ],
      [
        "ĠSial",
        "orrhea"
      ],
      [
        "ragm",
        "atic"
      ],
      [
        "Ġdistrib",
        "ution"
      ],
      [
        "Ġexerc",
        "ises"
      ],
      [
        "ĠFascic",
        "ulations"
      ],
      [
        "Ġstretch",
        "ing"
      ],
      [
        "Ġbecom",
        "es"
      ],
      [
        "Ġapproac",
        "hes"
      ],
      [
        "Ġantic",
        "holinerg"
      ],
      [
        "Ġchall",
        "enge"
      ],
      [
        "ĠCRI",
        "SPR"
      ],
      [
        "ĠRec",
        "ent"
      ],
      [
        "Ġsplic",
        "ing"
      ],
      [
        "Ġspinoce",
        "rebell"
      ],
      [
        "Ġadequ",
        "ate"
      ],
      [
        "Ġexplo",
        "red"
      ],
      [
        "Ġenhan",
        "ced"
      ],
      [
        "Ġmanag",
        "ed"
      ],
      [
        "Ġmodifi",
        "er"
      ],
      [
        "ĠInter",
        "mediate"
      ],
      [
        "Ġuniqu",
        "e"
      ],
      [
        "ĠDiaph",
        "ragmatic"
      ],
      [
        "ĠBabins",
        "ki"
      ],
      [
        "Ġpredominant",
        "ly"
      ],
      [
        "Ġhyperrefle",
        "xia"
      ],
      [
        "Ġpolyglutam",
        "ine"
      ],
      [
        "Ġinsufficien",
        "cy"
      ],
      [
        "Ġanticholinerg",
        "ic"
      ],
      [
        "Ġspinocerebell",
        "ar"
      ],
      [
        "B",
        "ulbar"
      ],
      [
        "E",
        "M"
      ],
      [
        "E",
        "daravone"
      ],
      [
        "E",
        "lect"
      ],
      [
        "N",
        "u"
      ],
      [
        "P",
        "BA"
      ],
      [
        "a",
        "ffect"
      ],
      [
        "a",
        "ugh"
      ],
      [
        "b",
        "ated"
      ],
      [
        "b",
        "ulbar"
      ],
      [
        "d",
        "ys"
      ],
      [
        "d",
        "ers"
      ],
      [
        "d",
        "ysphagia"
      ],
      [
        "e",
        "ar"
      ],
      [
        "e",
        "op"
      ],
      [
        "f",
        "or"
      ],
      [
        "h",
        "or"
      ],
      [
        "i",
        "o"
      ],
      [
        "l",
        "ong"
      ],
      [
        "m",
        "s"
      ],
      [
        "m",
        "atory"
      ],
      [
        "o",
        "ing"
      ],
      [
        "o",
        "bulbar"
      ],
      [
        "p",
        "or"
      ],
      [
        "p",
        "ro"
      ],
      [
        "p",
        "id"
      ],
      [
        "r",
        "ing"
      ],
      [
        "r",
        "ig"
      ],
      [
        "r",
        "io"
      ],
      [
        "s",
        "clerosis"
      ],
      [
        "v",
        "ous"
      ],
      [
        "v",
        "entually"
      ],
      [
        "v",
        "rio"
      ],
      [
        "w",
        "or"
      ],
      [
        "y",
        "ography"
      ],
      [
        "Ġ",
        "ong"
      ],
      [
        "in",
        "ut"
      ],
      [
        "in",
        "ate"
      ],
      [
        "in",
        "ner"
      ],
      [
        "in",
        "idine"
      ],
      [
        "Ġa",
        "pp"
      ],
      [
        "Ġa",
        "ction"
      ],
      [
        "at",
        "a"
      ],
      [
        "Ġt",
        "rophic"
      ],
      [
        "Ġt",
        "ong"
      ],
      [
        "re",
        "quent"
      ],
      [
        "er",
        "vous"
      ],
      [
        "Ġm",
        "en"
      ],
      [
        "Ġm",
        "ore"
      ],
      [
        "Ġm",
        "inut"
      ],
      [
        "or",
        "ders"
      ],
      [
        "Ġc",
        "ru"
      ],
      [
        "Ġc",
        "rying"
      ],
      [
        "Ġin",
        "cor"
      ],
      [
        "ion",
        "ate"
      ],
      [
        "ro",
        "up"
      ],
      [
        "Ġd",
        "ata"
      ],
      [
        "Ġs",
        "ys"
      ],
      [
        "Ġs",
        "erve"
      ],
      [
        "Ġp",
        "ort"
      ],
      [
        "Ġp",
        "eop"
      ],
      [
        "ar",
        "ly"
      ],
      [
        "ar",
        "ring"
      ],
      [
        "ĠA",
        "s"
      ],
      [
        "ĠA",
        "bout"
      ],
      [
        "Ġw",
        "ide"
      ],
      [
        "Ġf",
        "ive"
      ],
      [
        "Ġf",
        "requent"
      ],
      [
        "ot",
        "ional"
      ],
      [
        "Ġn",
        "ervous"
      ],
      [
        "Ġre",
        "ce"
      ],
      [
        "Ġre",
        "sp"
      ],
      [
        "Ġre",
        "cent"
      ],
      [
        "Ġre",
        "inner"
      ],
      [
        "om",
        "en"
      ],
      [
        "ly",
        "vrio"
      ],
      [
        "Ġde",
        "xt"
      ],
      [
        "Ġde",
        "bated"
      ],
      [
        "Ġl",
        "oc"
      ],
      [
        "Ġl",
        "anguage"
      ],
      [
        "Ġl",
        "augh"
      ],
      [
        "Ġth",
        "en"
      ],
      [
        "Ġth",
        "is"
      ],
      [
        "et",
        "hor"
      ],
      [
        "un",
        "ts"
      ],
      [
        "xt",
        "a"
      ],
      [
        "Ġg",
        "roup"
      ],
      [
        "Ġh",
        "ard"
      ],
      [
        "ons",
        "ible"
      ],
      [
        "ud",
        "obulbar"
      ],
      [
        "Ġdis",
        "pro"
      ],
      [
        "Ġdis",
        "orders"
      ],
      [
        "if",
        "oc"
      ],
      [
        "if",
        "ies"
      ],
      [
        "ig",
        "inate"
      ],
      [
        "ph",
        "an"
      ],
      [
        "Ġor",
        "al"
      ],
      [
        "Ġor",
        "iginate"
      ],
      [
        "ĠF",
        "unction"
      ],
      [
        "Ġst",
        "ate"
      ],
      [
        "Ġst",
        "iff"
      ],
      [
        "ĠE",
        "ventually"
      ],
      [
        "ĠE",
        "arly"
      ],
      [
        "Ġcom",
        "es"
      ],
      [
        "Ġbe",
        "long"
      ],
      [
        "Ġare",
        "as"
      ],
      [
        "se",
        "udobulbar"
      ],
      [
        "lin",
        "ical"
      ],
      [
        "Ġ2",
        "5"
      ],
      [
        "ĠP",
        "BA"
      ],
      [
        "ĠP",
        "seudobulbar"
      ],
      [
        "ad",
        "e"
      ],
      [
        "ĠC",
        "linical"
      ],
      [
        "ĠR",
        "ating"
      ],
      [
        "ac",
        "ks"
      ],
      [
        "ĠM",
        "ost"
      ],
      [
        "ĠM",
        "ay"
      ],
      [
        "ĠM",
        "ore"
      ],
      [
        "Ġsurv",
        "ive"
      ],
      [
        "rom",
        "yography"
      ],
      [
        "rom",
        "ethor"
      ],
      [
        "Ġr",
        "ated"
      ],
      [
        "ĠN",
        "erve"
      ],
      [
        "Ġwas",
        "te"
      ],
      [
        "Ġcaus",
        "ing"
      ],
      [
        "Ġ3",
        "3"
      ],
      [
        "Ġdegener",
        "ate"
      ],
      [
        "Ġdegener",
        "ates"
      ],
      [
        "ree",
        "k"
      ],
      [
        "ĠL",
        "ou"
      ],
      [
        "ĠL",
        "imb"
      ],
      [
        "Ġspe",
        "aking"
      ],
      [
        "Ġpl",
        "ays"
      ],
      [
        "Ġmy",
        "o"
      ],
      [
        "Ġmod",
        "est"
      ],
      [
        "Ġpar",
        "alysis"
      ],
      [
        "Ġinit",
        "iate"
      ],
      [
        "Ġper",
        "for"
      ],
      [
        "Ġident",
        "ifies"
      ],
      [
        "Ġun",
        "its"
      ],
      [
        "Ġun",
        "affect"
      ],
      [
        "Ġlos",
        "es"
      ],
      [
        "Ġweak",
        "en"
      ],
      [
        "Ġra",
        "pid"
      ],
      [
        "Ġdos",
        "ing"
      ],
      [
        "ĠG",
        "eh"
      ],
      [
        "ĠG",
        "reek"
      ],
      [
        "Ġus",
        "ually"
      ],
      [
        "Ġmult",
        "ifoc"
      ],
      [
        "Ġdi",
        "e"
      ],
      [
        "Ġtw",
        "o"
      ],
      [
        "ĠO",
        "RS"
      ],
      [
        "Ġem",
        "otional"
      ],
      [
        "port",
        "ionate"
      ],
      [
        "Ġqu",
        "inidine"
      ],
      [
        "Ġsc",
        "ale"
      ],
      [
        "Ġsc",
        "arring"
      ],
      [
        "Ġwor",
        "d"
      ],
      [
        "ĠW",
        "omen"
      ],
      [
        "Ġatroph",
        "ies"
      ],
      [
        "Ġinf",
        "usion"
      ],
      [
        "Ġform",
        "ulation"
      ],
      [
        "Ġtwit",
        "ch"
      ],
      [
        "me",
        "wor"
      ],
      [
        "Ġneurolog",
        "ical"
      ],
      [
        "Ġwast",
        "es"
      ],
      [
        "Ġgradu",
        "ally"
      ],
      [
        "Ġacco",
        "unts"
      ],
      [
        "ĠWh",
        "en"
      ],
      [
        "Ġse",
        "lect"
      ],
      [
        "Ġassess",
        "ing"
      ],
      [
        "Ġfat",
        "al"
      ],
      [
        "Ġ202",
        "2"
      ],
      [
        "Ġlin",
        "ks"
      ],
      [
        "Ġdifficult",
        "y"
      ],
      [
        "Ġatt",
        "acks"
      ],
      [
        "Ġab",
        "ility"
      ],
      [
        "Ġsco",
        "res"
      ],
      [
        "Ġexclud",
        "e"
      ],
      [
        "sequent",
        "ly"
      ],
      [
        "Ġsub",
        "sequently"
      ],
      [
        "Ġconfir",
        "matory"
      ],
      [
        "Ġfra",
        "mewor"
      ],
      [
        "Ġro",
        "le"
      ],
      [
        "Re",
        "vised"
      ],
      [
        "Re",
        "lyvrio"
      ],
      [
        "Ġblock",
        "ade"
      ],
      [
        "Ġactiv",
        "ities"
      ],
      [
        "ĠSc",
        "ale"
      ],
      [
        "Ġmimic",
        "king"
      ],
      [
        "Ġinhib",
        "ition"
      ],
      [
        "Ġref",
        "ers"
      ],
      [
        "Ġchann",
        "el"
      ],
      [
        "Ġneuropath",
        "y"
      ],
      [
        "Ġar",
        "ms"
      ],
      [
        "ede",
        "xta"
      ],
      [
        "Ġ6",
        "0"
      ],
      [
        "EM",
        "G"
      ],
      [
        "Elect",
        "romyography"
      ],
      [
        "Nu",
        "edexta"
      ],
      [
        "dys",
        "arthria"
      ],
      [
        "por",
        "ate"
      ],
      [
        "Ġong",
        "oing"
      ],
      [
        "Ġapp",
        "ear"
      ],
      [
        "Ġtong",
        "ue"
      ],
      [
        "Ġminut",
        "es"
      ],
      [
        "Ġcru",
        "cial"
      ],
      [
        "Ġincor",
        "porate"
      ],
      [
        "Ġsys",
        "tem"
      ],
      [
        "Ġport",
        "ions"
      ],
      [
        "Ġpeop",
        "le"
      ],
      [
        "Ġwide",
        "ly"
      ],
      [
        "Ġfrequent",
        "ly"
      ],
      [
        "Ġrece",
        "ived"
      ],
      [
        "Ġresp",
        "onsible"
      ],
      [
        "Ġrecent",
        "ly"
      ],
      [
        "Ġreinner",
        "vation"
      ],
      [
        "Ġdext",
        "romethor"
      ],
      [
        "Ġloc",
        "ated"
      ],
      [
        "Ġlaugh",
        "ing"
      ],
      [
        "Ġhard",
        "ening"
      ],
      [
        "Ġdispro",
        "portionate"
      ],
      [
        "ĠFunction",
        "al"
      ],
      [
        "Ġbelong",
        "s"
      ],
      [
        "Ġperfor",
        "med"
      ],
      [
        "Ġunaffect",
        "ed"
      ],
      [
        "Ġrapid",
        "ly"
      ],
      [
        "ĠGeh",
        "rig"
      ],
      [
        "Ġmultifoc",
        "al"
      ],
      [
        "Ġselect",
        "ed"
      ],
      [
        "Ġframewor",
        "ks"
      ],
      [
        "Ġdextromethor",
        "phan"
      ],
      [
        "9",
        "5"
      ],
      [
        "L",
        "MN"
      ],
      [
        "U",
        "MN"
      ],
      [
        "c",
        "on"
      ],
      [
        "c",
        "um"
      ],
      [
        "e",
        "arch"
      ],
      [
        "f",
        "ALS"
      ],
      [
        "f",
        "old"
      ],
      [
        "g",
        "y"
      ],
      [
        "g",
        "ane"
      ],
      [
        "n",
        "erg"
      ],
      [
        "o",
        "ph"
      ],
      [
        "s",
        "ALS"
      ],
      [
        "t",
        "ion"
      ],
      [
        "t",
        "oxic"
      ],
      [
        "x",
        "ons"
      ],
      [
        "y",
        "nerg"
      ],
      [
        "Ġ",
        "ener"
      ],
      [
        "Ġa",
        "xons"
      ],
      [
        "ro",
        "te"
      ],
      [
        "ro",
        "tect"
      ],
      [
        "Ġs",
        "ynerg"
      ],
      [
        "ic",
        "its"
      ],
      [
        "es",
        "is"
      ],
      [
        "ĠA",
        "ppro"
      ],
      [
        "ĠA",
        "xonal"
      ],
      [
        "im",
        "ulation"
      ],
      [
        "Ġde",
        "ple"
      ],
      [
        "Ġl",
        "ength"
      ],
      [
        "Ġh",
        "all"
      ],
      [
        "pe",
        "an"
      ],
      [
        "Ġor",
        "gane"
      ],
      [
        "Ġst",
        "imulation"
      ],
      [
        "ĠE",
        "uro"
      ],
      [
        "Ġbe",
        "ing"
      ],
      [
        "Ġbe",
        "come"
      ],
      [
        "ver",
        "al"
      ],
      [
        "ĠP",
        "rote"
      ],
      [
        "ll",
        "es"
      ],
      [
        "Ġgen",
        "es"
      ],
      [
        "ess",
        "ive"
      ],
      [
        "Ġint",
        "o"
      ],
      [
        "Ġneuro",
        "toxic"
      ],
      [
        "ĠM",
        "itochondrial"
      ],
      [
        "Ġinvol",
        "ve"
      ],
      [
        "Ġu",
        "p"
      ],
      [
        "Ġac",
        "cum"
      ],
      [
        "Ġover",
        "activ"
      ],
      [
        "Ġpath",
        "oph"
      ],
      [
        "Ġal",
        "ong"
      ],
      [
        "ist",
        "ically"
      ],
      [
        "Ġexc",
        "essive"
      ],
      [
        "ĠG",
        "lutamate"
      ],
      [
        "Ġlead",
        "ing"
      ],
      [
        "Ġinter",
        "con"
      ],
      [
        "Ġaffect",
        "ing"
      ],
      [
        "Ġremain",
        "ing"
      ],
      [
        "Ġmet",
        "er"
      ],
      [
        "Ġco",
        "pper"
      ],
      [
        "Ġlike",
        "ly"
      ],
      [
        "Ġ4",
        "0"
      ],
      [
        "Ġdef",
        "icits"
      ],
      [
        "Ġmis",
        "fold"
      ],
      [
        "Ġpathogen",
        "esis"
      ],
      [
        "Ġneurop",
        "rotect"
      ],
      [
        "Ġimplic",
        "ated"
      ],
      [
        "nect",
        "ed"
      ],
      [
        "Ġse",
        "veral"
      ],
      [
        "ysi",
        "ology"
      ],
      [
        "ĠMut",
        "ations"
      ],
      [
        "ĠNeuro",
        "inflammation"
      ],
      [
        "Res",
        "earch"
      ],
      [
        "Ġ9",
        "0"
      ],
      [
        "Ġactiv",
        "ation"
      ],
      [
        "Ġaccount",
        "ing"
      ],
      [
        "zin",
        "c"
      ],
      [
        "Ġener",
        "gy"
      ],
      [
        "Ġsynerg",
        "istically"
      ],
      [
        "ĠAppro",
        "ximately"
      ],
      [
        "Ġdeple",
        "tion"
      ],
      [
        "Ġhall",
        "mark"
      ],
      [
        "Ġorgane",
        "lles"
      ],
      [
        "ĠEuro",
        "pean"
      ],
      [
        "ĠProte",
        "in"
      ],
      [
        "Ġaccum",
        "ulation"
      ],
      [
        "Ġoveractiv",
        "ation"
      ],
      [
        "Ġpathoph",
        "ysiology"
      ],
      [
        "Ġintercon",
        "nected"
      ],
      [
        "Ġmisfold",
        "ed"
      ],
      [
        "Ġneuroprotect",
        "ive"
      ],
      [
        "7",
        "0"
      ],
      [
        "9",
        "0"
      ],
      [
        "A",
        "G"
      ],
      [
        "A",
        "P"
      ],
      [
        "B",
        "MA"
      ],
      [
        "B",
        "iP"
      ],
      [
        "C",
        "C"
      ],
      [
        "G",
        "CC"
      ],
      [
        "H",
        "SP"
      ],
      [
        "M",
        "otor"
      ],
      [
        "N",
        "utrit"
      ],
      [
        "P",
        "LS"
      ],
      [
        "P",
        "MA"
      ],
      [
        "P",
        "BP"
      ],
      [
        "b",
        "able"
      ],
      [
        "c",
        "ause"
      ],
      [
        "c",
        "alor"
      ],
      [
        "d",
        "rogen"
      ],
      [
        "g",
        "en"
      ],
      [
        "i",
        "ed"
      ],
      [
        "i",
        "el"
      ],
      [
        "j",
        "ects"
      ],
      [
        "l",
        "ain"
      ],
      [
        "m",
        "er"
      ],
      [
        "n",
        "ed"
      ],
      [
        "n",
        "utrit"
      ],
      [
        "p",
        "red"
      ],
      [
        "p",
        "ass"
      ],
      [
        "t",
        "y"
      ],
      [
        "t",
        "ing"
      ],
      [
        "t",
        "ra"
      ],
      [
        "u",
        "ished"
      ],
      [
        "v",
        "entil"
      ],
      [
        "y",
        "gen"
      ],
      [
        "z",
        "ym"
      ],
      [
        "Ġ",
        "X"
      ],
      [
        "Ġ",
        "70"
      ],
      [
        "in",
        "av"
      ],
      [
        "Ġa",
        "ir"
      ],
      [
        "Ġa",
        "bo"
      ],
      [
        "en",
        "ned"
      ],
      [
        "re",
        "ater"
      ],
      [
        "al",
        "nutrit"
      ],
      [
        "Ġm",
        "ass"
      ],
      [
        "Ġm",
        "alnutrit"
      ],
      [
        "or",
        "ic"
      ],
      [
        "or",
        "th"
      ],
      [
        "Ġin",
        "de"
      ],
      [
        "Ġin",
        "dependent"
      ],
      [
        "it",
        "ary"
      ],
      [
        "Ġd",
        "rop"
      ],
      [
        "Ġs",
        "econdary"
      ],
      [
        "Ġs",
        "afe"
      ],
      [
        "Ġp",
        "ast"
      ],
      [
        "Ġp",
        "als"
      ],
      [
        "ic",
        "a"
      ],
      [
        "ĠA",
        "mer"
      ],
      [
        "Ġf",
        "iel"
      ],
      [
        "Ġand",
        "rogen"
      ],
      [
        "Ġb",
        "ile"
      ],
      [
        "le",
        "gia"
      ],
      [
        "ĠT",
        "olerability"
      ],
      [
        "ur",
        "al"
      ],
      [
        "Ġl",
        "and"
      ],
      [
        "Ġth",
        "ous"
      ],
      [
        "et",
        "ry"
      ],
      [
        "Ġne",
        "eds"
      ],
      [
        "cl",
        "usion"
      ],
      [
        "Ġpro",
        "ced"
      ],
      [
        "Ġpro",
        "bable"
      ],
      [
        "Ġg",
        "reater"
      ],
      [
        "Ġh",
        "und"
      ],
      [
        "ĠS",
        "BMA"
      ],
      [
        "ive",
        "ly"
      ],
      [
        "Ġdis",
        "ting"
      ],
      [
        "Ġcon",
        "ver"
      ],
      [
        "Ġcon",
        "tr"
      ],
      [
        "red",
        "s"
      ],
      [
        "red",
        "itary"
      ],
      [
        "Ġo",
        "xim"
      ],
      [
        "ress",
        "ive"
      ],
      [
        "Ġbe",
        "cause"
      ],
      [
        "lin",
        "ked"
      ],
      [
        "ĠP",
        "erc"
      ],
      [
        "ad",
        "es"
      ],
      [
        "Ġint",
        "ak"
      ],
      [
        "ĠC",
        "AG"
      ],
      [
        "Ġsp",
        "astic"
      ],
      [
        "Ġev",
        "entually"
      ],
      [
        "Ġexp",
        "lain"
      ],
      [
        "po",
        "ventil"
      ],
      [
        "and",
        "inav"
      ],
      [
        "ĠN",
        "orth"
      ],
      [
        "Ġen",
        "com"
      ],
      [
        "Ġen",
        "zym"
      ],
      [
        "Ġstud",
        "ied"
      ],
      [
        "ous",
        "ly"
      ],
      [
        "Ġcrit",
        "ical"
      ],
      [
        "Ġdys",
        "phagia"
      ],
      [
        "Ġpl",
        "ace"
      ],
      [
        "ĠIn",
        "tra"
      ],
      [
        "ĠIn",
        "clusion"
      ],
      [
        "Ġpar",
        "ap"
      ],
      [
        "Ġper",
        "oxide"
      ],
      [
        "Ġreg",
        "ular"
      ],
      [
        "MN",
        "D"
      ],
      [
        "Ġdem",
        "and"
      ],
      [
        "ĠG",
        "GG"
      ],
      [
        "Ġcal",
        "oric"
      ],
      [
        "Ġcondit",
        "ion"
      ],
      [
        "ĠO",
        "ver"
      ],
      [
        "Ġagg",
        "ressive"
      ],
      [
        "Ġox",
        "ygen"
      ],
      [
        "ĠB",
        "ody"
      ],
      [
        "Ġmetabol",
        "ic"
      ],
      [
        "Ġhyp",
        "erc"
      ],
      [
        "Ġinf",
        "usions"
      ],
      [
        "Ġubiquit",
        "ously"
      ],
      [
        "Ġslow",
        "s"
      ],
      [
        "Ġslow",
        "er"
      ],
      [
        "Ġ201",
        "1"
      ],
      [
        "Ġradical",
        "s"
      ],
      [
        "Ġassess",
        "es"
      ],
      [
        "Ġfat",
        "ty"
      ],
      [
        "ĠH",
        "igh"
      ],
      [
        "Ġextens",
        "ively"
      ],
      [
        "Ġdec",
        "ades"
      ],
      [
        "Ġnutrit",
        "ional"
      ],
      [
        "ĠSub",
        "jects"
      ],
      [
        "Ġ18",
        "0"
      ],
      [
        "Ġexpress",
        "ed"
      ],
      [
        "Ġpredict",
        "or"
      ],
      [
        "ĠEvalu",
        "ating"
      ],
      [
        "Ġfeature",
        "s"
      ],
      [
        "ĠSc",
        "andinav"
      ],
      [
        "alor",
        "ic"
      ],
      [
        "Ġhy",
        "drogen"
      ],
      [
        "Ġhy",
        "poventil"
      ],
      [
        "Ġalle",
        "le"
      ],
      [
        "Ġalle",
        "les"
      ],
      [
        "Ġcontain",
        "s"
      ],
      [
        "Ġmaxim",
        "al"
      ],
      [
        "Ġdur",
        "ation"
      ],
      [
        "ĠHe",
        "reditary"
      ],
      [
        "Ġfew",
        "er"
      ],
      [
        "Ġphenotyp",
        "ic"
      ],
      [
        "ĠRes",
        "piratory"
      ],
      [
        "Ġdiffer",
        "ent"
      ],
      [
        "Ġopen",
        "ed"
      ],
      [
        "Ġbenef",
        "its"
      ],
      [
        "ĠK",
        "enned"
      ],
      [
        "BiP",
        "AP"
      ],
      [
        "Nutrit",
        "ional"
      ],
      [
        "calor",
        "ie"
      ],
      [
        "pred",
        "ominant"
      ],
      [
        "pass",
        "es"
      ],
      [
        "Ġair",
        "way"
      ],
      [
        "Ġabo",
        "ve"
      ],
      [
        "Ġmalnutrit",
        "ion"
      ],
      [
        "Ġinde",
        "x"
      ],
      [
        "Ġdrop",
        "s"
      ],
      [
        "Ġsafe",
        "ly"
      ],
      [
        "Ġpals",
        "y"
      ],
      [
        "ĠAmer",
        "ica"
      ],
      [
        "Ġfiel",
        "d"
      ],
      [
        "Ġbile",
        "vel"
      ],
      [
        "Ġland",
        "mark"
      ],
      [
        "Ġthous",
        "ands"
      ],
      [
        "Ġproced",
        "ural"
      ],
      [
        "Ġhund",
        "reds"
      ],
      [
        "Ġdisting",
        "uished"
      ],
      [
        "Ġconver",
        "ts"
      ],
      [
        "Ġcontr",
        "ast"
      ],
      [
        "Ġoxim",
        "etry"
      ],
      [
        "ĠPerc",
        "utaneous"
      ],
      [
        "Ġintak",
        "e"
      ],
      [
        "Ġexplain",
        "ing"
      ],
      [
        "Ġencom",
        "passes"
      ],
      [
        "Ġenzym",
        "e"
      ],
      [
        "Ġplace",
        "ment"
      ],
      [
        "ĠIntra",
        "venous"
      ],
      [
        "Ġparap",
        "legia"
      ],
      [
        "ĠGGG",
        "GCC"
      ],
      [
        "Ġhyperc",
        "aloric"
      ],
      [
        "ĠScandinav",
        "ian"
      ],
      [
        "Ġhypoventil",
        "ation"
      ],
      [
        "ĠKenned",
        "y"
      ],
      [
        "0",
        "8"
      ],
      [
        "R",
        "ilu"
      ],
      [
        "R",
        "andomized"
      ],
      [
        "Y",
        "P"
      ],
      [
        "c",
        "er"
      ],
      [
        "e",
        "res"
      ],
      [
        "f",
        "eres"
      ],
      [
        "h",
        "im"
      ],
      [
        "l",
        "ished"
      ],
      [
        "o",
        "urs"
      ],
      [
        "o",
        "ast"
      ],
      [
        "p",
        "at"
      ],
      [
        "p",
        "atic"
      ],
      [
        "r",
        "al"
      ],
      [
        "r",
        "ength"
      ],
      [
        "s",
        "him"
      ],
      [
        "t",
        "age"
      ],
      [
        "t",
        "est"
      ],
      [
        "u",
        "red"
      ],
      [
        "z",
        "oth"
      ],
      [
        "in",
        "test"
      ],
      [
        "on",
        "oun"
      ],
      [
        "Ġt",
        "ak"
      ],
      [
        "re",
        "ad"
      ],
      [
        "Ġm",
        "ulticenter"
      ],
      [
        "he",
        "ost"
      ],
      [
        "Ġin",
        "activ"
      ],
      [
        "Ġd",
        "iz"
      ],
      [
        "Ġp",
        "ub"
      ],
      [
        "as",
        "ured"
      ],
      [
        "Ġf",
        "ur"
      ],
      [
        "Ġb",
        "ased"
      ],
      [
        "Ġe",
        "qu"
      ],
      [
        "ĠT",
        "rial"
      ],
      [
        "Ġre",
        "pe"
      ],
      [
        "om",
        "mon"
      ],
      [
        "om",
        "etr"
      ],
      [
        "te",
        "k"
      ],
      [
        "Ġis",
        "ometr"
      ],
      [
        "id",
        "er"
      ],
      [
        "Ġl",
        "iver"
      ],
      [
        "ia",
        "zole"
      ],
      [
        "Ġh",
        "ist"
      ],
      [
        "Ġh",
        "ours"
      ],
      [
        "ra",
        "ction"
      ],
      [
        "Ġcon",
        "cer"
      ],
      [
        "Ġst",
        "rength"
      ],
      [
        "Ġv",
        "ers"
      ],
      [
        "ĠC",
        "ontrolled"
      ],
      [
        "ĠC",
        "YP"
      ],
      [
        "ĠC",
        "oast"
      ],
      [
        "ĠC",
        "ommon"
      ],
      [
        "Ġsp",
        "read"
      ],
      [
        "ival",
        "ent"
      ],
      [
        "Ġpr",
        "onoun"
      ],
      [
        "Ġle",
        "ast"
      ],
      [
        "ine",
        "ment"
      ],
      [
        "Ġac",
        "ute"
      ],
      [
        "Ġhe",
        "patic"
      ],
      [
        "Ġsign",
        "ific"
      ],
      [
        "Ġ20",
        "08"
      ],
      [
        "ĠG",
        "old"
      ],
      [
        "ĠAd",
        "verse"
      ],
      [
        "Ġdemonstr",
        "ates"
      ],
      [
        "Ġvol",
        "tage"
      ],
      [
        "Ġinter",
        "feres"
      ],
      [
        "ĠO",
        "ral"
      ],
      [
        "Ġcons",
        "ider"
      ],
      [
        "Ġmetabol",
        "ized"
      ],
      [
        "me",
        "asured"
      ],
      [
        "Ġfinding",
        "s"
      ],
      [
        "Ġgastro",
        "intest"
      ],
      [
        "Ġassess",
        "ment"
      ],
      [
        "Ġ199",
        "5"
      ],
      [
        "Ġcont",
        "raction"
      ],
      [
        "Ġ202",
        "0"
      ],
      [
        "Ġsupport",
        "ed"
      ],
      [
        "Ġtrac",
        "heost"
      ],
      [
        "Ġben",
        "zoth"
      ],
      [
        "Ġinhib",
        "its"
      ],
      [
        "Ġref",
        "inement"
      ],
      [
        "Ġchann",
        "els"
      ],
      [
        "Ġneuropath",
        "ological"
      ],
      [
        "zin",
        "ess"
      ],
      [
        "Ġmaxim",
        "um"
      ],
      [
        "Ġdur",
        "ing"
      ],
      [
        "ĠHe",
        "pat"
      ],
      [
        "Rilu",
        "tek"
      ],
      [
        "shim",
        "a"
      ],
      [
        "Ġtak",
        "en"
      ],
      [
        "Ġinactiv",
        "ates"
      ],
      [
        "Ġdiz",
        "ziness"
      ],
      [
        "Ġpub",
        "lished"
[...]
