{
  "version": "1.0",
  "truncation": null,
  "padding": null,
  "added_tokens": [
    {
      "id": 0,
      "content": "<|endoftext|>",
      "single_word": false,
      "lstrip": false,
      "rstrip": false,
      "normalized": false,
      "special": true
    }
  ],
  "normalizer": {
    "type": "NFC"
  },
  "pre_tokenizer": {
    "type": "ByteLevel",
    "add_prefix_space": false,
    "trim_offsets": true,
    "use_regex": true
  },
  "post_processor": {
    "type": "ByteLevel",
    "add_prefix_space": true,
    "trim_offsets": false,
    "use_regex": true
  },
  "decoder": {
    "type": "ByteLevel",
    "add_prefix_space": true,
    "trim_offsets": true,
    "use_regex": true
  },
  "model": {
    "type": "BPE",
    "dropout": null,
    "unk_token": null,
    "continuing_subword_prefix": null,
    "end_of_word_suffix": null,
    "fuse_unk": false,
    "byte_fallback": false,
    "ignore_merges": false,
    "vocab": {
      "<|endoftext|>": 0,
      "!": 1,
      "\"": 2,
      "#": 3,
      "$": 4,
      "%": 5,
      "&": 6,
      "'": 7,
      "(": 8,
      ")": 9,
      "*": 10,
      "+": 11,
      ",": 12,
      "-": 13,
      ".": 14,
      "/": 15,
      "0": 16,
      "1": 17,
      "2": 18,
      "3": 19,
      "4": 20,
      "5": 21,
      "6": 22,
      "7": 23,
      "8": 24,
      "9": 25,
      ":": 26,
      ";": 27,
      "<": 28,
      "=": 29,
      ">": 30,
      "?": 31,
      "@": 32,
      "A": 33,
      "B": 34,
      "C": 35,
      "D": 36,
      "E": 37,
      "F": 38,
      "G": 39,
      "H": 40,
      "I": 41,
      "J": 42,
      "K": 43,
      "L": 44,
      "M": 45,
      "N": 46,
      "O": 47,
      "P": 48,
      "Q": 49,
      "R": 50,
      "S": 51,
      "T": 52,
      "U": 53,
      "V": 54,
      "W": 55,
      "X": 56,
      "Y": 57,
      "Z": 58,
      "[": 59,
      "\\": 60,
      "]": 61,
      "^": 62,
      "_": 63,
      "`": 64,
      "a": 65,
      "b": 66,
      "c": 67,
      "d": 68,
      "e": 69,
      "f": 70,
      "g": 71,
      "h": 72,
      "i": 73,
      "j": 74,
      "k": 75,
      "l": 76,
      "m": 77,
      "n": 78,
      "o": 79,
      "p": 80,
      "q": 81,
      "r": 82,
      "s": 83,
      "t": 84,
      "u": 85,
      "v": 86,
      "w": 87,
      "x": 88,
      "y": 89,
      "z": 90,
      "{": 91,
      "|": 92,
      "}": 93,
      "~": 94,
      "¡": 95,
      "¢": 96,
      "£": 97,
      "¤": 98,
      "¥": 99,
      "¦": 100,
      "§": 101,
      "¨": 102,
      "©": 103,
      "ª": 104,
      "«": 105,
      "¬": 106,
      "®": 107,
      "¯": 108,
      "°": 109,
      "±": 110,
      "²": 111,
      "³": 112,
      "´": 113,
      "µ": 114,
      "¶": 115,
      "·": 116,
      "¸": 117,
      "¹": 118,
      "º": 119,
      "»": 120,
      "¼": 121,
      "½": 122,
      "¾": 123,
      "¿": 124,
      "À": 125,
      "Á": 126,
      "Â": 127,
      "Ã": 128,
      "Ä": 129,
      "Å": 130,
      "Æ": 131,
      "Ç": 132,
      "È": 133,
      "É": 134,
      "Ê": 135,
      "Ë": 136,
      "Ì": 137,
      "Í": 138,
      "Î": 139,
      "Ï": 140,
      "Ð": 141,
      "Ñ": 142,
      "Ò": 143,
      "Ó": 144,
      "Ô": 145,
      "Õ": 146,
      "Ö": 147,
      "×": 148,
      "Ø": 149,
      "Ù": 150,
      "Ú": 151,
      "Û": 152,
      "Ü": 153,
      "Ý": 154,
      "Þ": 155,
      "ß": 156,
      "à": 157,
      "á": 158,
      "â": 159,
      "ã": 160,
      "ä": 161,
      "å": 162,
      "æ": 163,
      "ç": 164,
      "è": 165,
      "é": 166,
      "ê": 167,
      "ë": 168,
      "ì": 169,
      "í": 170,
      "î": 171,
      "ï": 172,
      "ð": 173,
      "ñ": 174,
      "ò": 175,
      "ó": 176,
      "ô": 177,
      "õ": 178,
      "ö": 179,
      "÷": 180,
      "ø": 181,
      "ù": 182,
      "ú": 183,
      "û": 184,
      "ü": 185,
      "ý": 186,
      "þ": 187,
      "ÿ": 188,
      "Ā": 189,
      "ā": 190,
      "Ă": 191,
      "ă": 192,
      "Ą": 193,
      "ą": 194,
      "Ć": 195,
      "ć": 196,
      "Ĉ": 197,
      "ĉ": 198,
      "Ċ": 199,
      "ċ": 200,
      "Č": 201,
      "č": 202,
      "Ď": 203,
      "ď": 204,
      "Đ": 205,
      "đ": 206,
      "Ē": 207,
      "ē": 208,
      "Ĕ": 209,
      "ĕ": 210,
      "Ė": 211,
      "ė": 212,
      "Ę": 213,
      "ę": 214,
      "Ě": 215,
      "ě": 216,
      "Ĝ": 217,
      "ĝ": 218,
      "Ğ": 219,
      "ğ": 220,
      "Ġ": 221,
      "ġ": 222,
      "Ģ": 223,
      "ģ": 224,
      "Ĥ": 225,
      "ĥ": 226,
      "Ħ": 227,
      "ħ": 228,
      "Ĩ": 229,
      "ĩ": 230,
      "Ī": 231,
      "ī": 232,
      "Ĭ": 233,
      "ĭ": 234,
      "Į": 235,
      "į": 236,
      "İ": 237,
      "ı": 238,
      "Ĳ": 239,
      "ĳ": 240,
      "Ĵ": 241,
      "ĵ": 242,
      "Ķ": 243,
      "ķ": 244,
      "ĸ": 245,
      "Ĺ": 246,
      "ĺ": 247,
      "Ļ": 248,
      "ļ": 249,
      "Ľ": 250,
      "ľ": 251,
      "Ŀ": 252,
      "ŀ": 253,
      "Ł": 254,
      "ł": 255,
      "Ń": 256,
      "in": 257,
      "Ġa": 258,
      "Ġt": 259,
      "re": 260,
      "on": 261,
      "ti": 262,
      "he": 263,
      "en": 264,
      "te": 265,
      "Ġs": 266,
      "al": 267,
      "Ġc": 268,
      "Ġo": 269,
      "Ġthe": 270,
      "Ġp": 271,
      "Ġin": 272,
      "ro": 273,
      "Ġan": 274,
      "or": 275,
      "er": 276,
      "es": 277,
      "is": 278,
      "Ġm": 279,
      "tion": 280,
      "Ġw": 281,
      "Ġd": 282,
      "an": 283,
      "Ġand": 284,
      "ed": 285,
      "ic": 286,
      "ing": 287,
      "it": 288,
      "Ġof": 289,
      "Ġf": 290,
      "ar": 291,
      "as": 292,
      "Ġb": 293,
      "at": 294,
      "le": 295,
      "Ġre": 296,
      "Ġe": 297,
      "Ġ(": 298,
      "ent": 299,
      "ation": 300,
      "el": 301,
      "ate": 302,
      "Ġto": 303,
      "Ġn": 304,
      "us": 305,
      "ul": 306,
      "om": 307,
      "ly": 308,
      "ec": 309,
      "ac": 310,
      "ig": 311,
      "ve": 312,
      "ur": 313,
      "ĠT": 314,
      "ol": 315,
      "id": 316,
      "im": 317,
      "un": 318,
      "Ġh": 319,
      "Ġth": 320,
      "os": 321,
      "âĢ": 322,
      "ĠA": 323,
      "ith": 324,
      "Ġpro": 325,
      "Ġl": 326,
      "Ġwith": 327,
      "res": 328,
      "et": 329,
      "ot": 330,
      "ter": 331,
      "Ġg": 332,
      "uc": 333,
      "Ġst": 334,
      "Ġas": 335,
      "am": 336,
      "ere": 337,
      "Ġcon": 338,
      "Ġfor": 339,
      "tic": 340,
      "il": 341,
      "if": 342,
      "ĠS": 343,
      "ated": 344,
      "Ġex": 345,
      "ĠC": 346,
      "ra": 347,
      "ce": 348,
      "ow": 349,
      "ri": 350,
      "oc": 351,
      "ab": 352,
      "Ġv": 353,
      "od": 354,
      "ut": 355,
      "Ġde": 356,
      "ati": 357,
      "ell": 358,
      "ity": 359,
      "si": 360,
      "ment": 361,
      "ag": 362,
      "ted": 363,
      "Ġal": 364,
      "Ġis": 365,
      "ts": 366,
      "og": 367,
      "Ġne": 368,
      "se": 369,
      "ud": 370,
      "ver": 371,
      "ĠI": 372,
      "ys": 373,
      "ĠP": 374,
      "um": 375,
      "Ġac": 376,
      "Ġthat": 377,
      "op": 378,
      "Ġ1": 379,
      "Ġdis": 380,
      "ir": 381,
      "ical": 382,
      "up": 383,
      "ĠM": 384,
      ").": 385,
      "Ġcom": 386,
      "Ġbe": 387,
      "her": 388,
      "Ġon": 389,
      "Ġwere": 390,
      "ĠThe": 391,
      "Ġ2": 392,
      "Ġwas": 393,
      "Ġ.": 394,
      "ase": 395,
      "Ġby": 396,
      "st": 397,
      "ran": 398,
      "ĠF": 399,
      "ure": 400,
      "Ġim": 401,
      "âĢī": 402,
      "qu": 403,
      "Ġcell": 404,
      "rom": 405,
      "ant": 406,
      "ain": 407,
      "vel": 408,
      "Ġor": 409,
      "Ġinc": 410,
      "ff": 411,
      "ĠR": 412,
      "ĠN": 413,
      "Ġres": 414,
      "pl": 415,
      "di": 416,
      "duc": 417,
      "ĠD": 418,
      "hi": 419,
      "ess": 420,
      "ign": 421,
      "Ġen": 422,
      "ug": 423,
      "Âł": 424,
      "Ġare": 425,
      "ies": 426,
      "Ġcomp": 427,
      "ore": 428,
      "und": 429,
      "),": 430,
      "ĠH": 431,
      "Ġus": 432,
      "ine": 433,
      "ay": 434,
      "ad": 435,
      "ents": 436,
      "Ġat": 437,
      "sion": 438,
      "th": 439,
      "iz": 440,
      "ific": 441,
      "ph": 442,
      "por": 443,
      "ath": 444,
      "ub": 445,
      "Ġgen": 446,
      "Ġch": 447,
      "Ġexp": 448,
      "enti": 449,
      "ers": 450,
      "Ġstud": 451,
      "Ġle": 452,
      "ction": 453,
      "red": 454,
      "igh": 455,
      "ĠE": 456,
      "ĠB": 457,
      "Ġse": 458,
      "Ġfrom": 459,
      "Ġprote": 460,
      "00": 461,
      "ations": 462,
      "tive": 463,
      "orm": 464,
      "Ġsign": 465,
      "Ġcont": 466,
      "Ġad": 467,
      "pec": 468,
      "olog": 469,
      "ĠG": 470,
      "ous": 471,
      "Ġsh": 472,
      "NA": 473,
      "pe": 474,
      "Ġpati": 475,
      "ich": 476,
      "ting": 477,
      "Ġwh": 478,
      "ular": 479,
      "tiv": 480,
      "ĠIn": 481,
      "uro": 482,
      "ons": 483,
      "ther": 484,
      "Ġmod": 485,
      "ved": 486,
      "rans": 487,
      "pt": 488,
      "age": 489,
      "pro": 490,
      "LS": 491,
      "de": 492,
      "ding": 493,
      "gen": 494,
      "Ġcan": 495,
      "ch": 496,
      "ory": 497,
      "Ġprotein": 498,
      "âĢĵ": 499,
      "Ġdise": 500,
      "ge": 501,
      "Ġass": 502,
      "Ġcl": 503,
      "ffec": 504,
      "unction": 505,
      "Ġr": 506,
      "âĢĲ": 507,
      "Ġcells": 508,
      "ression": 509,
      "Ġmic": 510,
      "ence": 511,
      "ally": 512,
      "able": 513,
      "tr": 514,
      "ple": 515,
      "ia": 516,
      "ative": 517,
      "Ġper": 518,
      "Ġneuro": 519,
      "ip": 520,
      "Ġco": 521,
      "vi": 522,
      "Ġ3": 523,
      "ance": 524,
      "ĠL": 525,
      "Ġpatients": 526,
      "Ġdi": 527,
      "ap": 528,
      "Ġwe": 529,
      "lec": 530,
      "ary": 531,
      "Ġpre": 532,
      "Ġtrans": 533,
      "ased": 534,
      "act": 535,
      "Ġap": 536,
      "ĠW": 537,
      "Ġwhich": 538,
      "Ġhe": 539,
      "Ġpath": 540,
      "eren": 541,
      "iff": 542,
      "em": 543,
      "Ġha": 544,
      "Ġinf": 545,
      "Ġit": 546,
      "Ġinter": 547,
      "tions": 548,
      "Ġreg": 549,
      "vid": 550,
      "ating": 551,
      "ari": 552,
      "Ġneur": 553,
      "ost": 554,
      "Ġdiff": 555,
      "ress": 556,
      "end": 557,
      "ates": 558,
      "ors": 559,
      "Ġmet": 560,
      "ros": 561,
      "Ġthis": 562,
      "Ġet": 563,
      "ke": 564,
      "to": 565,
      "Ġpar": 566,
      "Ġsc": 567,
      "ges": 568,
      "Ġpl": 569,
      "Ġhave": 570,
      "lud": 571,
      "Ġ20": 572,
      "yn": 573,
      "tem": 574,
      "Ġanal": 575,
      "Fig": 576,
      "ome": 577,
      "mon": 578,
      "etw": 579,
      "oci": 580,
      "ĠO": 581,
      "ĠALS": 582,
      "Ġsignific": 583,
      "Ġnot": 584,
      "ue": 585,
      "rain": 586,
      "Ġactiv": 587,
      "han": 588,
      "yp": 589,
      "Ġshow": 590,
      "Ġtre": 591,
      "rol": 592,
      "ility": 593,
      "Ġdisease": 594,
      "ond": 595,
      "Ġeffec": 596,
      "so": 597,
      "ugh": 598,
      "low": 599,
      "hen": 600,
      "Ġcor": 601,
      "ĠTh": 602,
      "Ġfunction": 603,
      "Ġstudy": 604,
      "Ġsignificant": 605,
      "Ġdifferen": 606,
      "Ġusing": 607,
      "ial": 608,
      "ases": 609,
      "Ġ4": 610,
      "Ġab": 611,
      "Ġinclud": 612,
      "Ġincre": 613,
      "form": 614,
      "Ġ5": 615,
      "ion": 616,
      "uch": 617,
      "Ġalso": 618,
      "ulation": 619,
      "Ġsub": 620,
      "Ġgro": 621,
      "val": 622,
      "Ġph": 623,
      "Ġob": 624,
      "Ġbi": 625,
      "ist": 626,
      "all": 627,
      "Ġlevel": 628,
      "een": 629,
      "Ġthese": 630,
      "ied": 631,
      "Ġund": 632,
      "enc": 633,
      "amm": 634,
      "etween": 635,
      "min": 636,
      "and": 637,
      "Ġrec": 638,
      "rib": 639,
      "Ġdat": 640,
      "Ġbetween": 641,
      "ven": 642,
      "ach": 643,
      "tes": 644,
      "Ġmodel": 645,
      "inical": 646,
      "ĠU": 647,
      "hib": 648,
      "Ġun": 649,
      "Ġanalys": 650,
      "Ġ0": 651,
      "ep": 652,
      "str": 653,
      "Ġvari": 654,
      "Ġinv": 655,
      "atory": 656,
      "Ġstr": 657,
      "ark": 658,
      "Ġspec": 659,
      "Ġhas": 660,
      "Ġmay": 661,
      "Ġag": 662,
      "mun": 663,
      "reg": 664,
      "Ġbeen": 665,
      "ism": 666,
      "rial": 667,
      "arg": 668,
      "iti": 669,
      "ym": 670,
      ".,": 671,
      "Ġk": 672,
      "Ġro": 673,
      "Ġgene": 674,
      "ological": 675,
      "ren": 676,
      "est": 677,
      "Ġca": 678,
      "ound": 679,
      "ten": 680,
      "yl": 681,
      "Ġanti": 682,
      "ack": 683,
      "Ġsuch": 684,
      "Ġresul": 685,
      "Ġacc": 686,
      "Ġstudies": 687,
      "Ġcons": 688,
      "port": 689,
      "atment": 690,
      "Ġtheir": 691,
      "dition": 692,
      "ass": 693,
      "Ġreduc": 694,
      "ĠThis": 695,
      "Ġexpression": 696,
      "lamm": 697,
      "Ġsup": 698,
      "ong": 699,
      "ib": 700,
      "ized": 701,
      "ual": 702,
      "mo": 703,
      "Ġhigh": 704,
      "'s": 705,
      "ystem": 706,
      "oth": 707,
      "ential": 708,
      "Ġclinical": 709,
      "Ġthera": 710,
      "Ġmo": 711,
      "ill": 712,
      "Ġme": 713,
      "Ġpot": 714,
      "Ġtreatment": 715,
      "lu": 716,
      "ct": 717,
      "ast": 718,
      "entif": 719,
      "10": 720,
      "ight": 721,
      "inding": 722,
      "Ġlevels": 723,
      "Ġsp": 724,
      "Ġgroup": 725,
      "Ġassoci": 726,
      "osis": 727,
      "Ġunder": 728,
      "tim": 729,
      "Ġpres": 730,
      "Ġresp": 731,
      "ays": 732,
      "uld": 733,
      "gener": 734,
      "Ġdata": 735,
      "ogen": 736,
      "velop": 737,
      "edi": 738,
      "ser": 739,
      "ose": 740,
      "inal": 741,
      "Ġid": 742,
      "Ġno": 743,
      "Ġcontrol": 744,
      "ures": 745,
      "Ġbrain": 746,
      "Ġrel": 747,
      "Ġused": 748,
      "RNA": 749,
      "roph": 750,
      "urther": 751,
      "ral": 752,
      "20": 753,
      "cess": 754,
      "ĠK": 755,
      "Ġmicro": 756,
      "Ġanalysis": 757,
      "ord": 758,
      "one": 759,
      "Ġsystem": 760,
      "ni": 761,
      "Ġsam": 762,
      "Ġother": 763,
      "pa": 764,
      "ox": 765,
      "Ġprog": 766,
      "plic": 767,
      "per": 768,
      "ever": 769,
      "rough": 770,
      "Ġli": 771,
      "Ġmit": 772,
      "Ġits": 773,
      "Ġdevelop": 774,
      "Ġform": 775,
      "ability": 776,
      "Ġdec": 777,
      "och": 778,
      "Ġpr": 779,
      "tain": 780,
      "rel": 781,
      "cl": 782,
      "ology": 783,
      "The": 784,
      "vely": 785,
      "Ġpartic": 786,
      "âĪ": 787,
      "Ġchan": 788,
      "ew": 789,
      "Ġmice": 790,
      "ces": 791,
      "ak": 792,
      "echan": 793,
      "Ġfol": 794,
      "agn": 795,
      "Ġinto": 796,
      "ide": 797,
      "Ġ6": 798,
      "onal": 799,
      "Ġobser": 800,
      "Ġboth": 801,
      "ens": 802,
      "Ġsyn": 803,
      "tal": 804,
      "fter": 805,
      "Ġidentif": 806,
      "ĠV": 807,
      "Ġsur": 808,
      "Ġqu": 809,
      "Ġover": 810,
      "ree": 811,
      "Ġmore": 812,
      "Ġfact": 813,
      "lo": 814,
      "Ġimmun": 815,
      "Ġpos": 816,
      "Ġpo": 817,
      "Ġmechan": 818,
      "arget": 819,
      "tical": 820,
      "otor": 821,
      "Ġappro": 822,
      "ucle": 823,
      "Ġdes": 824,
      "hibit": 825,
      "Ġpathw": 826,
      "hile": 827,
      "Ġra": 828,
      "Ġcomple": 829,
      "ants": 830,
      "ype": 831,
      "own": 832,
      "Ġind": 833,
      "our": 834,
      "of": 835,
      "Ġincluding": 836,
      "Ġy": 837,
      "Ġcy": 838,
      "Ġval": 839,
      "Ġthrough": 840,
      "Ġproteins": 841,
      "cle": 842,
      "ochond": 843,
      "ĠÎ": 844,
      "ared": 845,
      "Ġsug": 846,
      "ear": 847,
      "Ġup": 848,
      "iss": 849,
      "Ġperform": 850,
      "ail": 851,
      "Ġtim": 852,
      "ues": 853,
      "Ġman": 854,
      "Ġbut": 855,
      "Ġsugges": 856,
      "Ġmus": 857,
      "43": 858,
      "eri": 859,
      "Ġmut": 860,
      "Ġout": 861,
      "ĠAD": 862,
      "Ġpotential": 863,
      "jec": 864,
      "hed": 865,
      "Ġfollow": 866,
      "owever": 867,
      "Ġmul": 868,
      "uct": 869,
      "DP": 870,
      "Ġindic": 871,
      "12": 872,
      "Ġall": 873,
      "oph": 874,
      "Ġwhe": 875,
      "abol": 876,
      "SC": 877,
      "Ġprocess": 878,
      "Ġassociated": 879,
      "Ġneurons": 880,
      "wo": 881,
      "ization": 882,
      "gl": 883,
      "xt": 884,
      "Ġmitochond": 885,
      "out": 886,
      "ard": 887,
      "Ġlow": 888,
      "ĠAl": 889,
      "acter": 890,
      "uring": 891,
      "Ġsignal": 892,
      "ffic": 893,
      "âĪĴ": 894,
      "Ġ7": 895,
      "ult": 896,
      "Ġaut": 897,
      "cy": 898,
      "uman": 899,
      "Ġtarget": 900,
      "ments": 901,
      "tro": 902,
      "ber": 903,
      "Ġrepor": 904,
      "Ġcol": 905,
      "alth": 906,
      "ork": 907,
      "ĠThese": 908,
      "cent": 909,
      "Ġmotor": 910,
      "Ġ10": 911,
      "ribu": 912,
      "pend": 913,
      "Ġdef": 914,
      "Ġam": 915,
      "sive": 916,
      "Ġthan": 917,
      "ross": 918,
      "Ġmechanism": 919,
      "Ġthere": 920,
      "Ġeffects": 921,
      "Ġobserved": 922,
      "cri": 923,
      "atic": 924,
      "Ġmetabol": 925,
      "Ġresults": 926,
      "Ġem": 927,
      "ĠRNA": 928,
      "Ġprovid": 929,
      "Ġcar": 930,
      "Ġrole": 931,
      "Ġdys": 932,
      "Ġincreased": 933,
      "cer": 934,
      "Ġfound": 935,
      "Ġ,": 936,
      "Ġinvol": 937,
      "Ġcompared": 938,
      "ric": 939,
      "Ġmeth": 940,
      "ely": 941,
      "Ġrese": 942,
      "Ġar": 943,
      "In": 944,
      "Ġdiagn": 945,
      "Ġmulti": 946,
      "Figure": 947,
      "Ġtwo": 948,
      "Ġinte": 949,
      "ving": 950,
      "Ġassess": 951,
      "Ġactivity": 952,
      "Ġafter": 953,
      "Ġimpro": 954,
      "ise": 955,
      "ptom": 956,
      "arch": 957,
      "Ġlead": 958,
      "11": 959,
      "Ġour": 960,
      "Ġgenes": 961,
      "ines": 962,
      "Ġnon": 963,
      "ace": 964,
      "duced": 965,
      "hes": 966,
      "monstr": 967,
      "Ġregul": 968,
      "arly": 969,
      "Ġsec": 970,
      "Ġinflamm": 971,
      "Ġsignificantly": 972,
      "omes": 973,
      "Ġdemonstr": 974,
      "Ġhuman": 975,
      "Ġmon": 976,
      "ormal": 977,
      "Ġ=": 978,
      "ature": 979,
      "peu": 980,
      "li": 981,
      "Î²": 982,
      "cept": 983,
      "les": 984,
      "tern": 985,
      "Ġend": 986,
      "Ġlim": 987,
      "ĠFig": 988,
      "peutic": 989,
      "Ġstress": 990,
      "ently": 991,
      "Ġneurode": 992,
      "Ġtiss": 993,
      "AP": 994,
      "Ġeach": 995,
      "Ġgener": 996,
      "ron": 997,
      "Ġmem": 998,
      "Ġcaus": 999,
      "Ġmolec": 1000,
      "Ġhyp": 1001,
      "Ġdist": 1002,
      "Ġmeas": 1003,
      "erg": 1004,
      "Ġstruct": 1005,
      "ĠWe": 1006,
      "Ġ9": 1007,
      "over": 1008,
      "ne": 1009,
      "ale": 1010,
      "Ġdr": 1011,
      "Ġox": 1012,
      "ĠHowever": 1013,
      "ions": 1014,
      "ite": 1015,
      "inf": 1016,
      "hem": 1017,
      "Ġnum": 1018,
      "Ġwell": 1019,
      "ock": 1020,
      "Ġindi": 1021,
      "isk": 1022,
      "old": 1023,
      "Ġdiseases": 1024,
      "ced": 1025,
      "Ġprim": 1026,
      "Ġfinding": 1027,
      "Ġfurther": 1028,
      "til": 1029,
      "Ġmodels": 1030,
      "plement": 1031,
      "Ġage": 1032,
      "ores": 1033,
      "13": 1034,
      "anti": 1035,
      "Ġneurodegener": 1036,
      "Ġrem": 1037,
      "Ġmost": 1038,
      "Ġtr": 1039,
      "Ġspecific": 1040,
      "oid": 1041,
      "ition": 1042,
      "Ġwhile": 1043,
      "Ġconf": 1044,
      "tig": 1045,
      "Ġinhibit": 1046,
      "Ġwithin": 1047,
      "OD": 1048,
      "Ġhealth": 1049,
      "Ġtherapeutic": 1050,
      "Ġtime": 1051,
      "asm": 1052,
      "fore": 1053,
      "ages": 1054,
      "Ġinterac": 1055,
      "Ġdifferent": 1056,
      "Ġchar": 1057,
      "Ġop": 1058,
      "ited": 1059,
      "15": 1060,
      "Ġgl": 1061,
      "Ġcould": 1062,
      "ech": 1063,
      "imal": 1064,
      "gan": 1065,
      "Ġsim": 1066,
      "ymptom": 1067,
      "trac": 1068,
      "ogni": 1069,
      "19": 1070,
      "Ġ202": 1071,
      "Ġshowed": 1072,
      "ize": 1073,
      "ves": 1074,
      "amin": 1075,
      "fer": 1076,
      "ulated": 1077,
      "vidual": 1078,
      "Ġmitochondrial": 1079,
      "Ġkn": 1080,
      "Ġonly": 1081,
      "Ġ8": 1082,
      "Ġrespon": 1083,
      "ble": 1084,
      "Ġpred": 1085,
      "Ġshown": 1086,
      "pos": 1087,
      "Ġreported": 1088,
      "Ġser": 1089,
      "Ġaddition": 1090,
      "Ġhig": 1091,
      "Ġmain": 1092,
      "Ġresearch": 1093,
      "Ġperformed": 1094,
      "ef": 1095,
      "Ġnucle": 1096,
      "Ġ[": 1097,
      "Ġdevelopment": 1098,
      "au": 1099,
      "MA": 1100,
      "Ġins": 1101,
      "Ġone": 1102,
      "CA": 1103,
      "ĠFor": 1104,
      "Ġcomplex": 1105,
      "ough": 1106,
      "vious": 1107,
      "18": 1108,
      "ink": 1109,
      "tively": 1110,
      "ency": 1111,
      "Ġchanges": 1112,
      "its": 1113,
      "ateg": 1114,
      "Ġdisord": 1115,
      "ins": 1116,
      "Ġrisk": 1117,
      "ĠTDP": 1118,
      "Ġmethod": 1119,
      "Ġduring": 1120,
      "py": 1121,
      "Ġindividual": 1122,
      "Ġtranscri": 1123,
      "ind": 1124,
      "par": 1125,
      "cular": 1126,
      "Ġcharacter": 1127,
      "Ġdrug": 1128,
      "Ġpatient": 1129,
      "lev": 1130,
      "Ġproduc": 1131,
      "related": 1132,
      "rent": 1133,
      "ption": 1134,
      "Ġdete": 1135,
      "osph": 1136,
      "ackage": 1137,
      "14": 1138,
      "Ġfindings": 1139,
      "ater": 1140,
      "usion": 1141,
      "Ġneuronal": 1142,
      "ci": 1143,
      "Ġran": 1144,
      "Ġsequ": 1145,
      "lation": 1146,
      "Ġwhere": 1147,
      "depend": 1148,
      "gr": 1149,
      "are": 1150,
      "Ġmedi": 1151,
      "valu": 1152,
      "Ġfe": 1153,
      "pres": 1154,
      "Ġactivation": 1155,
      "17": 1156,
      "ung": 1157,
      "ypes": 1158,
      "Ġmi": 1159,
      "ters": 1160,
      "inflamm": 1161,
      "Ġinves": 1162,
      "view": 1163,
      "Ġ\"": 1164,
      "Ġidentified": 1165,
      "Ġmuscle": 1166,
      "ĠJ": 1167,
      "Ġinvestig": 1168,
      "pair": 1169,
      "ities": 1170,
      "ĠPD": 1171,
      "ples": 1172,
      "cc": 1173,
      "ort": 1174,
      "vers": 1175,
      "000": 1176,
      "Ġloc": 1177,
      "Â±": 1178,
      "ry": 1179,
      "ically": 1180,
      "qui": 1181,
      "Ġmin": 1182,
      "rosis": 1183,
      "Ġdecre": 1184,
      "ould": 1185,
      "Ġbiom": 1186,
      "Ġcri": 1187,
      "Ġfactors": 1188,
      "Ġaffec": 1189,
      "rect": 1190,
      "bin": 1191,
      "16": 1192,
      "Ġsymptom": 1193,
      "Ġdel": 1194,
      "Ġexper": 1195,
      "RI": 1196,
      "Ġeffect": 1197,
      "ered": 1198,
      "ĠAn": 1199,
      "irst": 1200,
      "CT": 1201,
      "Ġevalu": 1202,
      "Ġpost": 1203,
      "Ġacid": 1204,
      "Ġreduced": 1205,
      "usep": 1206,
      "GF": 1207,
      "usepackage": 1208,
      "50": 1209,
      "text": 1210,
      "veal": 1211,
      "Ġacross": 1212,
      "function": 1213,
      "Ġparticip": 1214,
      "Ġcur": 1215,
      "Ġgenetic": 1216,
      "Ġhigher": 1217,
      "ild": 1218,
      "Ġmechanisms": 1219,
      "sy": 1220,
      "ha": 1221,
      "ditions": 1222,
      "Ġnumber": 1223,
      "Ġagg": 1224,
      "Ġprevious": 1225,
      "ution": 1226,
      "Ġsignaling": 1227,
      "Ġsever": 1228,
      "Ġimport": 1229,
      "Ġreveal": 1230,
      "oss": 1231,
      "Ġref": 1232,
      "Ġdue": 1233,
      "Ġremain": 1234,
      "aging": 1235,
      "Ġconditions": 1236,
      "ears": 1237,
      "Ġhad": 1238,
      "arkers": 1239,
      "ateral": 1240,
      "lys": 1241,
      "Ġeffic": 1242,
      "iron": 1243,
      "arge": 1244,
      "Ġdifferenti": 1245,
      "ouse": 1246,
      "Ġmicrogl": 1247,
      "Ġma": 1248,
      "der": 1249,
      "Ġimmune": 1250,
      "Ġmed": 1251,
      "centr": 1252,
      "Ġpathways": 1253,
      "ob": 1254,
      "ognitive": 1255,
      "ĠSt": 1256,
      "ication": 1257,
      "Ġoxid": 1258,
      "Ġlong": 1259,
      "set": 1260,
      "Ġi": 1261,
      "Ġmeasure": 1262,
      "Ġwill": 1263,
      "istic": 1264,
      "ALS": 1265,
      "ĠDNA": 1266,
      "Ġmemb": 1267,
      "ics": 1268,
      "ĠAd": 1269,
      "Ġfi": 1270,
      "Ġexperim": 1271,
      "ural": 1272,
      "Ġresponse": 1273,
      "dependent": 1274,
      "Ġprogression": 1275,
      "Ġcompar": 1276,
      "Ġevid": 1277,
      "Ġbl": 1278,
      "spec": 1279,
      "SP": 1280,
      "SA": 1281,
      "Ġphen": 1282,
      "ophag": 1283,
      "Ġdisc": 1284,
      "Ġdam": 1285,
      "lood": 1286,
      "ody": 1287,
      "Ġconcentr": 1288,
      "%)": 1289,
      "Ġwhen": 1290,
      "sequ": 1291,
      "ented": 1292,
      "led": 1293,
      "Ġtissue": 1294,
      "av": 1295,
      "Ġcellular": 1296,
      "Ġthey": 1297,
      "Ġdeter": 1298,
      "Ġfunctional": 1299,
      "Ġincrease": 1300,
      "Ġes": 1301,
      "Ġax": 1302,
      "Ġimp": 1303,
      "AT": 1304,
      "based": 1305,
      "Ġdemonstrated": 1306,
      "Ġcal": 1307,
      "Ġneurodegenerative": 1308,
      "Ġloss": 1309,
      "Ġtes": 1310,
      "Ġuse": 1311,
      "Ġthree": 1312,
      "Ġpathway": 1313,
      "Ġrecept": 1314,
      "yd": 1315,
      "erm": 1316,
      "Ġaggreg": 1317,
      "acy": 1318,
      "Ġmy": 1319,
      "Ġconsid": 1320,
      "AR": 1321,
      "erived": 1322,
      "Ġmultiple": 1323,
      "upplement": 1324,
      "Ġtrial": 1325,
      "Ġexpl": 1326,
      "zed": 1327,
      "Ġorgan": 1328,
      "Ġke": 1329,
      "Ġrepres": 1330,
      "Ġpredic": 1331,
      "ram": 1332,
      "Ġcases": 1333,
      "ately": 1334,
      "Ġcognitive": 1335,
      "Ġdem": 1336,
      "esis": 1337,
      "Ġlip": 1338,
      "Ġcyt": 1339,
      "Ġgroups": 1340,
      "Ġsamples": 1341,
      "ocy": 1342,
      "Ġoutc": 1343,
      "Â°": 1344,
      "erv": 1345,
      "medi": 1346,
      "Ġearly": 1347,
      "Ġcancer": 1348,
      "Ġblood": 1349,
      "bi": 1350,
      "mong": 1351,
      "Ġparticular": 1352,
      "lis": 1353,
      "ek": 1354,
      "Ġprom": 1355,
      "vere": 1356,
      "ĠAs": 1357,
      "Ġpop": 1358,
      "Ġtest": 1359,
      "AC": 1360,
      "Ġcontribu": 1361,
      "Ġastro": 1362,
      "Ġneed": 1363,
      "Ġpromo": 1364,
      "Ġpoly": 1365,
      "Ġtech": 1366,
      "gth": 1367,
      "NS": 1368,
      "Ġpresent": 1369,
      "Ġfirst": 1370,
      "crib": 1371,
      "Ġvia": 1372,
      "Ġenhan": 1373,
      "Ġdysfunction": 1374,
      "ified": 1375,
      "ness": 1376,
      "Ġfib": 1377,
      "Ġtum": 1378,
      "rophic": 1379,
      "Ġvi": 1380,
      "ellular": 1381,
      "Ġol": 1382,
      "OS": 1383,
      "Ġthen": 1384,
      "Ġinduc": 1385,
      "atis": 1386,
      "Ġlower": 1387,
      "Ġocc": 1388,
      "SF": 1389,
      "ĠTo": 1390,
      "though": 1391,
      "Ġnormal": 1392,
      "Ġphosph": 1393,
      "Ġbased": 1394,
      "gra": 1395,
      "Ġmembran": 1396,
      "Ġev": 1397,
      "Ġsurvi": 1398,
      "AS": 1399,
      "Ġdo": 1400,
      "itive": 1401,
      "ute": 1402,
      "Ġstrateg": 1403,
      "25": 1404,
      "Ġfollowing": 1405,
      "Ġexpress": 1406,
      "Ġadv": 1407,
      "Ġpathogen": 1408,
      "Ġflu": 1409,
      "ĠFurther": 1410,
      "tained": 1411,
      "AD": 1412,
      "Ġastrocy": 1413,
      "Ġmean": 1414,
      "Ġdom": 1415,
      "Ġrequi": 1416,
      "Ġep": 1417,
      "ysi": 1418,
      "Ġdisorders": 1419,
      "tivity": 1420,
      "Ġsm": 1421,
      "Ġpe": 1422,
      "Ġevidence": 1423,
      "ental": 1424,
      "pression": 1425,
      "ection": 1426,
      "Ġmouse": 1427,
      "Ġspinal": 1428,
      "ĠSOD": 1429,
      "Ġintegr": 1430,
      "ational": 1431,
      "Vs": 1432,
      "ingle": 1433,
      "rogen": 1434,
      "ital": 1435,
      "Ġsol": 1436,
      "Ġdiagnos": 1437,
      "arm": 1438,
      "MP": 1439,
      "Ġreview": 1440,
      "Ġel": 1441,
      "sible": 1442,
      "ĠIt": 1443,
      "ety": 1444,
      "Ġvarious": 1445,
      "Â·": 1446,
      "Ġsen": 1447,
      "Ġlink": 1448,
      "âĢĶ": 1449,
      "ning": 1450,
      "MS": 1451,
      "Ġtra": 1452,
      "Ġinflu": 1453,
      "raph": 1454,
      "Ġcle": 1455,
      "log": 1456,
      "MN": 1457,
      "jur": 1458,
      "Ġiniti": 1459,
      "icity": 1460,
      "ules": 1461,
      "Ġthose": 1462,
      "Ġcombin": 1463,
      "ties": 1464,
      "Ġmat": 1465,
      "aining": 1466,
      "asis": 1467,
      "the": 1468,
      "Ġset": 1469,
      "Ġsome": 1470,
      "upplementary": 1471,
      "Ġantib": 1472,
      "Ġsi": 1473,
      "ilar": 1474,
      "Ġwho": 1475,
      "Ġmolecular": 1476,
      "Ġkey": 1477,
      "NF": 1478,
      "Ġtotal": 1479,
      "Ġdirect": 1480,
      "Ġconduc": 1481,
      "irm": 1482,
      "Ġcommon": 1483,
      "ex": 1484,
      "Ġdamage": 1485,
      "Ġprimary": 1486,
      "Ġclass": 1487,
      "Ġcr": 1488,
      "Ġyears": 1489,
      "Ġcorrel": 1490,
      "Ġimprove": 1491,
      "Ġphenot": 1492,
      "co": 1493,
      "con": 1494,
      "CR": 1495,
      "Ġoxidative": 1496,
      "Ġcent": 1497,
      "Ġfactor": 1498,
      "ily": 1499,
      "BS": 1500,
      "05": 1501,
      "etic": 1502,
      "Ġsymptoms": 1503,
      "Ġcap": 1504,
      "tered": 1505,
      "Ġrevealed": 1506,
      "Ġsmall": 1507,
      "Ġincluded": 1508,
      "Ġanaly": 1509,
      "Ġgrow": 1510,
      "Ġver": 1511,
      "specific": 1512,
      "Ġimpair": 1513,
      "23": 1514,
      "lected": 1515,
      "Ġz": 1516,
      "BP": 1517,
      "Ġdescrib": 1518,
      "Ġsurvival": 1519,
      "Ġdown": 1520,
      "othe": 1521,
      "ect": 1522,
      "iqu": 1523,
      "ov": 1524,
      "PS": 1525,
      "iver": 1526,
      "ophagy": 1527,
      "iting": 1528,
      "Ġexc": 1529,
      "Ġbinding": 1530,
      "Ġformation": 1531,
      "havi": 1532,
      "ÃĹ": 1533,
      "Ġav": 1534,
      "af": 1535,
      "Ġaccum": 1536,
      "ang": 1537,
      "Ġtype": 1538,
      "verse": 1539,
      "Ġsingle": 1540,
      "Ġimportant": 1541,
      "72": 1542,
      "Ġdeath": 1543,
      "Ġtherapy": 1544,
      "Ġinjur": 1545,
      "generation": 1546,
      "Ġadd": 1547,
      "Ġinform": 1548,
      "ĠCD": 1549,
      "aptic": 1550,
      "ĠIL": 1551,
      "Ġrepe": 1552,
      "ĠZ": 1553,
      "Ġinterven": 1554,
      "Ġdifferences": 1555,
      "Ġseveral": 1556,
      "Ġunderst": 1557,
      "Ġexam": 1558,
      "ality": 1559,
      "rup": 1560,
      "cop": 1561,
      "Ġanimal": 1562,
      "Ġindividuals": 1563,
      "ient": 1564,
      "ilit": 1565,
      "press": 1566,
      "Ġfam": 1567,
      "eg": 1568,
      "Ġreac": 1569,
      "ust": 1570,
      "Ġprof": 1571,
      "40": 1572,
      "Ġnew": 1573,
      "yot": 1574,
      "more": 1575,
      "Ġrespec": 1576,
      "ator": 1577,
      "ice": 1578,
      "ĠThere": 1579,
      "TD": 1580,
      "line": 1581,
      "Ġfac": 1582,
      "Ġelec": 1583,
      "ereb": 1584,
      "istr": 1585,
      "requ": 1586,
      "Ġquanti": 1587,
      "Ġconfirm": 1588,
      "xim": 1589,
      "Ġcontrols": 1590,
      "aus": 1591,
      "Ġinflammatory": 1592,
      "ood": 1593,
      "ĠAddition": 1594,
      "Ġtem": 1595,
      "RP": 1596,
      "Ġed": 1597,
      "viron": 1598,
      "ification": 1599,
      "Ġdiagnosis": 1600,
      "Ġscle": 1601,
      "reen": 1602,
      "Ġpers": 1603,
      "Ġvis": 1604,
      "US": 1605,
      "zym": 1606,
      "22": 1607,
      "30": 1608,
      "ame": 1609,
      "inflammatory": 1610,
      "Ġmutations": 1611,
      "ably": 1612,
      "Ġsclerosis": 1613,
      "ences": 1614,
      "eld": 1615,
      "ams": 1616,
      "Ġrat": 1617,
      "Ġstand": 1618,
      "Ġinvolved": 1619,
      "Î±": 1620,
      "yotrophic": 1621,
      "RNAs": 1622,
      "Ġmicroglia": 1623,
      "Ġapproach": 1624,
      "Ġbec": 1625,
      "eth": 1626,
      "Ġhighl": 1627,
      "Ġregions": 1628,
      "EM": 1629,
      "âĢ¯": 1630,
      "ĠCh": 1631,
      "Ġoccur": 1632,
      "NP": 1633,
      "Ġ12": 1634,
      "Ġcontr": 1635,
      "tre": 1636,
      "Ġlateral": 1637,
      "induced": 1638,
      "lic": 1639,
      "int": 1640,
      "Ġdomain": 1641,
      "Ġpat": 1642,
      "ynam": 1643,
      "Ġmor": 1644,
      "ive": 1645,
      "Ġj": 1646,
      "Ġwork": 1647,
      "ored": 1648,
      "asing": 1649,
      "Ġwithout": 1650,
      "Ġbehavi": 1651,
      "sc": 1652,
      "ĠTable": 1653,
      "Ġsimilar": 1654,
      "Ġprocesses": 1655,
      "ording": 1656,
      "Ġdid": 1657,
      "etwork": 1658,
      "Ġparticipants": 1659,
      "SCs": 1660,
      "oring": 1661,
      "Ġcare": 1662,
      "Ġben": 1663,
      "istent": 1664,
      "cted": 1665,
      "Ġextrac": 1666,
      "Ġexpos": 1667,
      "Ġplasm": 1668,
      "Ġleading": 1669,
      "Ġmembrane": 1670,
      "unt": 1671,
      "21": 1672,
      "93": 1673,
      "ĠQ": 1674,
      "II": 1675,
      "Cs": 1676,
      "atures": 1677,
      "Ġrele": 1678,
      "Ġparticularly": 1679,
      "ths": 1680,
      "ĠAT": 1681,
      "Ġlipid": 1682,
      "by": 1683,
      "ax": 1684,
      "arker": 1685,
      "ected": 1686,
      "CI": 1687,
      "Ġlys": 1688,
      "Ġfoc": 1689,
      "Ġtau": 1690,
      "Ġtranscription": 1691,
      "ising": 1692,
      "ful": 1693,
      "Ġinjury": 1694,
      "ascular": 1695,
      "ie": 1696,
      "Ġcoh": 1697,
      "Ġprec": 1698,
      "Ġsecond": 1699,
      "tit": 1700,
      "estab": 1701,
      "Ġvalid": 1702,
      "Ġcult": 1703,
      "ĠIm": 1704,
      "Ġ200": 1705,
      "ĠCon": 1706,
      "ĠNe": 1707,
      "Ġinflammation": 1708,
      "ĠSMA": 1709,
      "Ġshould": 1710,
      "Ġ30": 1711,
      "ised": 1712,
      "ĠPro": 1713,
      "omal": 1714,
      "Ġlif": 1715,
      "Ġamong": 1716,
      "tosis": 1717,
      "Ġneurolog": 1718,
      "Ġcir": 1719,
      "ument": 1720,
      "Ġint": 1721,
      "Ġonset": 1722,
      "Ġstim": 1723,
      "Ġcord": 1724,
      "encing": 1725,
      "Ġbas": 1726,
      "Ġrelated": 1727,
      "like": 1728,
      "ET": 1729,
      "ĠX": 1730,
      "Ġidentify": 1731,
      "ER": 1732,
      "ĠFurthermore": 1733,
      "art": 1734,
      "Ġdesign": 1735,
      "Ġcurrent": 1736,
      "uff": 1737,
      "allen": 1738,
      "Ġoutcomes": 1739,
      "ps": 1740,
      "Ġdescribed": 1741,
      "Ġfrequ": 1742,
      "Ġmetabolic": 1743,
      "ĠAdditionally": 1744,
      "Ġadmin": 1745,
      "ile": 1746,
      "cence": 1747,
      "Ġpathology": 1748,
      "vo": 1749,
      "Ġknown": 1750,
      "vironment": 1751,
      "rox": 1752,
      "ctive": 1753,
      "Ġrate": 1754,
      "ĠAÎ²": 1755,
      "24": 1756,
      "Ġnetwork": 1757,
      "Ġsample": 1758,
      "Table": 1759,
      "Ġlocal": 1760,
      "ule": 1761,
      "anding": 1762,
      "odies": 1763,
      "Ġtox": 1764,
      "ociated": 1765,
      "Ġapplic": 1766,
      "regulation": 1767,
      "AG": 1768,
      "other": 1769,
      "tide": 1770,
      "Ġline": 1771,
      "ian": 1772,
      "mit": 1773,
      "Ġsame": 1774,
      "hesis": 1775,
      "prote": 1776,
      "opl": 1777,
      "ria": 1778,
      "Ġinteractions": 1779,
      "Ġcritical": 1780,
      "ĠÎ±": 1781,
      "Ġneuron": 1782,
      "Ġmetabolism": 1783,
      "ger": 1784,
      "rich": 1785,
      "Ġchallen": 1786,
      "omic": 1787,
      "Ġnan": 1788,
      "Ġsize": 1789,
      "Ġproduction": 1790,
      "Ġphase": 1791,
      "Ġregion": 1792,
      "Ġpattern": 1793,
      "IN": 1794,
      "ired": 1795,
      "Ġtumor": 1796,
      "establis": 1797,
      "ĠMore": 1798,
      "imer": 1799,
      "Ġconducted": 1800,
      "regulated": 1801,
      "Ġallow": 1802,
      "ulations": 1803,
      "Ġdeliver": 1804,
      "Ã¤": 1805,
      "Ġsupport": 1806,
      "Ġpreviously": 1807,
      "Ġu": 1808,
      "Ġhist": 1809,
      "Ġvalues": 1810,
      "ata": 1811,
      "Ġprovide": 1812,
      "ylation": 1813,
      "Ġcereb": 1814,
      "Ġsuggesting": 1815,
      "ength": 1816,
      "ulate": 1817,
      "derived": 1818,
      "Ġstructure": 1819,
      "Ġalter": 1820,
      "Ġfocus": 1821,
      "Ġstatis": 1822,
      "Ġdisrup": 1823,
      "Ġreceptor": 1824,
      "Ġbiological": 1825,
      "|>": 1826,
      "Ġvol": 1827,
      "Ġpri": 1828,
      "ward": 1829,
      "Ġ15": 1830,
      "jor": 1831,
      "<|": 1832,
      "endof": 1833,
      "els": 1834,
      "endoftext": 1835,
      "Ġanalyses": 1836,
      "dom": 1837,
      "Ġenzym": 1838,
      "atal": 1839,
      "Ġavail": 1840,
      "Ġvit": 1841,
      "osomes": 1842,
      "ined": 1843,
      "ograph": 1844,
      "Ġimaging": 1845,
      "trans": 1846,
      "ium": 1847,
      "ner": 1848,
      "ish": 1849,
      "Ġpresence": 1850,
      "Ġwhether": 1851,
      "onses": 1852,
      "Ġvariants": 1853,
      "amp": 1854,
      "esp": 1855,
      "Âµ": 1856,
      "Ġagain": 1857,
      "Ġelev": 1858,
      "ronic": 1859,
      "Ġrepresent": 1860,
      "Ġproper": 1861,
      "iency": 1862,
      "Ġaccumulation": 1863,
      "Ġ19": 1864,
      "com": 1865,
      "grad": 1866,
      "rophy": 1867,
      "uration": 1868,
      "eline": 1869,
      "Ġprol": 1870,
      "Ġresponses": 1871,
      "Ġbiomarkers": 1872,
      "Al": 1873,
      "Ġsus": 1874,
      "tex": 1875,
      "Ġimpact": 1876,
      "mediated": 1877,
      "Ġabs": 1878,
      "Ġgre": 1879,
      "Ġinhib": 1880,
      "Ġgrowth": 1881,
      "Ġfunctions": 1882,
      "Ġrespectively": 1883,
      "Ġregulation": 1884,
      "27": 1885,
      "Ġvir": 1886,
      "erc": 1887,
      "BB": 1888,
      "uture": 1889,
      "associated": 1890,
      "Ġess": 1891,
      "Ġcompon": 1892,
      "ling": 1893,
      "Ġastrocytes": 1894,
      "tif": 1895,
      "26": 1896,
      "Ġtypes": 1897,
      "Ġbar": 1898,
      "ĠFigure": 1899,
      "ols": 1900,
      "ade": 1901,
      "Ġnec": 1902,
      "Ġpa": 1903,
      "Ġmajor": 1904,
      "Ġdynam": 1905,
      "Ġpathological": 1906,
      "me": 1907,
      "ĠY": 1908,
      "ipp": 1909,
      "round": 1910,
      "Ġhete": 1911,
      "Ġdefic": 1912,
      "Ġdecreased": 1913,
      "ĠBi": 1914,
      "Ġlik": 1915,
      "Ġcirc": 1916,
      "CC": 1917,
      "Ġsuggest": 1918,
      "Ġcardi": 1919,
      "Ġste": 1920,
      "Ġ<": 1921,
      "Ġexamin": 1922,
      "Ġdistribu": 1923,
      "ysiological": 1924,
      "Ġhyd": 1925,
      "osomal": 1926,
      "Ġhome": 1927,
      "bility": 1928,
      "toc": 1929,
      "ole": 1930,
      "Ġsuppor": 1931,
      "Ġestablis": 1932,
      "Ġsynaptic": 1933,
      "ither": 1934,
      "ru": 1935,
      "ulating": 1936,
      "Ġessential": 1937,
      "Ġner": 1938,
      "vent": 1939,
      "ĠCSF": 1940,
      "normal": 1941,
      "Ġthem": 1942,
      "Ġlike": 1943,
      "Ġexhibit": 1944,
      "ane": 1945,
      "Ġcompound": 1946,
      "izing": 1947,
      "Ġful": 1948,
      "Ġperi": 1949,
      "Ġbefore": 1950,
      "Î¼": 1951,
      "Ġfacilit": 1952,
      "athy": 1953,
      "Ġincub": 1954,
      "vement": 1955,
      "ators": 1956,
      "MD": 1957,
      "Ġutil": 1958,
      "33": 1959,
      "ĠEx": 1960,
      "Ġpopulation": 1961,
      "Ġscore": 1962,
      "Ġreduction": 1963,
      "Ġ50": 1964,
      "Ġinclude": 1965,
      "Ġoften": 1966,
      "Ġbenef": 1967,
      "Ġexpressed": 1968,
      "RS": 1969,
      "Ġ-": 1970,
      "Ġtrials": 1971,
      "entia": 1972,
      "ft": 1973,
      "den": 1974,
      "Ġinteraction": 1975,
      "Ġexample": 1976,
      "ĠCom": 1977,
      "ty": 1978,
      "Ġret": 1979,
      "EG": 1980,
      "Ġ100": 1981,
      "ocument": 1982,
      "ĠÎ¼": 1983,
      "Ġgu": 1984,
      "Ġcalc": 1985,
      "Ġlimited": 1986,
      "face": 1987,
      "Ġmethods": 1988,
      "Ġapop": 1989,
      "IP": 1990,
      "Ġfollowed": 1991,
      "Ġfeatures": 1992,
      "Ġsubjec": 1993,
      "Ġefficacy": 1994,
      "Ġconsidered": 1995,
      "Ġthereby": 1996,
      "100": 1997,
      "bl": 1998,
      "Ġrepeat": 1999,
      "Ġtargeting": 2000,
      "Ġdiagnostic": 2001,
      "iven": 2002,
      "ination": 2003,
      "Ġbeing": 2004,
      "ove": 2005,
      "ision": 2006,
      "ĠmRNA": 2007,
      "osp": 2008,
      "Ġdetermin": 2009,
      "ake": 2010,
      "Ġresulting": 2011,
      "80": 2012,
      "Ġrati": 2013,
      "Ġneurological": 2014,
      "Ġsensi": 2015,
      "CD": 2016,
      "Ġstrategies": 2017,
      "ST": 2018,
      "Ġpositive": 2019,
      "To": 2020,
      "Ġany": 2021,
      "Ġplay": 2022,
      "ights": 2023,
      "Ġsystems": 2024,
      "nal": 2025,
      "oma": 2026,
      "ause": 2027,
      "OR": 2028,
      "oplasm": 2029,
      "Ġneg": 2030,
      "oy": 2031,
      "Ġtreated": 2032,
      "Ġquality": 2033,
      "Ġcruc": 2034,
      "hemical": 2035,
      "Ġpub": 2036,
      "Ġincreasing": 2037,
      "Ġgra": 2038,
      "001": 2039,
      "uffer": 2040,
      "pon": 2041,
      "Ġlimit": 2042,
      "Ġability": 2043,
      "overy": 2044,
      "orf": 2045,
      "Ġchronic": 2046,
      "Ġinformation": 2047,
      "Ġdri": 2048,
      "Ġdegrad": 2049,
      "Ġautophagy": 2050,
      "Ġcrucial": 2051,
      "chi": 2052,
      "po": 2053,
      "Ġstrong": 2054,
      "Ġhealthy": 2055,
      "Ġagainst": 2056,
      "bal": 2057,
      "teria": 2058,
      "ĠMoreover": 2059,
      "Ġ24": 2060,
      "hance": 2061,
      "Ġdistin": 2062,
      "Ġphosphory": 2063,
      "Ġcase": 2064,
      "Ġconcentration": 2065,
      "tional": 2066,
      "tok": 2067,
      "Ġhow": 2068,
      "aps": 2069,
      "king": 2070,
      "astic": 2071,
      "ostasis": 2072,
      "Ġlab": 2073,
      "Ġenhance": 2074,
      "lying": 2075,
      "Ġmany": 2076,
      "Ġplasma": 2077,
      "lex": 2078,
      "Ġless": 2079,
      "ior": 2080,
      "Ġrelev": 2081,
      "Ġbody": 2082,
      "Ġrelease": 2083,
      "atively": 2084,
      "ĠCNS": 2085,
      "Ġdelivery": 2086,
      "Ġder": 2087,
      "Ġlarge": 2088,
      "Ġmonths": 2089,
      "ĠAP": 2090,
      "ission": 2091,
      "ĠSc": 2092,
      "Ġext": 2093,
      "Ġaccur": 2094,
      "95": 2095,
      "Ġresid": 2096,
      "Ġtechn": 2097,
      "Ġsaf": 2098,
      "Ġolig": 2099,
      "term": 2100,
      "Ġcharacteristic": 2101,
      "hie": 2102,
      "Ġweek": 2103,
      "type": 2104,
      "ured": 2105,
      "taining": 2106,
      "Ġdays": 2107,
      "des": 2108,
      "yloid": 2109,
      "Ġintr": 2110,
      "ĠCO": 2111,
      "ables": 2112,
      "Ġbet": 2113,
      "Ġavailable": 2114,
      "document": 2115,
      "mer": 2116,
      "osome": 2117,
      "Ġcontrast": 2118,
      "Ġtissues": 2119,
      "Ġobtained": 2120,
      "Ġcohort": 2121,
      "Ġcarri": 2122,
      "istration": 2123,
      "cell": 2124,
      "Ġdementia": 2125,
      "Ġeffective": 2126,
      "eration": 2127,
      "ĠMS": 2128,
      "Ġclus": 2129,
      "Ġlikely": 2130,
      "Ġcomparis": 2131,
      "Ġlack": 2132,
      "Ġscreen": 2133,
      "Ġeither": 2134,
      "Ġcentral": 2135,
      "utam": 2136,
      "entially": 2137,
      "Ġaggregation": 2138,
      "28": 2139,
      "ĠER": 2140,
      "Ġinjec": 2141,
      "Ġbehavior": 2142,
      "Ġrange": 2143,
      "Ġrecent": 2144,
      "poral": 2145,
      "Ġhel": 2146,
      "erro": 2147,
      "Ġcharacterized": 2148,
      "Ġlo": 2149,
      "Ġdet": 2150,
      "aset": 2151,
      "Ġresult": 2152,
      "ressive": 2153,
      "ĠAll": 2154,
      "umm": 2155,
      "ardi": 2156,
      "Ġrest": 2157,
      "Ġanalyzed": 2158,
      "Ġserum": 2159,
      "Ġabnormal": 2160,
      "otic": 2161,
      "olution": 2162,
      "ĠAS": 2163,
      "Ġvs": 2164,
      "ĠRes": 2165,
      "sequently": 2166,
      "Ġfl": 2167,
      "LD": 2168,
      "ma": 2169,
      "Ġquantif": 2170,
      "Ġnovel": 2171,
      "Ġstandard": 2172,
      "Ġachie": 2173,
      "cin": 2174,
      "aches": 2175,
      "Ġassessed": 2176,
      "read": 2177,
      "Ġpep": 2178,
      "Ġgly": 2179,
      "Ġhyper": 2180,
      "Supplementary": 2181,
      "42": 2182,
      "Ġsevere": 2183,
      "struc": 2184,
      "Ġmitochondria": 2185,
      "Ġcytok": 2186,
      "Ġvivo": 2187,
      "we": 2188,
      "ances": 2189,
      "ipher": 2190,
      "Ġexposure": 2191,
      "oxid": 2192,
      "inc": 2193,
      "Ġenvironment": 2194,
      "Ġmolecules": 2195,
      "GG": 2196,
      "Ġindicating": 2197,
      "60": 2198,
      "Ġrece": 2199,
      "Ġdifferentiation": 2200,
      "Cl": 2201,
      "As": 2202,
      "ologies": 2203,
      "Ġcontribute": 2204,
      "Ġtranslation": 2205,
      "Ġif": 2206,
      "omy": 2207,
      "Th": 2208,
      "ES": 2209,
      "Ġhighly": 2210,
      "ify": 2211,
      "ationshi": 2212,
      "ging": 2213,
      "Ġprotoc": 2214,
      "paired": 2215,
      "Ġstem": 2216,
      "38": 2217,
      "Ġcause": 2218,
      "35": 2219,
      "Ġprior": 2220,
      "pies": 2221,
      "Ġlinked": 2222,
      "Ġelevated": 2223,
      "Ġnuclear": 2224,
      "Ġvalue": 2225,
      "ĠRe": 2226,
      "Ġmeasured": 2227,
      "argeted": 2228,
      "Ġsubst": 2229,
      "Ġmutation": 2230,
      "Ġdeveloped": 2231,
      "versity": 2232,
      "Ġinhibition": 2233,
      "Ġmac": 2234,
      "Ġamyotrophic": 2235,
      "Ġlife": 2236,
      "ĠWT": 2237,
      "pen": 2238,
      "ĠROS": 2239,
      "Ġnerve": 2240,
      "Ġchange": 2241,
      "atin": 2242,
      "Ġremains": 2243,
      "70": 2244,
      "Ġwould": 2245,
      "Ġscores": 2246,
      "ually": 2247,
      "arily": 2248,
      "Ġclear": 2249,
      "Ġunderstanding": 2250,
      "Ġvitro": 2251,
      "verage": 2252,
      "Ġoptim": 2253,
      "ifically": 2254,
      "iratory": 2255,
      "erence": 2256,
      "ocal": 2257,
      "Ġperiod": 2258,
      "rac": 2259,
      "Ġspecies": 2260,
      "Ġassociation": 2261,
      "elf": 2262,
      "Ġphys": 2263,
      "MT": 2264,
      "Ġimpairment": 2265,
      "Ġaim": 2266,
      "CL": 2267,
      "ĠWhile": 2268,
      "Ġdataset": 2269,
      "ergy": 2270,
      "Ġrelationshi": 2271,
      "29": 2272,
      "ether": 2273,
      "Ġcross": 2274,
      "abil": 2275,
      "Ġinten": 2276,
      "Ġsepar": 2277,
      "inflammation": 2278,
      "Ġneural": 2279,
      "Ġisol": 2280,
      "ques": 2281,
      "Ġdistinct": 2282,
      "Ġpur": 2283,
      "roscop": 2284,
      "ĠHe": 2285,
      "Ġproperties": 2286,
      "Ġcorrelation": 2287,
      "âĢ²": 2288,
      "aking": 2289,
      "Ġestim": 2290,
      "cod": 2291,
      "Ġdegradation": 2292,
      "go": 2293,
      "ĠMN": 2294,
      "34": 2295,
      "rome": 2296,
      "TR": 2297,
      "Ġstructural": 2298,
      "Ġremo": 2299,
      "Ġeven": 2300,
      "Ġapproaches": 2301,
      "rag": 2302,
      "Ġneurop": 2303,
      "Ġtrig": 2304,
      "Ġexperiments": 2305,
      "Ġprob": 2306,
      "ton": 2307,
      "Ġmarkers": 2308,
      "Ã¼": 2309,
      "36": 2310,
      "DNA": 2311,
      "tein": 2312,
      "Ġdegeneration": 2313,
      "pre": 2314,
      "AV": 2315,
      "ploy": 2316,
      "ĠTherefore": 2317,
      "Ġcortex": 2318,
      "ĠOn": 2319,
      "Ġconsistent": 2320,
      "lection": 2321,
      "Ġdirectly": 2322,
      "ĠCI": 2323,
      "ĠGen": 2324,
      "ĠAt": 2325,
      "ĠAfter": 2326,
      "Ġatrophy": 2327,
      "ales": 2328,
      "Ġfamily": 2329,
      "sem": 2330,
      "ĠUni": 2331,
      "plied": 2332,
      "Ġinduced": 2333,
      "ĠCl": 2334,
      "ĠAlthough": 2335,
      "Ġdetected": 2336,
      "cing": 2337,
      "Ġtransport": 2338,
      "ocamp": 2339,
      "Ġday": 2340,
      "Ġcontin": 2341,
      "Ġpossible": 2342,
      "mL": 2343,
      "PR": 2344,
      "ick": 2345,
      "ier": 2346,
      "Ġapoptosis": 2347,
      "Ġfour": 2348,
      "Ġblock": 2349,
      "Ġselec": 2350,
      "istance": 2351,
      "Ġbre": 2352,
      "Ġmight": 2353,
      "IF": 2354,
      "Ġfil": 2355,
      "Ġpotentially": 2356,
      "agement": 2357,
      "ists": 2358,
      "Ġreduce": 2359,
      "syn": 2360,
      "uble": 2361,
      "Ġratio": 2362,
      "Ġtherapies": 2363,
      "Ġhom": 2364,
      "Ġcommun": 2365,
      "xed": 2366,
      "Ġimproved": 2367,
      "Ġsens": 2368,
      "Ġcoun": 2369,
      "Ġadj": 2370,
      "Ġcre": 2371,
      "uf": 2372,
      "Ġneurodegeneration": 2373,
      "Ġperipher": 2374,
      "Ġtrain": 2375,
      "thesis": 2376,
      "ze": 2377,
      "Ġperformance": 2378,
      "lial": 2379,
      "Ġconcentrations": 2380,
      "orescence": 2381,
      "ĠÎ²": 2382,
      "ume": 2383,
      "Ġfem": 2384,
      "ds": 2385,
      "Ġsuggests": 2386,
      "ĠCa": 2387,
      "ann": 2388,
      "Ġcontaining": 2389,
      "Ġstate": 2390,
      "Ġdrugs": 2391,
      "ĠÂ±": 2392,
      "ulin": 2393,
      "ended": 2394,
      "Ġcriteria": 2395,
      "PD": 2396,
      "01": 2397,
      "rim": 2398,
      "Ġappe": 2399,
      "Ġconfirmed": 2400,
      "Ġmutant": 2401,
      "ĠEVs": 2402,
      "ptosis": 2403,
      "Ġalong": 2404,
      "olar": 2405,
      "ippocamp": 2406,
      "ĠmiR": 2407,
      "**": 2408,
      "Ġcontext": 2409,
      "ĠData": 2410,
      "tis": 2411,
      "ince": 2412,
      "45": 2413,
      "aterial": 2414,
      "Ġsuc": 2415,
      "Ġadditional": 2416,
      "Ġrap": 2417,
      "Ġalle": 2418,
      "90": 2419,
      "Ġabout": 2420,
      "Ġparame": 2421,
      "Ġsite": 2422,
      "aged": 2423,
      "ĠNot": 2424,
      "row": 2425,
      "ĠFUS": 2426,
      "atus": 2427,
      "We": 2428,
      "Ġpain": 2429,
      "Ġindicated": 2430,
      "Ġsplic": 2431,
      "IV": 2432,
      "ina": 2433,
      "Ġbuffer": 2434,
      "ĠSci": 2435,
      "Ġantibodies": 2436,
      "Ġimplic": 2437,
      "kele": 2438,
      "zhe": 2439,
      "ĠSim": 2440,
      "Ġtechni": 2441,
      "Ġaging": 2442,
      "Ġterm": 2443,
      "Ġul": 2444,
      "mor": 2445,
      "Ġexperi": 2446,
      "Ġtargets": 2447,
      "Ġfuture": 2448,
      "Ġhomeostasis": 2449,
      "hibited": 2450,
      "AB": 2451,
      "ID": 2452,
      "itud": 2453,
      "TT": 2454,
      "zheimer": 2455,
      "Ġdistribution": 2456,
      "ubiqu": 2457,
      "Ġknock": 2458,
      "Ġhippocamp": 2459,
      "Ġwhereas": 2460,
      "âī": 2461,
      "ans": 2462,
      "rest": 2463,
      "].": 2464,
      "onic": 2465,
      "Ġkin": 2466,
      "Ġconn": 2467,
      "Ġinfluence": 2468,
      "Ġamyloid": 2469,
      "Ġmonit": 2470,
      "alys": 2471,
      "Ġpart": 2472,
      "%,": 2473,
      "Ġintrac": 2474,
      "ospital": 2475,
      "arc": 2476,
      "ms": 2477,
      "artic": 2478,
      "Ġindicate": 2479,
      "Ġaddress": 2480,
      "ained": 2481,
      "Ġarea": 2482,
      "Ġoff": 2483,
      "ibr": 2484,
      "Ġneuroinflammation": 2485,
      "fold": 2486,
      "inant": 2487,
      "armac": 2488,
      "ults": 2489,
      "Ġtyp": 2490,
      "Ġdetection": 2491,
      "Ġprogressive": 2492,
      "ok": 2493,
      "Ġadministration": 2494,
      "Ġprovided": 2495,
      "Ġaccording": 2496,
      "ints": 2497,
      "Ġ95": 2498,
      "Ġpan": 2499,
      "clusion": 2500,
      "ĠEn": 2501,
      "Ġcop": 2502,
      "Ġexhibited": 2503,
      "stre": 2504,
      "Ġprolif": 2505,
      "LC": 2506,
      "37": 2507,
      "Ġwid": 2508,
      "Ġpsy": 2509,
      "Ġsex": 2510,
      "Ġcondition": 2511,
      "ially": 2512,
      "ĠStud": 2513,
      "play": 2514,
      "Ġcompos": 2515,
      "Ġsecre": 2516,
      "Ġ18": 2517,
      "Ġchrom": 2518,
      "Ġfail": 2519,
      "Ġdecrease": 2520,
      "Ġantibody": 2521,
      "Ġantioxid": 2522,
      "verex": 2523,
      "Ġens": 2524,
      "Ġexperimental": 2525,
      "rection": 2526,
      "Ġincl": 2527,
      "Ġenergy": 2528,
      "ible": 2529,
      "Ġgeneral": 2530,
      "Ġbaseline": 2531,
      "rid": 2532,
      "Ġassessment": 2533,
      "oft": 2534,
      "less": 2535,
      "ste": 2536,
      "Ġexten": 2537,
      "Ġinst": 2538,
      "Ġprevent": 2539,
      "ĠHD": 2540,
      "Ġpathogenesis": 2541,
      "kin": 2542,
      "Ġdose": 2543,
      "treated": 2544,
      "till": 2545,
      "dens": 2546,
      "Ġregulatory": 2547,
      "Ġrandom": 2548,
      "53": 2549,
      "Ġsites": 2550,
      "ĠUSA": 2551,
      "Ġperipheral": 2552,
      "69": 2553,
      "ĠNF": 2554,
      "ĠPh": 2555,
      "Ġsequence": 2556,
      "Ġrequired": 2557,
      "put": 2558,
      "ĠOur": 2559,
      "Ġdifference": 2560,
      "Ġreflec": 2561,
      "Ġphenotype": 2562,
      "ĠUn": 2563,
      "resh": 2564,
      "not": 2565,
      "Ġcollected": 2566,
      "inson": 2567,
      "Ġlig": 2568,
      ");": 2569,
      "Ġreducing": 2570,
      "Ġbro": 2571,
      "ogenesis": 2572,
      "Ġatten": 2573,
      "ĠâĢĵ": 2574,
      "Ġleast": 2575,
      "Ġpromising": 2576,
      "47": 2577,
      "48": 2578,
      "Ġobserv": 2579,
      "Ġstage": 2580,
      "Ġnegative": 2581,
      "Ġmorph": 2582,
      "mine": 2583,
      "ware": 2584,
      "Ġstructures": 2585,
      "Ġapplied": 2586,
      "Ġtemper": 2587,
      "Ġaffected": 2588,
      "Ġfield": 2589,
      "Ġ25": 2590,
      "Ġvisual": 2591,
      "Ġprac": 2592,
      "idence": 2593,
      "inally": 2594,
      "ĠAlzheimer": 2595,
      "ering": 2596,
      "Ġread": 2597,
      "Ġsumm": 2598,
      "ĠPati": 2599,
      "ides": 2600,
      "ubiquit": 2601,
      "Ġreceptors": 2602,
      "Ġcaused": 2603,
      "Ġthus": 2604,
      "Ġpresented": 2605,
      "32": 2606,
      "bar": 2607,
      "FP": 2608,
      "ĠâĪĴ": 2609,
      "enced": 2610,
      "Ġrecei": 2611,
      "rop": 2612,
      "Ġeng": 2613,
      "Ġoverall": 2614,
      "ĠST": 2615,
      "ll": 2616,
      "rous": 2617,
      "Ġprimarily": 2618,
      "Ġcapac": 2619,
      "Ġrespiratory": 2620,
      "39": 2621,
      "Ġsurface": 2622,
      "Ġgreater": 2623,
      "Ġleads": 2624,
      "Ġincubated": 2625,
      "cles": 2626,
      "igen": 2627,
      "Ġatt": 2628,
      "anced": 2629,
      "Ġsafety": 2630,
      "Ġneuroprote": 2631,
      "Ġorig": 2632,
      "Ġlarg": 2633,
      "Ġenhanced": 2634,
      "Ġbecause": 2635,
      "tides": 2636,
      "Ġ16": 2637,
      "Ġalterations": 2638,
      "Ġlear": 2639,
      "Ġmis": 2640,
      "entific": 2641,
      "Ġpatterns": 2642,
      "ogn": 2643,
      "math": 2644,
      "Ġsynd": 2645,
      "Ġinterventions": 2646,
      "Ġdecline": 2647,
      "Ġcytoplasm": 2648,
      "Ġrapid": 2649,
      "Ġcomponents": 2650,
      "Ġchann": 2651,
      "Ġpromote": 2652,
      "ergic": 2653,
      "ands": 2654,
      "Ġemploy": 2655,
      "otox": 2656,
      "Ġdie": 2657,
      "rogene": 2658,
      "bly": 2659,
      "Ġsequencing": 2660,
      "IR": 2661,
      "way": 2662,
      "Ġintervention": 2663,
      "Ġstability": 2664,
      "Ġindependent": 2665,
      "PT": 2666,
      "iv": 2667,
      "Ġevaluated": 2668,
      "rs": 2669,
      "Ġactive": 2670,
      "Ġbarri": 2671,
      "Ġbiomarker": 2672,
      "omet": 2673,
      "Ġunderlying": 2674,
      "Ġmedium": 2675,
      "75": 2676,
      "respon": 2677,
      "Ġsu": 2678,
      "Ġbel": 2679,
      "Ġstill": 2680,
      "Ġden": 2681,
      "Ġphysiological": 2682,
      "Ġsl": 2683,
      "fficient": 2684,
      "ilarly": 2685,
      "ĠSMN": 2686,
      "ĠPark": 2687,
      "SD": 2688,
      "Ġcharacteristics": 2689,
      "Ġliver": 2690,
      "Ġimages": 2691,
      "izes": 2692,
      "ransi": 2693,
      "rehen": 2694,
      "Ġdetermine": 2695,
      "Ġmyel": 2696,
      "Ġcomprehen": 2697,
      "tin": 2698,
      "Ġtesting": 2699,
      "roup": 2700,
      "stream": 2701,
      "Ġfram": 2702,
      "aneous": 2703,
      "Ġpreval": 2704,
      "minal": 2705,
      "Ġvariant": 2706,
      "BI": 2707,
      "Ġchild": 2708,
      "Ġsuppress": 2709,
      "Ġ14": 2710,
      "Ġrecom": 2711,
      "Ġtransfer": 2712,
      "Ġresistance": 2713,
      "Ġassay": 2714,
      "31": 2715,
      "Ġevents": 2716,
      "Ġdetail": 2717,
      "Ġdisorder": 2718,
      "Ġimpaired": 2719,
      "Ġstren": 2720,
      "amine": 2721,
      "posed": 2722,
      "Ġsecondary": 2723,
      "Ġgut": 2724,
      "othera": 2725,
      "62": 2726,
      "Ġderived": 2727,
      "Ġanimals": 2728,
      "Ġrecru": 2729,
      "oting": 2730,
      "ĠPBS": 2731,
      "Ġnecess": 2732,
      "Ġbur": 2733,
      "Ġhowever": 2734,
      "tically": 2735,
      "cep": 2736,
      "Ġfron": 2737,
      "Ġrelevant": 2738,
      "Ġhighligh": 2739,
      "pecially": 2740,
      "resting": 2741,
      "Ġheterogene": 2742,
      "ogenic": 2743,
      "Ġrepair": 2744,
      "ĠBBB": 2745,
      "Ġphosphorylation": 2746,
      "Ġcortical": 2747,
      "AM": 2748,
      "Ġ'": 2749,
      "Ġequ": 2750,
      "ocytes": 2751,
      "rocy": 2752,
      "mod": 2753,
      "Ġoverex": 2754,
      "atric": 2755,
      "CP": 2756,
      "ĠSupplementary": 2757,
      "Ġred": 2758,
      "Ġsensitivity": 2759,
      "Ġcapacity": 2760,
      "Ġaggregates": 2761,
      "ximately": 2762,
      "Ġdetermined": 2763,
      "ĠCell": 2764,
      "Ġaffect": 2765,
      "Ġparameters": 2766,
      "Ġcompounds": 2767,
      "Ġbroad": 2768,
      "Ġrol": 2769,
      "Ġglutam": 2770,
      "NO": 2771,
      "Ġweak": 2772,
      "Ġcalculated": 2773,
      "Ġsubstanti": 2774,
      "Ġtargeted": 2775,
      "ask": 2776,
      "Ġhelp": 2777,
      "hyd": 2778,
      "pri": 2779,
      "Ġabove": 2780,
      "Ġtemperature": 2781,
      "Ġtransi": 2782,
      "Ġgenerated": 2783,
      "{\\": 2784,
      "Ġsynthesis": 2785,
      "ervous": 2786,
      "Ġlines": 2787,
      "Ġtimes": 2788,
      "isc": 2789,
      "ĠNotably": 2790,
      "ribut": 2791,
      "PA": 2792,
      "alysis": 2793,
      "Ġbetter": 2794,
      "Ġmicrobi": 2795,
      "ids": 2796,
      "Ġprofil": 2797,
      "ject": 2798,
      "Ġdepend": 2799,
      "Ġdefined": 2800,
      "Ġrelative": 2801,
      "Ġtreatments": 2802,
      "Ġscreening": 2803,
      "Ds": 2804,
      "roke": 2805,
      "Ġreplic": 2806,
      "ansion": 2807,
      "Ġstages": 2808,
      "Ġplays": 2809,
      "Ġincreases": 2810,
      "Ġpopulations": 2811,
      "Ġguid": 2812,
      "Ġacute": 2813,
      "CH": 2814,
      "keletal": 2815,
      "Ġmemory": 2816,
      "Ġmicroglial": 2817,
      "Ġinhibitors": 2818,
      "Ġstatus": 2819,
      "isher": 2820,
      "Ġemb": 2821,
      "ĠThus": 2822,
      "Ġques": 2823,
      "ource": 2824,
      "Ġhand": 2825,
      "sp": 2826,
      "esic": 2827,
      "Ġill": 2828,
      "omen": 2829,
      "Ġche": 2830,
      "bo": 2831,
      "Ġespecially": 2832,
      "Ġmedic": 2833,
      "ged": 2834,
      "Ġinvestigated": 2835,
      "Ġcas": 2836,
      "Ġtoxicity": 2837,
      "Ġcer": 2838,
      "Ġampl": 2839,
      "Ġnervous": 2840,
      "az": 2841,
      "ĠMed": 2842,
      "ensity": 2843,
      "44": 2844,
      "gree": 2845,
      "Ġele": 2846,
      "Ġsw": 2847,
      "Ġwater": 2848,
      "oun": 2849,
      "Ġroles": 2850,
      "Ġchallenges": 2851,
      "Ġte": 2852,
      "Ġgluc": 2853,
      "Ġrob": 2854,
      "Ġcombination": 2855,
      "sequent": 2856,
      "Ġcondens": 2857,
      "Ġcateg": 2858,
      "Ġalthough": 2859,
      "Ġaxonal": 2860,
      "Ġproced": 2861,
      "Ġtoward": 2862,
      "Ġexcit": 2863,
      "ogenous": 2864,
      "oftware": 2865,
      "Ġauth": 2866,
      "CM": 2867,
      "Ġkinase": 2868,
      "Ġmg": 2869,
      "Ġiron": 2870,
      "lowing": 2871,
      "mM": 2872,
      "Ġ40": 2873,
      "Ġsolution": 2874,
      "Ġcombined": 2875,
      "Ġspe": 2876,
      "Ġinfection": 2877,
      "TDP": 2878,
      "sity": 2879,
      "Ġmark": 2880,
      "Ġstrategy": 2881,
      "Ġproliferation": 2882,
      "hermo": 2883,
      "ring": 2884,
      "Ġinvolvement": 2885,
      "Ġweeks": 2886,
      "ĠNP": 2887,
      "erate": 2888,
      "Ġback": 2889,
      "Ġso": 2890,
      "This": 2891,
      "down": 2892,
      "Ġ2021": 2893,
      "Ġaverage": 2894,
      "ĠATP": 2895,
      "apt": 2896,
      "Ġoffer": 2897,
      "Ġrelationship": 2898,
      "imin": 2899,
      "mission": 2900,
      "Ġseverity": 2901,
      "opathy": 2902,
      "ĠiP": 2903,
      "Ġinhibitor": 2904,
      "Ġrates": 2905,
      "DR": 2906,
      "Ġediting": 2907,
      "Ġ2023": 2908,
      "Ġabund": 2909,
      "ople": 2910,
      "Ġmacroph": 2911,
      "enter": 2912,
      "Ġshort": 2913,
      "Ġpharmac": 2914,
      "Ġubiquit": 2915,
      "Ġmedical": 2916,
      "Ġexpansion": 2917,
      "Ġglo": 2918,
      "57": 2919,
      "Ġvolume": 2920,
      "mented": 2921,
      "Ġsoci": 2922,
      "que": 2923,
      "Ġinn": 2924,
      "ĠNeuro": 2925,
      "urn": 2926,
      "trol": 2927,
      "Ġantioxidant": 2928,
      "lym": 2929,
      "Ġmicroscop": 2930,
      "Ġselected": 2931,
      "ygen": 2932,
      "app": 2933,
      "BD": 2934,
      "Ġliter": 2935,
      "MI": 2936,
      "Ġinduce": 2937,
      "Ġbind": 2938,
      "Ġduration": 2939,
      "ĠRec": 2940,
      "FTD": 2941,
      "Ġcontinu": 2942,
      "Ġestablished": 2943,
      "Ġles": 2944,
      "Ġmanagement": 2945,
      "Ġlength": 2946,
      "ilu": 2947,
      "Ġweight": 2948,
      "Ġtop": 2949,
      "Ġmeasures": 2950,
      "isting": 2951,
      "Ġpathogenic": 2952,
      "Ġprovides": 2953,
      "Ġradi": 2954,
      "Ġtraining": 2955,
      "Ġanother": 2956,
      "ĠInte": 2957,
      "AL": 2958,
      ")-": 2959,
      "Ġappear": 2960,
      "Ġvers": 2961,
      "Ġinitial": 2962,
      "Ġlearning": 2963,
      "Ġsuccess": 2964,
      "Ġintracellular": 2965,
      "Ne": 2966,
      "Ġphysical": 2967,
      "Ġcytokines": 2968,
      "ections": 2969,
      "Ġpromoting": 2970,
      "Ġreli": 2971,
      "eling": 2972,
      "Ġstroke": 2973,
      "orts": 2974,
      "Ġfamil": 2975,
      "Ġcomplete": 2976,
      "46": 2977,
      "DA": 2978,
      "ense": 2979,
      "ĠII": 2980,
      "Ġshowing": 2981,
      "Ġ2022": 2982,
      "ĠNM": 2983,
      "Ġlight": 2984,
      "Ġrecord": 2985,
      "ĠmM": 2986,
      "be": 2987,
      "Ġdos": 2988,
      "urrent": 2989,
      "ower": 2990,
      "ĠFTD": 2991,
      "aff": 2992,
      "ĠTr": 2993,
      "Ġemerg": 2994,
      "Ġvesic": 2995,
      "An": 2996,
      "clinical": 2997,
      "Ġevaluate": 2998,
      "urom": 2999,
      "Ġextracellular": 3000,
      "oles": 3001,
      "âĢħ": 3002,
      "atform": 3003,
      "Ġter": 3004,
      "Ġprogn": 3005,
      "ND": 3006,
      "Ġgenome": 3007,
      "Ġrare": 3008,
      "arding": 3009,
      "owled": 3010,
      "ae": 3011,
      "ĠMRI": 3012,
      "pan": 3013,
      "mg": 3014,
      "ites": 3015,
      "oids": 3016,
      "activ": 3017,
      "binding": 3018,
      "Ġelectr": 3019,
      "Ġaltern": 3020,
      "cium": 3021,
      "Ġ+": 3022,
      "Ġsignificance": 3023,
      "Ġbio": 3024,
      "Ġfree": 3025,
      "CS": 3026,
      "ĠNo": 3027,
      "Ġ2020": 3028,
      "ration": 3029,
      "Ġconver": 3030,
      "Ġuniqu": 3031,
      "Ġrepro": 3032,
      "49": 3033,
      "Ġlimitations": 3034,
      "stit": 3035,
      "65": 3036,
      "Ġsplicing": 3037,
      "yg": 3038,
      "Ġself": 3039,
      "Ġmass": 3040,
      "Ġmen": 3041,
      "Ch": 3042,
      "Ã¶": 3043,
      "Ġphenotypes": 3044,
      "Ġcontribut": 3045,
      "kn": 3046,
      "Ġtests": 3047,
      "Ġtested": 3048,
      "omics": 3049,
      "olic": 3050,
      "icial": 3051,
      "Ġliterature": 3052,
      "Ġexerc": 3053,
      "Ġamin": 3054,
      "ĠBy": 3055,
      "GFP": 3056,
      "Ġenrich": 3057,
      "brain": 3058,
      "Ġrobust": 3059,
      "riched": 3060,
      "Ġbal": 3061,
      "Ġspecifically": 3062,
      "Ġdoes": 3063,
      "eding": 3064,
      "Ġintra": 3065,
      "Ġsignals": 3066,
      "oper": 3067,
      "fL": 3068,
      "usions": 3069,
      "idem": 3070,
      "Ġrequire": 3071,
      "Ġdiscus": 3072,
      "Ġapproximately": 3073,
      "ots": 3074,
      "Ġeth": 3075,
      "Ġstatistical": 3076,
      "ifications": 3077,
      "VA": 3078,
      "Ġsystemic": 3079,
      "Ġsyndrome": 3080,
      "Ġartic": 3081,
      "orb": 3082,
      "Ġdetect": 3083,
      "ield": 3084,
      "Ġdisplay": 3085,
      "Ġbone": 3086,
      "als": 3087,
      "Ġminim": 3088,
      "tics": 3089,
      "Ġinsights": 3090,
      "leep": 3091,
      "Ġdiet": 3092,
      "Ġ11": 3093,
      "Ġ60": 3094,
      "Ġprotocol": 3095,
      "Ġpoint": 3096,
      "RE": 3097,
      "Ġcomprehensive": 3098,
      "Ġcapt": 3099,
      "Ġapplication": 3100,
      "asticity": 3101,
      "urb": 3102,
      "Ġrecovery": 3103,
      "Ġdynamics": 3104,
      "Ġstaining": 3105,
      "Ġoutcome": 3106,
      "Ġmagn": 3107,
      "Ġvascular": 3108,
      "Ġglial": 3109,
      "Ġpeople": 3110,
      "Ġexamined": 3111,
      "ulf": 3112,
      "Ġplace": 3113,
      "inic": 3114,
      "Ġclos": 3115,
      "Ġferro": 3116,
      "imen": 3117,
      "ognition": 3118,
      "Ġfrag": 3119,
      "Ġabsence": 3120,
      "ĠParkinson": 3121,
      "Ġfrequency": 3122,
      "AA": 3123,
      "ethyl": 3124,
      "Ġforms": 3125,
      "Ġbacter": 3126,
      "Ġvect": 3127,
      "pared": 3128,
      "acer": 3129,
      "ography": 3130,
      "Ġfew": 3131,
      "Ġintegrity": 3132,
      "utri": 3133,
      "OX": 3134,
      "Ġspati": 3135,
      "Ġdiss": 3136,
      "mic": 3137,
      "dex": 3138,
      "athi": 3139,
      "Ġgran": 3140,
      "Ġplatform": 3141,
      "Ġchain": 3142,
      "Ġcomplic": 3143,
      "ĠAI": 3144,
      "genic": 3145,
      "Ġaccuracy": 3146,
      "Ġdop": 3147,
      "io": 3148,
      "$$": 3149,
      "espite": 3150,
      "Ġfull": 3151,
      "uk": 3152,
      "Ġefficiency": 3153,
      "Ġadded": 3154,
      "Ġaltered": 3155,
      "Ġ>": 3156,
      "Ġflow": 3157,
      "Ġgiven": 3158,
      "Ġstrength": 3159,
      "ession": 3160,
      "earch": 3161,
      "Ġfive": 3162,
      "restingly": 3163,
      "Ġupon": 3164,
      "Ġcluster": 3165,
      "plant": 3166,
      "Ġrather": 3167,
      "test": 3168,
      "Ġtub": 3169,
      "ĠUniversity": 3170,
      "otal": 3171,
      "99": 3172,
      "ĠCH": 3173,
      "Ġencod": 3174,
      "Ġcorrelated": 3175,
      "formation": 3176,
      "200": 3177,
      "St": 3178,
      "reshold": 3179,
      "Ġcomparison": 3180,
      "ibility": 3181,
      "Ġcalcium": 3182,
      "Ġsoftware": 3183,
      "na": 3184,
      "Ġfat": 3185,
      "rence": 3186,
      "Ġadult": 3187,
      "ĠScale": 3188,
      "NT": 3189,
      "Ġrecogn": 3190,
      "immun": 3191,
      "Ġshows": 3192,
      "ĠCT": 3193,
      "Ġneeded": 3194,
      "Ġcauses": 3195,
      "acts": 3196,
      "Ġopen": 3197,
      "Ġregulating": 3198,
      "urs": 3199,
      "hy": 3200,
      "41": 3201,
      "uscular": 3202,
      "Ġdiffic": 3203,
      "Ġintensity": 3204,
      "Ġneuroprotective": 3205,
      "88": 3206,
      "Ġassem": 3207,
      "Ġfluorescence": 3208,
      "Ġtechniques": 3209,
      "Ġinvestigate": 3210,
      "Ġexclud": 3211,
      "Ġdatab": 3212,
      "Ġcycle": 3213,
      "Ġ#": 3214,
      "umin": 3215,
      "Ġtherefore": 3216,
      "Ġdiab": 3217,
      "Ġdiverse": 3218,
      "Ġwild": 3219,
      "kg": 3220,
      "Ġmale": 3221,
      "67": 3222,
      "Ġalign": 3223,
      "terior": 3224,
      "Ġdensity": 3225,
      "55": 3226,
      "Ġload": 3227,
      "Ġcytos": 3228,
      "ĠThey": 3229,
      "otherapy": 3230,
      "Ġmarker": 3231,
      "Ġstimulation": 3232,
      "Ġsequences": 3233,
      "active": 3234,
      "Ġendothe": 3235,
      "lymph": 3236,
      "Ġenhancing": 3237,
      "chem": 3238,
      "ĠpH": 3239,
      "orpor": 3240,
      "Ġsubsequent": 3241,
      "Ġimportance": 3242,
      "Ġculture": 3243,
      "SOD": 3244,
      "Ġbrains": 3245,
      "Ġdev": 3246,
      "GC": 3247,
      "Ġ37": 3248,
      "Ġacids": 3249,
      "hers": 3250,
      "Ġsetting": 3251,
      "ns": 3252,
      "Ġevaluation": 3253,
      "ĠDe": 3254,
      "Ġnat": 3255,
      "Ġtypically": 3256,
      "RO": 3257,
      "Ex": 3258,
      "Ġspecificity": 3259,
      "Ġpress": 3260,
      "Ġrats": 3261,
      "lab": 3262,
      "Ġpropor": 3263,
      "68": 3264,
      "Ġbarrier": 3265,
      "Ġunique": 3266,
      "Ġinjection": 3267,
      "Ġdemonstrate": 3268,
      "Ġ2019": 3269,
      "ĠTNF": 3270,
      "Ġenrichment": 3271,
      "SE": 3272,
      "Ġ13": 3273,
      "Ġslow": 3274,
      "Ġsuggested": 3275,
      "igma": 3276,
      "hite": 3277,
      "Ġdele": 3278,
      "ota": 3279,
      "Ġleft": 3280,
      "ĠBe": 3281,
      "LR": 3282,
      "Ġreal": 3283,
      "Ġoxygen": 3284,
      "Ġterms": 3285,
      "ustr": 3286,
      "ern": 3287,
      "Ġenzyme": 3288,
      "}}": 3289,
      "itig": 3290,
      "ĠCo": 3291,
      "owledge": 3292,
      "ĠSe": 3293,
      "aken": 3294,
      "Ġlimb": 3295,
      "Ġpromotes": 3296,
      "Ġperox": 3297,
      "ĠÂµ": 3298,
      "pts": 3299,
      "Ġregulate": 3300,
      "Ġacet": 3301,
      "Ġlay": 3302,
      "Ġ2024": 3303,
      "Ġsynthe": 3304,
      "Ġhypot": 3305,
      "Ġhistory": 3306,
      "ĠPre": 3307,
      "Ġpractic": 3308,
      "Ġdeficits": 3309,
      "Ġactivated": 3310,
      "Ġsubjects": 3311,
      "Ġrepresents": 3312,
      "ĠOne": 3313,
      "ĠMe": 3314,
      "Ġyo": 3315,
      "Ġthough": 3316,
      "Ġseg": 3317,
      "Ġfrac": 3318,
      "utes": 3319,
      "Ġglucose": 3320,
      "tox": 3321,
      "Ġareas": 3322,
      "Ġer": 3323,
      "Îº": 3324,
      "RF": 3325,
      "ones": 3326,
      "Ġconsider": 3327,
      "Ġmedian": 3328,
      "Ġintro": 3329,
      "ĠAp": 3330,
      "Ġamino": 3331,
      "ĠScientific": 3332,
      "Ġpoints": 3333,
      "%),": 3334,
      "ources": 3335,
      "Ġmal": 3336,
      "Ġpredict": 3337,
      "Ġthreshold": 3338,
      "omer": 3339,
      "Ġside": 3340,
      "Ġvery": 3341,
      "Ġeffectively": 3342,
      "NC": 3343,
      "ĠSD": 3344,
      "Ġcertain": 3345,
      "Ġinterest": 3346,
      "Ġmonitoring": 3347,
      "ĠSimilarly": 3348,
      "Ġbul": 3349,
      "Ġmitig": 3350,
      "asts": 3351,
      "ĠSub": 3352,
      "Ġproviding": 3353,
      "Ġright": 3354,
      "Ġunders": 3355,
      "lated": 3356,
      "Ġsleep": 3357,
      "Ġmaterial": 3358,
      "mi": 3359,
      "yond": 3360,
      "Ġsupplement": 3361,
      "SH": 3362,
      "Ġpredom": 3363,
      "Ġferroptosis": 3364,
      "Ġpossi": 3365,
      "Ġdefec": 3366,
      "responding": 3367,
      "rix": 3368,
      "Ġshif": 3369,
      "Ġreport": 3370,
      "Ġsal": 3371,
      "ices": 3372,
      "Ġviral": 3373,
      "ene": 3374,
      "istered": 3375,
      "Ġindicates": 3376,
      "Ġinvestigation": 3377,
      "Ġinterpre": 3378,
      "any": 3379,
      "seq": 3380,
      "Ġprevalence": 3381,
      "ird": 3382,
      "Ġpsych": 3383,
      "ÎºB": 3384,
      "Ġoverl": 3385,
      "Ġmanif": 3386,
      "Ġemployed": 3387,
      "Ġdeveloping": 3388,
      "itis": 3389,
      "Ġprocessing": 3390,
      "ĠCA": 3391,
      "Ġmuscles": 3392,
      "ld": 3393,
      "Ġcategor": 3394,
      "yr": 3395,
      "Ġprop": 3396,
      "Ġvariables": 3397,
      "ik": 3398,
      "Ġfibr": 3399,
      "Ġproposed": 3400,
      "Ġve": 3401,
      "Pro": 3402,
      "Ġwor": 3403,
      "Ġenriched": 3404,
      "Ġfinal": 3405,
      "Ġcod": 3406,
      "ĠLe": 3407,
      "ĠEV": 3408,
      "Ġundergo": 3409,
      "asive": 3410,
      "Ġundersc": 3411,
      "mark": 3412,
      "Ġtransf": 3413,
      "Ġdomains": 3414,
      "Ġcerebral": 3415,
      "Ġisolated": 3416,
      "Ġsubt": 3417,
      "Ġparti": 3418,
      "length": 3419,
      "ape": 3420,
      "Ġmodifications": 3421,
      "Ġvalidation": 3422,
      "cre": 3423,
      "Ġupper": 3424,
      "group": 3425,
      "Ġlymph": 3426,
      "Ġexercise": 3427,
      "temporal": 3428,
      "Ġtog": 3429,
      "Ġspect": 3430,
      "positive": 3431,
      "arb": 3432,
      "gery": 3433,
      "Ġda": 3434,
      "Ġ17": 3435,
      "ours": 3436,
      "Ġmaintaining": 3437,
      "Ġpower": 3438,
      "Ġtogether": 3439,
      "Ġchem": 3440,
      "Ġaff": 3441,
      "acerb": 3442,
      "TA": 3443,
      "ler": 3444,
      "duction": 3445,
      "ĠCol": 3446,
      "rif": 3447,
      "take": 3448,
      "opro": 3449,
      "Ġauthors": 3450,
      "idate": 3451,
      "Ġaction": 3452,
      "IC": 3453,
      "Ġendothelial": 3454,
      "Ġhem": 3455,
      "Ġsystematic": 3456,
      "Ġelectro": 3457,
      "BM": 3458,
      "ĠFisher": 3459,
      "Ġinstance": 3460,
      "Ġdig": 3461,
      "Ġenab": 3462,
      "oratory": 3463,
      "Ġtools": 3464,
      "time": 3465,
      "otide": 3466,
      "Ġdeep": 3467,
      "Ġinvolving": 3468,
      "Ġburden": 3469,
      "gi": 3470,
      "56": 3471,
      "ditional": 3472,
      "Ġpercent": 3473,
      "Ġapplications": 3474,
      "adic": 3475,
      "SPR": 3476,
      "Ġapproved": 3477,
      "Ġexacerb": 3478,
      "Ġreceived": 3479,
      "PCR": 3480,
      "ĠNa": 3481,
      "Ġoverexpression": 3482,
      "asome": 3483,
      "Ġdynamic": 3484,
      "Ġtool": 3485,
      "ĠAc": 3486,
      "For": 3487,
      "ĠAAV": 3488,
      "Ġrecomm": 3489,
      "Ġenzymes": 3490,
      "aced": 3491,
      "Ġchildren": 3492,
      "Ġposition": 3493,
      "Ġglobal": 3494,
      "Ġpul": 3495,
      "Ġscale": 3496,
      "Ġâī": 3497,
      "Ġmild": 3498,
      "pective": 3499,
      "tality": 3500,
      "Ġdepression": 3501,
      "Ġcontain": 3502,
      "Ġpeptide": 3503,
      "Ġact": 3504,
      "Ġadvanced": 3505,
      "Ġresearc": 3506,
      "Ġvirus": 3507,
      "Ġtranscriptional": 3508,
      "ĠASO": 3509,
      "Ġversus": 3510,
      "Ġmade": 3511,
      "ĠWith": 3512,
      "ework": 3513,
      "ĠInterestingly": 3514,
      "):": 3515,
      "EP": 3516,
      "Ġcount": 3517,
      "Ġlung": 3518,
      "ĠAm": 3519,
      "Ġneurom": 3520,
      "Ġdon": 3521,
      "Ġsubstr": 3522,
      "LA": 3523,
      "Ġfluid": 3524,
      "ils": 3525,
      "stric": 3526,
      "Ġheterogeneity": 3527,
      "mm": 3528,
      "85": 3529,
      "Ġstrain": 3530,
      "Ġnucleus": 3531,
      "Ġfemale": 3532,
      "ground": 3533,
      "Ġspectr": 3534,
      "Ġstabil": 3535,
      "Ġenvironmental": 3536,
      "Ġsil": 3537,
      "NPs": 3538,
      "Ġprotective": 3539,
      "63": 3540,
      "aper": 3541,
      "Ġseen": 3542,
      "Ġcorresponding": 3543,
      "pati": 3544,
      "Ġupregulated": 3545,
      "Ġmig": 3546,
      "onucle": 3547,
      "Ġexpected": 3548,
      "GA": 3549,
      "pha": 3550,
      "Ġbehavioral": 3551,
      "isted": 3552,
      "Ġimproving": 3553,
      "man": 3554,
      "Ġischem": 3555,
      "lished": 3556,
      "RN": 3557,
      "Ġcand": 3558,
      "Ġtoxic": 3559,
      "rifug": 3560,
      "Ġfeature": 3561,
      "PP": 3562,
      "Ġpoor": 3563,
      "Ġskeletal": 3564,
      "Ġspor": 3565,
      "Ġglutamate": 3566,
      "Ġincorpor": 3567,
      "Ġrelatively": 3568,
      "Ġmarked": 3569,
      "Ġresidues": 3570,
      "otype": 3571,
      "Ġadhe": 3572,
      "Ġwashed": 3573,
      "Ġsections": 3574,
      "Ġyet": 3575,
      "EVs": 3576,
      "Ġimprovement": 3577,
      "Ġur": 3578,
      "ĠAb": 3579,
      "estern": 3580,
      "phosph": 3581,
      "ert": 3582,
      "Ġcatal": 3583,
      "Ġadverse": 3584,
      "FRS": 3585,
      "care": 3586,
      "Ġfully": 3587,
      "Ġfailure": 3588,
      "Ġframework": 3589,
      "Ġagents": 3590,
      "Ġcore": 3591,
      "Ġmortality": 3592,
      "Ġaccel": 3593,
      "Ġmacrophages": 3594,
      "Ġimplicated": 3595,
      "Ġauto": 3596,
      "RISPR": 3597,
      "rant": 3598,
      "RT": 3599,
      "Ġprogress": 3600,
      "target": 3601,
      "Ġbalance": 3602,
      "Ġcontributing": 3603,
      "51": 3604,
      "Ad": 3605,
      "Ġalternative": 3606,
      "Ġled": 3607,
      "pinal": 3608,
      "98": 3609,
      "tative": 3610,
      "timately": 3611,
      "Ġreference": 3612,
      "ĠSpec": 3613,
      "Ġcardiac": 3614,
      "Ġconsist": 3615,
      "Ġcomplement": 3616,
      "ah": 3617,
      "Ġdelay": 3618,
      "ĠDi": 3619,
      "class": 3620,
      "oform": 3621,
      "olec": 3622,
      "Ġpressure": 3623,
      "UC": 3624,
      "Ġein": 3625,
      "Ġ&": 3626,
      "Gs": 3627,
      "Ġdownstream": 3628,
      "athe": 3629,
      "tag": 3630,
      "Ġ2018": 3631,
      "Thermo": 3632,
      "Ġ\\": 3633,
      "usted": 3634,
      "acc": 3635,
      "Ġstable": 3636,
      "opartic": 3637,
      "ĠMAP": 3638,
      "ĠÂ°": 3639,
      "ĠÃĹ": 3640,
      "Ġlog": 3641,
      "Ġclearance": 3642,
      "inary": 3643,
      "Ġendogenous": 3644,
      "Ġidentification": 3645,
      "Ġhospital": 3646,
      "eb": 3647,
      "Ġroom": 3648,
      "ĠNfL": 3649,
      "Ġtemporal": 3650,
      "yel": 3651,
      "ĠAr": 3652,
      "Ġstimul": 3653,
      "ĠResearch": 3654,
      "Ġstudied": 3655,
      "Ġmicrobiota": 3656,
      "Ġprofiles": 3657,
      "uclein": 3658,
      "Ab": 3659,
      "Ġestablish": 3660,
      "Cas": 3661,
      "BA": 3662,
      "Ġobjec": 3663,
      "Ġaccess": 3664,
      "Ġuptake": 3665,
      "oration": 3666,
      "ophil": 3667,
      "Ġknowledge": 3668,
      "Ġincidence": 3669,
      "Ġlysosomal": 3670,
      "Ġmust": 3671,
      "agen": 3672,
      "Ġspatial": 3673,
      "terminal": 3674,
      "aw": 3675,
      "Ġlarger": 3676,
      "etes": 3677,
      "Ġturn": 3678,
      "Ġreports": 3679,
      "ĠTR": 3680,
      "Ġconcer": 3681,
      "ĠWhen": 3682,
      "66": 3683,
      "plemented": 3684,
      "Ġsuccessful": 3685,
      "âĪĹ": 3686,
      "Ġsince": 3687,
      "Ġmaxim": 3688,
      "Ġmatrix": 3689,
      "adi": 3690,
      "ethod": 3691,
      "Ġnecessary": 3692,
      "Ġreduces": 3693,
      "Ġstatistically": 3694,
      "Ġcommunication": 3695,
      "Ġpredominant": 3696,
      "Ġpeak": 3697,
      "ĠHealth": 3698,
      "Ġmatter": 3699,
      "LT": 3700,
      "hest": 3701,
      "Ġgo": 3702,
      "erved": 3703,
      "Ġnatural": 3704,
      "roid": 3705,
      "ney": 3706,
      "antly": 3707,
      "ĠLi": 3708,
      "Ġmainly": 3709,
      "Ġoral": 3710,
      "istry": 3711,
      "Ġselection": 3712,
      "Ġinhibiting": 3713,
      "nd": 3714,
      "Ġmid": 3715,
      "Ġrib": 3716,
      "Ġ48": 3717,
      "Ġregeneration": 3718,
      "Ġfibro": 3719,
      "position": 3720,
      "Ġable": 3721,
      "Ġalg": 3722,
      "ĠPatients": 3723,
      "ye": 3724,
      "FN": 3725,
      "Ġassays": 3726,
      "Ġactivities": 3727,
      "Ġdatasets": 3728,
      "Ġfocused": 3729,
      "ĠAmong": 3730,
      "Ġcomponent": 3731,
      "LI": 3732,
      "Ġdesigned": 3733,
      "ĠSch": 3734,
      "Ġear": 3735,
      "Ġwhole": 3736,
      "Ġaxis": 3737,
      "LP": 3738,
      "ifying": 3739,
      "pr": 3740,
      "Ġinclusion": 3741,
      "Ġeff": 3742,
      "Ġprecise": 3743,
      "Ġensure": 3744,
      "78": 3745,
      "urse": 3746,
      "AN": 3747,
      "Con": 3748,
      "generative": 3749,
      "Ġregression": 3750,
      "Ġplate": 3751,
      "ysiology": 3752,
      "Ġnetworks": 3753,
      "Ġcontent": 3754,
      "cepti": 3755,
      "Ġmaintain": 3756,
      "elines": 3757,
      "eness": 3758,
      "ries": 3759,
      "ĠFT": 3760,
      "Ġamo": 3761,
      "imension": 3762,
      "Ġion": 3763,
      "Ġsix": 3764,
      "MR": 3765,
      "Ġresulted": 3766,
      "Ġrestric": 3767,
      "Ġlate": 3768,
      "Ġhippocampus": 3769,
      "Ġdysregulation": 3770,
      "Ġmm": 3771,
      "sing": 3772,
      "ched": 3773,
      "Ġcomposition": 3774,
      "Ġchemical": 3775,
      "Ġrecently": 3776,
      "Ġregarding": 3777,
      "Ġlater": 3778,
      "Ġpathoph": 3779,
      "wise": 3780,
      "Ġcarriers": 3781,
      "biotic": 3782,
      "Ġabnormalities": 3783,
      "Ġalone": 3784,
      "isease": 3785,
      "Ġpublished": 3786,
      "Ġnutri": 3787,
      "Ġneut": 3788,
      "ĠPI": 3789,
      "Co": 3790,
      "Ġiss": 3791,
      "Ġpublic": 3792,
      "Ġindex": 3793,
      "cal": 3794,
      "ĠMD": 3795,
      "Ġsocial": 3796,
      "Ġconc": 3797,
      "Es": 3798,
      "Ġcytoplasmic": 3799,
      "econd": 3800,
      "HC": 3801,
      "Ġexpressing": 3802,
      "Ġtrigger": 3803,
      "Ġcommonly": 3804,
      "Ġsubun": 3805,
      "EK": 3806,
      "for": 3807,
      "ix": 3808,
      "fil": 3809,
      "met": 3810,
      "Ġreaction": 3811,
      "Ġtask": 3812,
      "HD": 3813,
      "itation": 3814,
      "61": 3815,
      "Ġpredicted": 3816,
      "Ġdeple": 3817,
      "Ġaffecting": 3818,
      "Ġmeasurements": 3819,
      "Ġwidely": 3820,
      "Ġever": 3821,
      "ĠSC": 3822,
      "ĠFinally": 3823,
      "ÎĶ": 3824,
      "was": 3825,
      "jug": 3826,
      "Ġquestion": 3827,
      "Ġheart": 3828,
      "ographic": 3829,
      "Ġmodulation": 3830,
      "Ġfund": 3831,
      "rob": 3832,
      "ĠPl": 3833,
      "ostic": 3834,
      "64": 3835,
      "58": 3836,
      "phas": 3837,
      "Ġtranscript": 3838,
      "acture": 3839,
      "Ġcomparisons": 3840,
      "Ġhead": 3841,
      "ray": 3842,
      "Ġvariability": 3843,
      "Ġmethylation": 3844,
      "ocyte": 3845,
      "odend": 3846,
      "ml": 3847,
      "Ġfusion": 3848,
      "side": 3849,
      "priate": 3850,
      "Ġpen": 3851,
      "rocytes": 3852,
      "Ġhal": 3853,
      "Ġexon": 3854,
      "Ġmetabolites": 3855,
      "here": 3856,
      "ises": 3857,
      "operative": 3858,
      "Ġpreclinical": 3859,
      "Ġsupporting": 3860,
      "97": 3861,
      "Ġnanopartic": 3862,
      "Ġprofile": 3863,
      "obl": 3864,
      "Ġresearchers": 3865,
      "Ġdifferential": 3866,
      "Ġreactive": 3867,
      "Ġcurrently": 3868,
      "Ġfacilitate": 3869,
      "ersen": 3870,
      "terol": 3871,
      "Ġproduced": 3872,
      "Ġachieved": 3873,
      "Ġwhite": 3874,
      "52": 3875,
      "Ġsporadic": 3876,
      "Ġsuscepti": 3877,
      "ochemical": 3878,
      "orith": 3879,
      "Ġdefin": 3880,
      "Ġstep": 3881,
      "phal": 3882,
      "itudinal": 3883,
      "pass": 3884,
      "Ġnext": 3885,
      "Ġembry": 3886,
      "Ġyield": 3887,
      "Ġexplore": 3888,
      "Ġolder": 3889,
      "MC": 3890,
      "Ġaspec": 3891,
      "Ġcerebell": 3892,
      "Ms": 3893,
      "Ġinvolves": 3894,
      "ĠPT": 3895,
      "rec": 3896,
      "Ġclinically": 3897,
      "Ġepit": 3898,
      "Ġmaking": 3899,
      "Ġpeptides": 3900,
      "Ġhighest": 3901,
      "rap": 3902,
      "sized": 3903,
      "aling": 3904,
      "xi": 3905,
      "itu": 3906,
      "ĠAss": 3907,
      "IL": 3908,
      "Ġgeneration": 3909,
      "ĠBD": 3910,
      "Ġlocalization": 3911,
      "well": 3912,
      "Ġserve": 3913,
      "0001": 3914,
      "week": 3915,
      "Ġtri": 3916,
      "Ġtransl": 3917,
      "OE": 3918,
      "Ġsurgery": 3919,
      "lin": 3920,
      "Ġisoform": 3921,
      "Ġperme": 3922,
      "Ġclinic": 3923,
      "bit": 3924,
      "Ġdeficiency": 3925,
      "Ġoper": 3926,
      "Ġglyc": 3927,
      "KO": 3928,
      "fs": 3929,
      "idation": 3930,
      "ĠCRISPR": 3931,
      "ĠRT": 3932,
      "Ġ2017": 3933,
      "inity": 3934,
      "Ġyoung": 3935,
      "Ġautophag": 3936,
      "ament": 3937,
      "Ġupregulation": 3938,
      "wide": 3939,
      "Ġinteract": 3940,
      "Ġtranscripts": 3941,
      "Ġconstruc": 3942,
      "Ġeluc": 3943,
      "Ġexosomes": 3944,
      "Ġepigen": 3945,
      "Ġpersonal": 3946,
      "ĠLC": 3947,
      "Med": 3948,
      "otoxicity": 3949,
      "Ġaround": 3950,
      "ovascular": 3951,
      "ĠCons": 3952,
      "totemporal": 3953,
      "Ġvon": 3954,
      "Ġhighlighting": 3955,
      "Ġcall": 3956,
      "Ġubiquitin": 3957,
      "let": 3958,
      "Ġoccurs": 3959,
      "Ġent": 3960,
      "Ġcoord": 3961,
      "oh": 3962,
      "Ġcontributes": 3963,
      "argin": 3964,
      "LRP": 3965,
      "Ġhumans": 3966,
      "troph": 3967,
      "}{": 3968,
      "apping": 3969,
      "link": 3970,
      "ĠPCR": 3971,
      "Ġweakness": 3972,
      "Ġdifficult": 3973,
      "ancy": 3974,
      "Ġir": 3975,
      "Ġcentrifug": 3976,
      "Ġaged": 3977,
      "Ġmanuf": 3978,
      "Ġtranspor": 3979,
      "Ġnature": 3980,
      "ded": 3981,
      "Ġlat": 3982,
      "Ġassociations": 3983,
      "Ġenhances": 3984,
      "Ġstar": 3985,
      "Ġrepl": 3986,
      "MEM": 3987,
      "ĠmiRNAs": 3988,
      "Ġalgorith": 3989,
      "Ġmyelin": 3990,
      "Ġneurotox": 3991,
      "Ġhost": 3992,
      "ĠPr": 3993,
      "Ġdefects": 3994,
      "Ġdiscuss": 3995,
      "Ġdiagnosed": 3996,
      "77": 3997,
      "Ġsenes": 3998,
      "59": 3999,
      "NOVA": 4000,
      "Ġmodification": 4001,
      "Ġmediated": 4002,
      "Ġadap": 4003,
      "OP": 4004,
      "Ġclassification": 4005,
      "ĠBio": 4006,
      "Ġuntil": 4007,
      "Ġprogram": 4008,
      "ĠMA": 4009,
      "/âĪĴ": 4010,
      "Ġhydro": 4011,
      "zyg": 4012,
      "ĠDespite": 4013,
      "Ġpractice": 4014,
      "Ġstates": 4015,
      "Ġmotif": 4016,
      "Ġdiscovery": 4017,
      "Ġinsulin": 4018,
      "Ġadults": 4019,
      "GT": 4020,
      "Ġpla": 4021,
      "Ġevent": 4022,
      "Ġinterval": 4023,
      "Ġselective": 4024,
      "vari": 4025,
      "sen": 4026,
      "Ġtechnology": 4027,
      "ĠSCI": 4028,
      "54": 4029,
      "ĠQu": 4030,
      "ifferen": 4031,
      "Ġeine": 4032,
      "Ġlum": 4033,
      "ĠiPSC": 4034,
      "vit": 4035,
      "ymb": 4036,
      "Ġintest": 4037,
      "Ġpref": 4038,
      "Ġmodulate": 4039,
      "Ġrecruit": 4040,
      "Ġaccom": 4041,
      "ME": 4042,
      "chiatric": 4043,
      "Ġconst": 4044,
      "Ġhighlight": 4045,
      "tau": 4046,
      "Ġspecial": 4047,
      "Ġadvant": 4048,
      "ervation": 4049,
      "known": 4050,
      "Ġcut": 4051,
      "synuclein": 4052,
      "Ġpy": 4053,
      "tiveness": 4054,
      "Ġadapt": 4055,
      "Ġpair": 4056,
      "Ġinternal": 4057,
      "FA": 4058,
      "IO": 4059,
      "sively": 4060,
      "Ġcontrolled": 4061,
      "immune": 4062,
      "Ġorder": 4063,
      "Ġdep": 4064,
      "Ġcontinuous": 4065,
      "Ġfas": 4066,
      "Ġinduction": 4067,
      "Ġgenerate": 4068,
      "Ġbenefits": 4069,
      "Ġutilized": 4070,
      "Ġexperience": 4071,
      "SS": 4072,
      "Ġmodulating": 4073,
      "$$\\": 4074,
      "rief": 4075,
      "Ġdaily": 4076,
      "Ġproportion": 4077,
      "71": 4078,
      "lier": 4079,
      "Ġ21": 4080,
      "Ġreas": 4081,
      "Ġ90": 4082,
      "Ġfrequently": 4083,
      "plantation": 4084,
      "ili": 4085,
      "ĠND": 4086,
      "Ġknockdown": 4087,
      "ĠGF": 4088,
      "Ġultimately": 4089,
      "MG": 4090,
      "ck": 4091,
      "sh": 4092,
      "ilep": 4093,
      "ĠOver": 4094,
      "aries": 4095,
      "ĠPC": 4096,
      "Ġtrigg": 4097,
      "bers": 4098,
      "Ġabundance": 4099,
      "Ġadministered": 4100,
      "Ġdisruption": 4101,
      "Ġintegration": 4102,
      "Ġmedia": 4103,
      "Ġlonger": 4104,
      "Ġdiabetes": 4105,
      "Ġher": 4106,
      "rit": 4107,
      "tub": 4108,
      "96": 4109,
      "zole": 4110,
      "ife": 4111,
      "Ġdend": 4112,
      "Ġextracted": 4113,
      "years": 4114,
      "cessive": 4115,
      "totic": 4116,
      "Ġaxons": 4117,
      "ĠIg": 4118,
      "oly": 4119,
      "ĠReg": 4120,
      "Ġvary": 4121,
      "Ġmoderate": 4122,
      "Ġfibrobl": 4123,
      "Ġexperiment": 4124,
      "73": 4125,
      "can": 4126,
      "ĠSP": 4127,
      "Ġothers": 4128,
      "Ġmiss": 4129,
      "ĠHSP": 4130,
      "Ġrecorded": 4131,
      "Ġmach": 4132,
      "Ġoste": 4133,
      "Ġastrocyte": 4134,
      "Ġsubstantial": 4135,
      "deed": 4136,
      "rected": 4137,
      "ii": 4138,
      "Ġdetailed": 4139,
      "Ġcourse": 4140,
      "Ġlesions": 4141,
      "astro": 4142,
      "Ġblot": 4143,
      "Ġdouble": 4144,
      "Ġmeta": 4145,
      "Ġrequires": 4146,
      "Ġrefer": 4147,
      "Ġhypothesis": 4148,
      "Ġsubsequently": 4149,
      "ĠAcc": 4150,
      "Ġthroughout": 4151,
      "ank": 4152,
      "Ġsensory": 4153,
      "urope": 4154,
      "clerosis": 4155,
      "Ġneuromuscular": 4156,
      "Ġdatabase": 4157,
      "Ġvent": 4158,
      "vention": 4159,
      "Ġdesp": 4160,
      "Ġexcluded": 4161,
      "ulates": 4162,
      "Ġbecome": 4163,
      "Ġhippocampal": 4164,
      "Ġmuscular": 4165,
      "Ġoligodend": 4166,
      "struct": 4167,
      "ta": 4168,
      "free": 4169,
      "Ġinduces": 4170,
      "],": 4171,
      "Ġprolong": 4172,
      "Ġtumors": 4173,
      "Ġwomen": 4174,
      "Ġcultured": 4175,
      "ĠClinical": 4176,
      "Ġmanifest": 4177,
      "Ġdespite": 4178,
      "Ġ80": 4179,
      "Ġepigenetic": 4180,
      "Ġmovement": 4181,
      "versely": 4182,
      "off": 4183,
      "odium": 4184,
      "Ġcondensates": 4185,
      "Ġappropriate": 4186,
      "Ġlinear": 4187,
      "tration": 4188,
      "Ġneuropath": 4189,
      "alle": 4190,
      "angl": 4191,
      "Ġexplored": 4192,
      "WT": 4193,
      "riting": 4194,
      "Ġmorphology": 4195,
      "Syn": 4196,
      "tioned": 4197,
      "Ġmixed": 4198,
      "Ġcarried": 4199,
      "Ġbelow": 4200,
      "Ġproducts": 4201,
      "Ġevery": 4202,
      "Ġresponsible": 4203,
      "Re": 4204,
      "Ġsecretion": 4205,
      "Ġreflect": 4206,
      "Ġstri": 4207,
      "emb": 4208,
      "Ġhetero": 4209,
      "raf": 4210,
      "erior": 4211,
      "Ġchannel": 4212,
      "Ġplasticity": 4213,
      "Ġ70": 4214,
      "Ġchannels": 4215,
      "ope": 4216,
      "Ġattention": 4217,
      "Ġbias": 4218,
      "Ġcohorts": 4219,
      "âĨ": 4220,
      "day": 4221,
      "Ġaffects": 4222,
      "Ġvalidated": 4223,
      "gical": 4224,
      "ulatory": 4225,
      "etal": 4226,
      "everal": 4227,
      "egin": 4228,
      "Ġgenomic": 4229,
      "ED": 4230,
      "AMP": 4231,
      "Ġmolecule": 4232,
      "ĠTrans": 4233,
      "angu": 4234,
      "ĠSup": 4235,
      "Ġspectrum": 4236,
      "Ġcompr": 4237,
      "Ġseparation": 4238,
      "Ġidentifying": 4239,
      "year": 4240,
      "Ġstandardi": 4241,
      "Ġallevi": 4242,
      "Ġquantified": 4243,
      "Ġ28": 4244,
      "orn": 4245,
      "xiety": 4246,
      "Ġvesicles": 4247,
      "02": 4248,
      "alam": 4249,
      "olved": 4250,
      "Ġsummar": 4251,
      "point": 4252,
      "Ġcopper": 4253,
      "went": 4254,
      "eled": 4255,
      "Ġincludes": 4256,
      "ict": 4257,
      "ycin": 4258,
      "Ġvariable": 4259,
      "zygous": 4260,
      "Ns": 4261,
      "Ġadvance": 4262,
      "apse": 4263,
      "lysis": 4264,
      "Ġsurve": 4265,
      "Se": 4266,
      "Ġestimated": 4267,
      "control": 4268,
      "Ġregulated": 4269,
      "gin": 4270,
      "ocl": 4271,
      "Ġcomplexes": 4272,
      "Ġbeneficial": 4273,
      "Ġvector": 4274,
      "see": 4275,
      "Ġsubtypes": 4276,
      "ire": 4277,
      "Ġclusters": 4278,
      "pase": 4279,
      "brid": 4280,
      "Ġcarry": 4281,
      "Ġmel": 4282,
      "nm": 4283,
      "ĠMNs": 4284,
      "Ġvul": 4285,
      "ĠTech": 4286,
      "def": 4287,
      "hab": 4288,
      "olesterol": 4289,
      "Ġunderstand": 4290,
      "92": 4291,
      "raw": 4292,
      "94": 4293,
      "Ġlongitudinal": 4294,
      "ount": 4295,
      "AK": 4296,
      "Ġattenu": 4297,
      "ollowing": 4298,
      "rm": 4299,
      "Ġprotocols": 4300,
      "ĠInstit": 4301,
      "Ġneurotrans": 4302,
      "Ġassembly": 4303,
      "level": 4304,
      "mediate": 4305,
      "Ġenabling": 4306,
      "Ġnoted": 4307,
      "ĠRO": 4308,
      "Ġversion": 4309,
      "Ġshe": 4310,
      "Ġsearch": 4311,
      "ulti": 4312,
      "Ġregulates": 4313,
      "ING": 4314,
      "ĠFirst": 4315,
      "tect": 4316,
      "Ġmembranes": 4317,
      "Ġaimed": 4318,
      "ĠIV": 4319,
      "Ġinterpret": 4320,
      "Ġaxon": 4321,
      "enz": 4322,
      "ĠRNAs": 4323,
      "begin": 4324,
      "EV": 4325,
      "fact": 4326,
      "rf": 4327,
      "Ġ2016": 4328,
      "Ġsigns": 4329,
      "ĠPR": 4330,
      "Ġskin": 4331,
      "74": 4332,
      "âĢĥ": 4333,
      "Ġyear": 4334,
      "Ġmedicine": 4335,
      "elling": 4336,
      "ĠGP": 4337,
      "Ġcareg": 4338,
      "Ġimage": 4339,
      "ĠmiRNA": 4340,
      "ĠOR": 4341,
      "Ġmanner": 4342,
      "ĠGerm": 4343,
      "Ġdirection": 4344,
      "night": 4345,
      "Ġlocated": 4346,
      "VID": 4347,
      "Ġbeyond": 4348,
      "Ġnit": 4349,
      "tering": 4350,
      "Ġtoler": 4351,
      "yst": 4352,
      "vir": 4353,
      "quid": 4354,
      "Ġdoc": 4355,
      "Ġtransgenic": 4356,
      "urons": 4357,
      "clear": 4358,
      "TOR": 4359,
      "ull": 4360,
      "Ġshared": 4361,
      "Ġvalu": 4362,
      "Ġclassified": 4363,
      "Ġfood": 4364,
      "Ġhall": 4365,
      "Ġphot": 4366,
      "86": 4367,
      "ĠANOVA": 4368,
      "Ġx": 4369,
      "Ġsci": 4370,
      "Ġreproduc": 4371,
      "ĠPP": 4372,
      "tingu": 4373,
      "load": 4374,
      "clus": 4375,
      "Ġengine": 4376,
      "itively": 4377,
      "Ġremained": 4378,
      "91": 4379,
      "ĠNLRP": 4380,
      "ĠKO": 4381,
      "pose": 4382,
      "onset": 4383,
      "ĠGiven": 4384,
      "Ġdendri": 4385,
      "ians": 4386,
      "Ġproduce": 4387,
      "Ġerro": 4388,
      "aminergic": 4389,
      "mentation": 4390,
      "nc": 4391,
      "symb": 4392,
      "Ġguidelines": 4393,
      "BC": 4394,
      "part": 4395,
      "Ġconsequ": 4396,
      "Ġenti": 4397,
      "Ġjunction": 4398,
      "Ġactivate": 4399,
      "olip": 4400,
      "EF": 4401,
      "Ġthick": 4402,
      "Ġpercentage": 4403,
      "Ġfav": 4404,
      "ĠIII": 4405,
      "ymptomatic": 4406,
      "Ġexamination": 4407,
      "Ġsettings": 4408,
      "ventional": 4409,
      "MO": 4410,
      "Ġdistingu": 4411,
      "ĠTBI": 4412,
      "Ġ**": 4413,
      "odds": 4414,
      "Ġfraction": 4415,
      "Ġsource": 4416,
      "EC": 4417,
      "ĠEurope": 4418,
      "Ġsummary": 4419,
      "Ġmodified": 4420,
      "Ġstrongly": 4421,
      "Ġmaximum": 4422,
      "Ġvulner": 4423,
      "ave": 4424,
      "Ġallows": 4425,
      "Ġantigen": 4426,
      "Ġresc": 4427,
      "Ġaber": 4428,
      "ĠGFAP": 4429,
      "Ġsupported": 4430,
      "Ġrepeats": 4431,
      "Ġfamilial": 4432,
      "Ġcoup": 4433,
      "iluzole": 4434,
      "ĠChina": 4435,
      "tech": 4436,
      "Ġnormalized": 4437,
      "Ġconnec": 4438,
      "Ġhealthcare": 4439,
      "alk": 4440,
      "DH": 4441,
      "Ġquantitative": 4442,
      "Ġhighlights": 4443,
      "Ġcardiovascular": 4444,
      "vascular": 4445,
      "amide": 4446,
      "ubMed": 4447,
      "ivers": 4448,
      "ĠProtein": 4449,
      "Ġcultures": 4450,
      "Ġgenerally": 4451,
      "isation": 4452,
      "76": 4453,
      "GS": 4454,
      "Ġeduc": 4455,
      "Ġmitophagy": 4456,
      "Ġprocedures": 4457,
      "Ġmechanical": 4458,
      "unct": 4459,
      "Ġ22": 4460,
      "Ġorganoids": 4461,
      "Ġcomplexity": 4462,
      "Ġresolution": 4463,
      "Ġacqui": 4464,
      "Ġprediction": 4465,
      "Ġfixed": 4466,
      "ĠBoth": 4467,
      "ĠStudies": 4468,
      "Ġepilep": 4469,
      "atives": 4470,
      "Ġcost": 4471,
      "ĠSh": 4472,
      "erous": 4473,
      "Ġcomplications": 4474,
      "ĠAR": 4475,
      "inv": 4476,
      "Ġbil": 4477,
      "ocytosis": 4478,
      "oflu": 4479,
      "lectively": 4480,
      "Ġremod": 4481,
      "Ġcollection": 4482,
      "folded": 4483,
      "athies": 4484,
      "Ġplacebo": 4485,
      "Ġmechanistic": 4486,
      "Ġtreating": 4487,
      "rh": 4488,
      "Ġillustr": 4489,
      "Ġcannot": 4490,
      "Ġcasc": 4491,
      "Ġbest": 4492,
      "Ġrecognition": 4493,
      "utive": 4494,
      "Ġvaluable": 4495,
      "81": 4496,
      "eta": 4497,
      "Ġhypox": 4498,
      "Ġunclear": 4499,
      "Ġemphas": 4500,
      "ished": 4501,
      "ĠTechn": 4502,
      "]{": 4503,
      "Ġcat": 4504,
      "No": 4505,
      "Ġinfections": 4506,
      "ĠNMJ": 4507,
      "ode": 4508,
      "Ġinhibitory": 4509,
      "IT": 4510,
      "minimal": 4511,
      "rin": 4512,
      "Ġmajority": 4513,
      "Ġnanoparticles": 4514,
      "Ġstra": 4515,
      "Ġcytokine": 4516,
      "Ġsmo": 4517,
      "fon": 4518,
      "ads": 4519,
      "Ġhy": 4520,
      "Ġfatty": 4521,
      "zing": 4522,
      "Ġovernight": 4523,
      "encies": 4524,
      "Ġtraum": 4525,
      "Ġmicroscopy": 4526,
      "Ġnote": 4527,
      "ĠMic": 4528,
      "84": 4529,
      "isms": 4530,
      "Ġnumerous": 4531,
      "action": 4532,
      "Ġmicrob": 4533,
      "Ġmanufacture": 4534,
      "ologic": 4535,
      "Ġemer": 4536,
      "Res": 4537,
      "use": 4538,
      "Ġeffectiveness": 4539,
      "ternal": 4540,
      "ĠGFP": 4541,
      "83": 4542,
      "Ġdepletion": 4543,
      "Ġproble": 4544,
      "Ġsubset": 4545,
      "gn": 4546,
      "Ġdual": 4547,
      "ĠFTLD": 4548,
      "amsb": 4549,
      "Ġattribu": 4550,
      "ysym": 4551,
      "amsmath": 4552,
      "amssymb": 4553,
      "amsfon": 4554,
      "mathrs": 4555,
      "wasysym": 4556,
      "amsbsy": 4557,
      "amsfonts": 4558,
      "mathrsfs": 4559,
      "ĠFunction": 4560,
      "documentclass": 4561,
      "ĠSN": 4562,
      "Ġepithe": 4563,
      "uted": 4564,
      "unting": 4565,
      "Ġtail": 4566,
      "Ġbackground": 4567,
      "Ġnm": 4568,
      "Ġclosely": 4569,
      "Ġpharmacological": 4570,
      "Ġmetast": 4571,
      "mut": 4572,
      "Ġemo": 4573,
      "All": 4574,
      "Ġdeletion": 4575,
      "Ġtranscriptom": 4576,
      "ades": 4577,
      "Ġdemonstrating": 4578,
      "portantly": 4579,
      "ying": 4580,
      "Ġseries": 4581,
      "Ġtend": 4582,
      "Ġcompart": 4583,
      "}{-": 4584,
      "ĠAL": 4585,
      "ĠUsing": 4586,
      "greek": 4587,
      "upgreek": 4588,
      "Ġbenefit": 4589,
      "idemargin": 4590,
      "oddsidemargin": 4591,
      "Ġmaintained": 4592,
      "setlength": 4593,
      "79": 4594,
      "Ġefficient": 4595,
      "Ġorigin": 4596,
      "Ġprognosis": 4597,
      "Ġexcessive": 4598,
      "Ġquantification": 4599,
      "Ġformed": 4600,
      "ĠAMP": 4601,
      "TL": 4602,
      "rane": 4603,
      "Ġhalf": 4604,
      "ching": 4605,
      "mental": 4606,
      "Ġinterf": 4607,
      "Ġallowing": 4608,
      "RNP": 4609,
      "Ġbase": 4610,
      "Ġprepared": 4611,
      "gene": 4612,
      "Ġinfil": 4613,
      "Ġaden": 4614,
      "Ġmembers": 4615,
      "Ġtechnologies": 4616,
      "Ġremoved": 4617,
      "%).": 4618,
      "Ġearlier": 4619,
      "Ġinitiation": 4620,
      "TP": 4621,
      "Ġprecision": 4622,
      "phen": 4623,
      "Ġpredominantly": 4624,
      "Ġindepend": 4625,
      "Ġreach": 4626,
      "ĠCells": 4627,
      "ica": 4628,
      "Ġgastro": 4629,
      "Ġbo": 4630,
      "Ġannot": 4631,
      "ĠPS": 4632,
      "Ġrecruitment": 4633,
      "tra": 4634,
      "Ġanxiety": 4635,
      "Ġarter": 4636,
      "Ġview": 4637,
      "orescent": 4638,
      "itude": 4639,
      "tras": 4640,
      "Ġsection": 4641,
      "ĠSystem": 4642,
      "ĠPA": 4643,
      "iring": 4644,
      "ĠDisease": 4645,
      "rug": 4646,
      "Î¼m": 4647,
      "Ġoriginal": 4648,
      "Ġregard": 4649,
      "Ġtraditional": 4650,
      "Ġgain": 4651,
      "Ġdownregulated": 4652,
      "ĠÎ¼M": 4653,
      "ĠAPP": 4654,
      "gue": 4655,
      "Ġdisplayed": 4656,
      "Ġintestinal": 4657,
      "rine": 4658,
      "cription": 4659,
      "ĠMSCs": 4660,
      "Ġoptimal": 4661,
      "Ġge": 4662,
      "ML": 4663,
      "Ġnuclei": 4664,
      "Ġsubc": 4665,
      "Ġkid": 4666,
      "Ġinput": 4667,
      "Ġventi": 4668,
      "Ġhours": 4669,
      "ĠCR": 4670,
      "Ġfrontotemporal": 4671,
      "500": 4672,
      "Ġmt": 4673,
      "FC": 4674,
      "Ġinhibits": 4675,
      "Ġdopaminergic": 4676,
      "Ġsodium": 4677,
      "âĢ²-": 4678,
      "back": 4679,
      "Ġpredictive": 4680,
      "Ġgood": 4681,
      "ynaptic": 4682,
      "Ġcholesterol": 4683,
      "value": 4684,
      "hic": 4685,
      "ĠmL": 4686,
      "ĠSp": 4687,
      "dri": 4688,
      "Ġconstit": 4689,
      "ou": 4690,
      "tenance": 4691,
      "Ġspeech": 4692,
      "03": 4693,
      "Ġlob": 4694,
      "Ġrecognized": 4695,
      "dis": 4696,
      "ĠAnother": 4697,
      "anning": 4698,
      "anguage": 4699,
      "ultaneous": 4700,
      "Ġimplement": 4701,
      "Ġpreventing": 4702,
      "ĠEach": 4703,
      "sia": 4704,
      "ĠMR": 4705,
      "Ġobservations": 4706,
      "Ġsubgroup": 4707,
      "ĠPatient": 4708,
      "LPS": 4709,
      "Ġtw": 4710,
      "ange": 4711,
      "come": 4712,
      "Ġrespond": 4713,
      "Ġcounter": 4714,
      "Ġseed": 4715,
      "Ġlayer": 4716,
      "Ġ2015": 4717,
      "months": 4718,
      "AF": 4719,
      "Ġchallenge": 4720,
      "Ġâī¥": 4721,
      "ĠHere": 4722,
      "Ġcomprom": 4723,
      "Ġcycl": 4724,
      "Ġfemales": 4725,
      "Ġdegree": 4726,
      "scale": 4727,
      "opath": 4728,
      "Ġpolymer": 4729,
      "Î³": 4730,
      "Ġelements": 4731,
      "âĪĴ/âĪĴ": 4732,
      "protein": 4733,
      "Ġexisting": 4734,
      "CO": 4735,
      "Ġmales": 4736,
      "Ġtransmission": 4737,
      "olecular": 4738,
      "Ġhallmark": 4739,
      "inter": 4740,
      "Ġmigration": 4741,
      "esthe": 4742,
      "Ġmicroen": 4743,
      "Ġcausing": 4744,
      "Ġextensive": 4745,
      "rate": 4746,
      "Ġair": 4747,
      "Ġdate": 4748,
      "Ġcarb": 4749,
      "Ġassessments": 4750,
      "ĠMedical": 4751,
      "with": 4752,
      "Ġemerging": 4753,
      "Ġavoid": 4754,
      "alling": 4755,
      "Ġflex": 4756,
      "Ġtransition": 4757,
      "Ġreverse": 4758,
      "ĠSH": 4759,
      "Ġneeds": 4760,
      "aring": 4761,
      "Ġrelevance": 4762,
      "Ġmill": 4763,
      "hood": 4764,
      "Ġscaff": 4765,
      "Ġachieve": 4766,
      "Ġinclusions": 4767,
      "87": 4768,
      "ĠTau": 4769,
      "Ġspace": 4770,
      "ĠSign": 4771,
      "âĢ¢": 4772,
      "Ġaspects": 4773,
      "ont": 4774,
      "Ġredox": 4775,
      "Ġmeasurement": 4776,
      "Ġmamm": 4777,
      "Sigma": 4778,
      "ĠOf": 4779,
      "uter": 4780,
      "Ġbulbar": 4781,
      "89": 4782,
      "Ġhaving": 4783,
      "ĠTF": 4784,
      "Ġhind": 4785,
      "analysis": 4786,
      "Ġexpand": 4787,
      "ĠCOVID": 4788,
      "Ġmaturation": 4789,
      "men": 4790,
      "Ġaffinity": 4791,
      "Ġpool": 4792,
      "Ġway": 4793,
      "ris": 4794,
      "Ġprecurs": 4795,
      "Ġhighlighted": 4796,
      "Ġphag": 4797,
      "ready": 4798,
      "ĠMod": 4799,
      "Ġmake": 4800,
      "Ġemerged": 4801,
      "Ġintegrated": 4802,
      "Ġacceler": 4803,
      "Ġmanufacturer": 4804,
      "Ġobjective": 4805,
      "Ġexposed": 4806,
      "month": 4807,
      "Ġcapture": 4808,
      "Ġmaintenance": 4809,
      "pressing": 4810,
      "Ġprocedure": 4811,
      "kt": 4812,
      "Ġcoll": 4813,
      "ait": 4814,
      "Ġtaken": 4815,
      "Ġderi": 4816,
      "Ġshor": 4817,
      "Ġhere": 4818,
      "Ġbound": 4819,
      "Ġrepeated": 4820,
      "grade": 4821,
      "Ġfacilitating": 4822,
      "used": 4823,
      "Ġenc": 4824,
      "Ġ2014": 4825,
      "Im": 4826,
      "Ġlast": 4827,
      "Ġsk": 4828,
      "Ġsurgical": 4829,
      "Ġactivating": 4830,
      "range": 4831,
      "WAS": 4832,
      "EL": 4833,
      "_{": 4834,
      "Ġfrontal": 4835,
      "ening": 4836,
      "Ġdivid": 4837,
      "containing": 4838,
      "Ġconcept": 4839,
      "Ġexce": 4840,
      "mitte": 4841,
      "EGs": 4842,
      "Ġlar": 4843,
      "Ġdifferentially": 4844,
      "ĠSpecifically": 4845,
      "04": 4846,
      "Ġmuch": 4847,
      "Ġplot": 4848,
      "Ġparticipant": 4849,
      "Ġconsent": 4850,
      "organ": 4851,
      "Ġenable": 4852,
      "EN": 4853,
      "drich": 4854,
      "lim": 4855,
      "ĠOther": 4856,
      "utions": 4857,
      "ĠCy": 4858,
      "CSF": 4859,
      "Ġtransform": 4860,
      "ĠCu": 4861,
      "eful": 4862,
      "Ġbodies": 4863,
      "Ġvariety": 4864,
      "roptosis": 4865,
      "ĠALSFRS": 4866,
      "ĠPK": 4867,
      "idity": 4868,
      "usin": 4869,
      "Ġinser": 4870,
      "Ġbios": 4871,
      "Ġadjusted": 4872,
      "Ġaccompan": 4873,
      "Ġischemic": 4874,
      "Ġadi": 4875,
      "BL": 4876,
      "Ġtrack": 4877,
      "Ġliquid": 4878,
      "Ġentire": 4879,
      "SMA": 4880,
      "ĠAPOE": 4881,
      "tric": 4882,
      "ungen": 4883,
      "Ġcomparable": 4884,
      "ĠImmun": 4885,
      "Ġlibr": 4886,
      "ĠLab": 4887,
      "RR": 4888,
      "Ġbreak": 4889,
      "ximal": 4890,
      "Ġlargely": 4891,
      "Ġwide": 4892,
      "Ġnumbers": 4893,
      "ĠED": 4894,
      "Ġseiz": 4895,
      "equ": 4896,
      "%.": 4897,
      "umor": 4898,
      "local": 4899,
      "82": 4900,
      "Ġsensitive": 4901,
      "Ġdoses": 4902,
      "Ġplaced": 4903,
      "Ġalready": 4904,
      "hang": 4905,
      "Ġshift": 4906,
      "NCT": 4907,
      "Ġinhe": 4908,
      "right": 4909,
      "Ġnow": 4910,
      "ĠBDNF": 4911,
      "itable": 4912,
      "Ġcho": 4913,
      "ĠMET": 4914,
      "Ġcataly": 4915,
      "Ġvariation": 4916,
      "Ġsufficient": 4917,
      "Ġmagnetic": 4918,
      "ogether": 4919,
      "Ġadop": 4920,
      "Ġheat": 4921,
      "ĠRecent": 4922,
      "chitect": 4923,
      "Ġvital": 4924,
      "Ġaccount": 4925,
      "going": 4926,
      "Ġpanel": 4927,
      "Ġwar": 4928,
      "Ġrad": 4929,
      "ĠImportantly": 4930,
      "mortem": 4931,
      "habilit": 4932,
      "HA": 4933,
      "asal": 4934,
      "Ġparen": 4935,
      "illary": 4936,
      "Ġpromoter": 4937,
      "Ġconsum": 4938,
      "Am": 4939,
      "ightly": 4940,
      "Ġdevelopmental": 4941,
      "Ġ~": 4942,
      "IS": 4943,
      "Ġanterior": 4944,
      "ĠCP": 4945,
      "istant": 4946,
      "Ġacquired": 4947,
      "Ġhar": 4948,
      "ĠIGF": 4949,
      "fol": 4950,
      "olin": 4951,
      "pressive": 4952,
      "ĠFollowing": 4953,
      "Ġmetric": 4954,
      "Ġallele": 4955,
      "gest": 4956,
      "quis": 4957,
      "Ġhorm": 4958,
      "Ġligand": 4959,
      "Ġacces": 4960,
      "Ġaberrant": 4961,
      "Ġunderwent": 4962,
      "Ġbinds": 4963,
      "cting": 4964,
      "allel": 4965,
      "akes": 4966,
      "Ġangi": 4967,
      "Ġdecision": 4968,
      "luding": 4969,
      "ĠSer": 4970,
      "Ġpermeability": 4971,
      "chym": 4972,
      "fusion": 4973,
      "Ġsenescence": 4974,
      "Ġdamaged": 4975,
      "Me": 4976,
      "ĠWestern": 4977,
      "ypic": 4978,
      "Ġprognostic": 4979,
      "ĠIC": 4980,
      "invasive": 4981,
      "Ġconventional": 4982,
      "ported": 4983,
      "Ġdevi": 4984,
      "Ġsupports": 4985,
      "Com": 4986,
      "Ġchromatin": 4987,
      "Ġextent": 4988,
      "Ġuseful": 4989,
      "Ġcorrection": 4990,
      "Ġpromise": 4991,
      "SV": 4992,
      "ometry": 4993,
      "Ġbasis": 4994,
      "ocation": 4995,
      "Â®": 4996,
      "Ġfit": 4997,
      "Ġrapidly": 4998,
      "ecutive": 4999,
      "Ġcorrelations": 5000,
      "ĠFuture": 5001,
      "Ġserv": 5002,
      "Ġamount": 5003,
      "Ph": 5004,
      "Ġtechnique": 5005,
      "Ġmutants": 5006,
      "aces": 5007,
      "ĠIndeed": 5008,
      "Ġcortic": 5009,
      "overed": 5010,
      "driven": 5011,
      "Ġbreast": 5012,
      "Ġcolon": 5013,
      "cm": 5014,
      "mat": 5015,
      "anc": 5016,
      "ĠIndi": 5017,
      "Ġmes": 5018,
      "ided": 5019,
      "Ġfibroblasts": 5020,
      "Ġq": 5021,
      "Ġdilu": 5022,
      "Ġseem": 5023,
      "Ġdisturb": 5024,
      "Ġobservation": 5025,
      "ply": 5026,
      "elle": 5027,
      "Ġrecommend": 5028,
      "Ã©": 5029,
      "oint": 5030,
      "tero": 5031,
      "ng": 5032,
      "hal": 5033,
      "Ġmim": 5034,
      "Ġconform": 5035,
      "Ġunknown": 5036,
      "trophic": 5037,
      "ĠSince": 5038,
      "1000": 5039,
      "Ġnear": 5040,
      "Ġsources": 5041,
      "Ġissues": 5042,
      "Ġinnov": 5043,
      "Ġ26": 5044,
      "Ġfeed": 5045,
      "Ġpolar": 5046,
      "Ġoffers": 5047,
      "ĠSclerosis": 5048,
      "Ġviability": 5049,
      "Ġsubstrate": 5050,
      "MAP": 5051,
      "such": 5052,
      "Ġbacterial": 5053,
      "ĠFlu": 5054,
      "Ġscaffold": 5055,
      "Ġalpha": 5056,
      "Our": 5057,
      "Ġpiv": 5058,
      "Ġplates": 5059,
      "Ġknockout": 5060,
      "articip": 5061,
      "ĠMit": 5062,
      "Ã¼r": 5063,
      "Ġsusceptibility": 5064,
      "cript": 5065,
      "Ġfibers": 5066,
      "nt": 5067,
      "tives": 5068,
      "Ġmicroenvironment": 5069,
      "Ġdro": 5070,
      "Ġprospec": 5071,
      "Ġvacc": 5072,
      "Ġappears": 5073,
      "Ġow": 5074,
      "Ġcoe": 5075,
      "106": 5076,
      "oxy": 5077,
      "ĠAmyotrophic": 5078,
      "Ġliving": 5079,
      "hicle": 5080,
      "section": 5081,
      "Ġbasal": 5082,
      "monary": 5083,
      "lor": 5084,
      "Ġgreat": 5085,
      "iP": 5086,
      "hip": 5087,
      "ogene": 5088,
      "theless": 5089,
      "dle": 5090,
      "Ġmeans": 5091,
      "Ġarticles": 5092,
      "Ġ2013": 5093,
      "habilitation": 5094,
      "ĠIS": 5095,
      "Rs": 5096,
      "Ġprolonged": 5097,
      "Ġbu": 5098,
      "Ġpass": 5099,
      "Ġpathophysiology": 5100,
      "Ġcomparing": 5101,
      "cers": 5102,
      "bil": 5103,
      "Ġtract": 5104,
      "linked": 5105,
      "Ġvariations": 5106,
      "Ġrun": 5107,
      "Ġsupplemented": 5108,
      "Ġcomput": 5109,
      "Ġsimultaneous": 5110,
      "odes": 5111,
      "ĠSecond": 5112,
      "ĠAccording": 5113,
      "Ġremaining": 5114,
      "Ġpivotal": 5115,
      "DM": 5116,
      "Ġ23": 5117,
      "Ġremodeling": 5118,
      "ĠLPS": 5119,
      "coh": 5120,
      "\",": 5121,
      "Ġevolution": 5122,
      "Ġmicroscope": 5123,
      "Ġantic": 5124,
      "ings": 5125,
      "ethods": 5126,
      "ernat": 5127,
      "version": 5128,
      "Ġincubation": 5129,
      "Ġautoimmune": 5130,
      "Ġextre": 5131,
      "Î¼M": 5132,
      "abilities": 5133,
      "effec": 5134,
      "Ġcarg": 5135,
      "Ġchallenging": 5136,
      "pending": 5137,
      "cephal": 5138,
      "Ġtraffic": 5139,
      "Ġstandardized": 5140,
      "Ġelectroph": 5141,
      "Ġmental": 5142,
      "Ġexternal": 5143,
      "Ġinformed": 5144,
      "Ġgli": 5145,
      "opo": 5146,
      "Ġcaspase": 5147,
      "Ġspread": 5148,
      "Ġrelationships": 5149,
      "Ġneurotransmit": 5150,
      "ĠCas": 5151,
      "ĠIFN": 5152,
      "Ġ35": 5153,
      "etry": 5154,
      "Ġminimal": 5155,
      "Ġcandidate": 5156,
      "Ġsymptomatic": 5157,
      "key": 5158,
      "opathies": 5159,
      "Ġindirect": 5160,
      "Ġinstr": 5161,
      "Ġgel": 5162,
      "Ġarchitect": 5163,
      "Ġcausal": 5164,
      "erox": 5165,
      "Ġmature": 5166,
      "Ġprepar": 5167,
      "ĠBl": 5168,
      "Ġdur": 5169,
      "Ġ45": 5170,
      "avage": 5171,
      "Ġaccurate": 5172,
      "onical": 5173,
      "cul": 5174,
      "Ġconserved": 5175,
      "Ġdependent": 5176,
      "Ġ72": 5177,
      "ĠGene": 5178,
      "âĢĭ": 5179,
      "Ġimprovements": 5180,
      "Ġcontact": 5181,
      "rafish": 5182,
      "Ġmicrotub": 5183,
      "OH": 5184,
      "ĠTwo": 5185,
      "Ġgenotype": 5186,
      "ĠUnder": 5187,
      "Ġtransferred": 5188,
      "ĠML": 5189,
      "ervical": 5190,
      "Ġtowards": 5191,
      "ĠEr": 5192,
      "Is": 5193,
      "EGF": 5194,
      "Ġlanguage": 5195,
      "ĠDuring": 5196,
      "umented": 5197,
      "ophila": 5198,
      "vised": 5199,
      "EA": 5200,
      "ĠSG": 5201,
      "ameter": 5202,
      "Ġdistinguish": 5203,
      "Ġretinal": 5204,
      "Ġinvestigations": 5205,
      "Ġstratif": 5206,
      "Ġdeposition": 5207,
      "Ġreactions": 5208,
      "ebrafish": 5209,
      "Ġmicrobial": 5210,
      "ĠGAB": 5211,
      "Ġide": 5212,
      "yste": 5213,
      "Ġenrol": 5214,
      "Ġsitu": 5215,
      "Ġpenet": 5216,
      "oll": 5217,
      "urrently": 5218,
      "Ġconsistently": 5219,
      "ĠTre": 5220,
      "Ġreads": 5221,
      "Ġdimin": 5222,
      "emia": 5223,
      "Ġitem": 5224,
      "fl": 5225,
      "usinersen": 5226,
      "atom": 5227,
      "acet": 5228,
      "CN": 5229,
      "Ġpregn": 5230,
      "atistical": 5231,
      "Ġkidney": 5232,
      "omers": 5233,
      "Ġdiversity": 5234,
      "Ġold": 5235,
      "Ġwhat": 5236,
      "ĠCB": 5237,
      "Ġexplain": 5238,
      "itor": 5239,
      "Ġoffering": 5240,
      "Ġcoordin": 5241,
      "ious": 5242,
      "Ġinsu": 5243,
      "Ġinfluenced": 5244,
      "Ġeye": 5245,
      "Ġinstruc": 5246,
      "Ġ]": 5247,
      "SK": 5248,
      "Ġactivates": 5249,
      "rosophila": 5250,
      "Ġlit": 5251,
      "Ġrandomized": 5252,
      "Ġbei": 5253,
      "Figures": 5254,
      "Ġbacteria": 5255,
      "Ġimbal": 5256,
      "arrow": 5257,
      "ĠGermany": 5258,
      "Aldrich": 5259,
      "rospective": 5260,
      "ĠSAR": 5261,
      "ylated": 5262,
      "Ġdiscussed": 5263,
      "Ġbeta": 5264,
      "ĠHospital": 5265,
      "quisition": 5266,
      "Hz": 5267,
      "tail": 5268,
      "Ġobes": 5269,
      "Ġcircu": 5270,
      "Ġsizes": 5271,
      "Ġpossibility": 5272,
      "Ġdownregulation": 5273,
      "Ġallowed": 5274,
      "Ġdil": 5275,
      "Ġsuperior": 5276,
      "ĠIf": 5277,
      "Ġarticle": 5278,
      "most": 5279,
      "ĠLateral": 5280,
      "Ġlaboratory": 5281,
      "Ġelectron": 5282,
      "Ġprogen": 5283,
      "Ġregulator": 5284,
      "oprotein": 5285,
      "ĠInc": 5286,
      "ĠNMD": 5287,
      "Ġcolum": 5288,
      "Ġcountries": 5289,
      "Ġindependently": 5290,
      "Ġsmaller": 5291,
      "flu": 5292,
      "Ġsteps": 5293,
      "293": 5294,
      "ĠConversely": 5295,
      "atigue": 5296,
      "Ġvitamin": 5297,
      "ĠNO": 5298,
      "Ġlipids": 5299,
      "Le": 5300,
      "Ġrod": 5301,
      "Ġreleased": 5302,
      "Ġdepending": 5303,
      "Ġconjug": 5304,
      "Ġdistance": 5305,
      "ĠsiRNA": 5306,
      "Ġauf": 5307,
      "ĠRep": 5308,
      "Ġepilepsy": 5309,
      "IM": 5310,
      "mittee": 5311,
      "tle": 5312,
      "ĠConsequently": 5313,
      "lip": 5314,
      "bbit": 5315,
      "Ġpreser": 5316,
      "Ġintrins": 5317,
      "pep": 5318,
      "oplasmic": 5319,
      "Ġassign": 5320,
      "ĠDis": 5321,
      "Ġfile": 5322,
      "Ġbroader": 5323,
      "Ġ500": 5324,
      "certain": 5325,
      "FT": 5326,
      "ien": 5327,
      "Ġranging": 5328,
      "ued": 5329,
      "ĠQuanti": 5330,
      "ĠTAR": 5331,
      "Ġradical": 5332,
      "apses": 5333,
      "ĠSome": 5334,
      "Ġfluorescent": 5335,
      "evertheless": 5336,
      "Ġhypothe": 5337,
      "ĠPET": 5338,
      "Ġtransplantation": 5339,
      "Ġblocking": 5340,
      "Ġepithelial": 5341,
      "Ġcommunity": 5342,
      "Ġsustained": 5343,
      "Ġexamine": 5344,
      "Ġoverlap": 5345,
      "PubMed": 5346,
      "Ġdriven": 5347,
      "aut": 5348,
      "PC": 5349,
      "land": 5350,
      "Ġlas": 5351,
      "RA": 5352,
      "compass": 5353,
      "Ġenables": 5354,
      "ĠVer": 5355,
      "ked": 5356,
      "Ġimpairments": 5357,
      "Ġencompass": 5358,
      "Ġlesion": 5359,
      "Ġcompens": 5360,
      "Ġhold": 5361,
      "zen": 5362,
      "otoxic": 5363,
      "pat": 5364,
      "Ġattributed": 5365,
      "ĠNon": 5366,
      "asion": 5367,
      "Ġdeb": 5368,
      "ĠmRNAs": 5369,
      "Ġsom": 5370,
      "Ġmove": 5371,
      "Ġbiop": 5372,
      "Ġparticles": 5373,
      "EB": 5374,
      "Ġongoing": 5375,
      "ĠIgG": 5376,
      "che": 5377,
      "Ġsubunit": 5378,
      "ĠOverall": 5379,
      "Ġhybrid": 5380,
      "Ġinitially": 5381,
      "ĠFunctional": 5382,
      "umab": 5383,
      "Ġcapable": 5384,
      "icine": 5385,
      "igure": 5386,
      "Ġmixt": 5387,
      "Ġreason": 5388,
      "Ġextr": 5389,
      "wor": 5390,
      "Ġultras": 5391,
      "ĠKit": 5392,
      "Ġloop": 5393,
      "ocardi": 5394,
      "ĠMT": 5395,
      "ai": 5396,
      "Ġeas": 5397,
      "Ġagon": 5398,
      "Ġquestions": 5399,
      "lig": 5400,
      "anol": 5401,
      "Ġthird": 5402,
      "Ġextended": 5403,
      "ĠNrf": 5404,
      "Ġdisability": 5405,
      "pm": 5406,
      "ĠHC": 5407,
      "Ġnam": 5408,
      "Ġfr": 5409,
      "Ġusually": 5410,
      "Ġpal": 5411,
      "Ġtreat": 5412,
      "Ġsupernat": 5413,
      "Ġinhibited": 5414,
      "Ġtranslational": 5415,
      "Ġmalign": 5416,
      "Ġworld": 5417,
      "Ġfind": 5418,
      "apan": 5419,
      "valent": 5420,
      "ĠSeveral": 5421,
      "Ġcargo": 5422,
      "vity": 5423,
      "Ġmodeling": 5424,
      "Ġtrend": 5425,
      "Ġthickness": 5426,
      "riefly": 5427,
      "ache": 5428,
      "osts": 5429,
      "Ġdistal": 5430,
      "Ġpron": 5431,
      "Ġsession": 5432,
      "Ġaccompanied": 5433,
      "Rec": 5434,
      "Ġextend": 5435,
      "Ġinducing": 5436,
      "alian": 5437,
      "Ġsuppression": 5438,
      "ometric": 5439,
      "itions": 5440,
      "Ġleuk": 5441,
      "Ġplaques": 5442,
      "ĠCan": 5443,
      "orption": 5444,
      "Ġintake": 5445,
      "Ġstained": 5446,
      "Ġfollows": 5447,
      "âĦ": 5448,
      "mn": 5449,
      "ĠHz": 5450,
      "Ġpresentation": 5451,
      "Ġimplications": 5452,
      "rospinal": 5453,
      "Ġbiochemical": 5454,
      "Ġcervical": 5455,
      "Ġsulf": 5456,
      "ĠUK": 5457,
      "Ġassessing": 5458,
      "osen": 5459,
      "Ġmeet": 5460,
      "Ġautom": 5461,
      "Ġgradi": 5462,
      "Ġbran": 5463,
      "Ġacquisition": 5464,
      "ĠDrosophila": 5465,
      "ĠInter": 5466,
      "Ġrecording": 5467,
      "Ġexist": 5468,
      "ĠDEGs": 5469,
      "gramm": 5470,
      "pir": 5471,
      "Ġpromin": 5472,
      "Ġbiology": 5473,
      "Ġonto": 5474,
      "Ġparallel": 5475,
      "Ġplant": 5476,
      "Ġaccoun": 5477,
      "Ġ27": 5478,
      "state": 5479,
      "Ġpsychiatric": 5480,
      "ĠCor": 5481,
      "+/": 5482,
      "IA": 5483,
      "char": 5484,
      "Ġhydroph": 5485,
      "Ġcomorb": 5486,
      "Ġprev": 5487,
      "Ġprofession": 5488,
      "Ġutility": 5489,
      "Ġzebrafish": 5490,
      "porting": 5491,
      "ches": 5492,
      "SY": 5493,
      "no": 5494,
      "ĠAg": 5495,
      "Ġstored": 5496,
      "Ġphosphorylated": 5497,
      "Ġpositively": 5498,
      "Ġzu": 5499,
      "Bs": 5500,
      "Ġpip": 5501,
      "portun": 5502,
      "GR": 5503,
      "ediatric": 5504,
      "Ġ2012": 5505,
      "Ġalb": 5506,
      "yelination": 5507,
      "Ġinjected": 5508,
      "tagon": 5509,
      "Ġassum": 5510,
      "occ": 5511,
      "plan": 5512,
      "Ġdopamine": 5513,
      "Ġincreasingly": 5514,
      "Ġpresents": 5515,
      "Ġmil": 5516,
      "Ġcompare": 5517,
      "Ġtransfected": 5518,
      "uron": 5519,
      "Ġtraject": 5520,
      "osine": 5521,
      "ĠBased": 5522,
      "ĠmtDNA": 5523,
      "Ġkit": 5524,
      "Ġ75": 5525,
      "Ġsuccessfully": 5526,
      "Ġpathologies": 5527,
      "Ġdominant": 5528,
      "Ġdisrupt": 5529,
      "Ġpunct": 5530,
      "ĠSuch": 5531,
      "Ġcurve": 5532,
      "ĠmTOR": 5533,
      "Ġdietary": 5534,
      "ĠMG": 5535,
      "ĠMost": 5536,
      "Ġlocalized": 5537,
      "Ġriluzole": 5538,
      "ĠSur": 5539,
      "))": 5540,
      "Ġfamilies": 5541,
      "son": 5542,
      "ĠOr": 5543,
      "Ġpartially": 5544,
      "ano": 5545,
      "aten": 5546,
      "days": 5547,
      "Ġfeas": 5548,
      "Ġexhibits": 5549,
      "ounced": 5550,
      "ret": 5551,
      "ĠCC": 5552,
      "ociation": 5553,
      "Ġcontains": 5554,
      "Ġdiluted": 5555,
      "Ġphysic": 5556,
      "Ġterminal": 5557,
      "Ġchaper": 5558,
      "ĠÎ¼m": 5559,
      "Ġconnectivity": 5560,
      "activity": 5561,
      "Ġeti": 5562,
      "sych": 5563,
      "coding": 5564,
      "Ġrisks": 5565,
      "Neuro": 5566,
      "Ġgrowing": 5567,
      "resp": 5568,
      "Ġmetal": 5569,
      "Ġisoforms": 5570,
      "Ġreplicates": 5571,
      "ĠEuropean": 5572,
      "bp": 5573,
      "Ġderiv": 5574,
      "Ġorgans": 5575,
      "Ġreliable": 5576,
      "rose": 5577,
      "Ġrig": 5578,
      "gt": 5579,
      "Ġopportun": 5580,
      "Ġrout": 5581,
      "Ġorth": 5582,
      "pressed": 5583,
      "ĠiPSCs": 5584,
      "Ġadvances": 5585,
      "eroxide": 5586,
      "onomic": 5587,
      "HR": 5588,
      "Ġinflammasome": 5589,
      "Ac": 5590,
      "Ġmuc": 5591,
      "Ġvess": 5592,
      "Ġsubject": 5593,
      "Ġfacilitates": 5594,
      "sess": 5595,
      "plete": 5596,
      "Ġresus": 5597,
      "oluble": 5598,
      "including": 5599,
      "Ġdone": 5600,
      "Ġencoding": 5601,
      "Ġlact": 5602,
      "Ġdemonstrates": 5603,
      "ott": 5604,
      "Ġantagon": 5605,
      "BR": 5606,
      "Ġconfidence": 5607,
      "ories": 5608,
      "ĠDec": 5609,
      "upplemental": 5610,
      "vitrogen": 5611,
      "rocyte": 5612,
      "Ġstimuli": 5613,
      "unc": 5614,
      "ĠSA": 5615,
      "Ġmitigate": 5616,
      "imensional": 5617,
      "Ġmeaning": 5618,
      "Ġeducation": 5619,
      "Ġadhesion": 5620,
      "Ġprojec": 5621,
      "Ġdevice": 5622,
      "ofluorescence": 5623,
      "ĠCL": 5624,
      "tial": 5625,
      "arri": 5626,
      "Ġsampl": 5627,
      "ĠNevertheless": 5628,
      "Ġvehicle": 5629,
      "ery": 5630,
      "Ġonce": 5631,
      "Ġ2025": 5632,
      "hyde": 5633,
      "truct": 5634,
      "Ġnegatively": 5635,
      "Ġgrad": 5636,
      "Ġglyco": 5637,
      "Ġreporting": 5638,
      "Ġhis": 5639,
      "dehyde": 5640,
      "activation": 5641,
      "Ġcategories": 5642,
      "hr": 5643,
      "icht": 5644,
      "Ġclar": 5645,
      "inn": 5646,
      "Ġpara": 5647,
      "ultiple": 5648,
      "Ġexact": 5649,
      "Ġextraction": 5650,
      "Ġhistone": 5651,
      "Ġminutes": 5652,
      "avone": 5653,
      "Ġstrains": 5654,
      "nRNP": 5655,
      "Bio": 5656,
      "Cell": 5657,
      "Ġsignalling": 5658,
      "Ġunderstood": 5659,
      "There": 5660,
      "Ġproduct": 5661,
      "Ġtrafficking": 5662,
      "ĠBec": 5663,
      "espread": 5664,
      "Ġrevers": 5665,
      "Ġconclusion": 5666,
      "Ġmisfolded": 5667,
      "ĠMet": 5668,
      "Ġdrople": 5669,
      "mia": 5670,
      "ĠPer": 5671,
      "ĠJapan": 5672,
      "Ġprotection": 5673,
      "articipants": 5674,
      "Ġpronounced": 5675,
      "Ġten": 5676,
      "Ġneuropathy": 5677,
      "Ġonc": 5678,
      "Ġphenomen": 5679,
      "Gen": 5680,
      "Ġ)": 5681,
      "eral": 5682,
      "Ġinfiltration": 5683,
      "Ġdendritic": 5684,
      "Ġatax": 5685,
      "Ġcarcin": 5686,
      "Ġcheck": 5687,
      "indow": 5688,
      "Ġventilation": 5689,
      "Although": 5690,
      "Ġcompleted": 5691,
      "Ġtriggers": 5692,
      "espan": 5693,
      "ighted": 5694,
      "tension": 5695,
      "Ġpackage": 5696,
      "Ġsynerg": 5697,
      "tility": 5698,
      "stage": 5699,
      "rimary": 5700,
      "06": 5701,
      "biotics": 5702,
      "Ġinvolve": 5703,
      "Ġexer": 5704,
      "parent": 5705,
      "Ġsubjected": 5706,
      "Ġcounts": 5707,
      "Ġefforts": 5708,
      "CF": 5709,
      "ĠAmer": 5710,
      "ĠMSC": 5711,
      "cumin": 5712,
      "ĠPM": 5713,
      "XN": 5714,
      "Ġrecombin": 5715,
      "ĠGO": 5716,
      "molec": 5717,
      "change": 5718,
      "Ġemotional": 5719,
      "ĠAB": 5720,
      "Ġprocessed": 5721,
      "Ġ2011": 5722,
      "Ġdiffer": 5723,
      "ĠTRP": 5724,
      "ĠHEK": 5725,
      "try": 5726,
      "Ġprevention": 5727,
      "IRT": 5728,
      "ĠLD": 5729,
      "venous": 5730,
      "aly": 5731,
      "ĠMND": 5732,
      "RD": 5733,
      "Ġbond": 5734,
      "ĠNational": 5735,
      "Ġfibrosis": 5736,
      "Ġmillion": 5737,
      "Ġeiner": 5738,
      "Ġtypical": 5739,
      "Ġsupplementation": 5740,
      "pected": 5741,
      "Ġbehaviour": 5742,
      "ĠÎ¼g": 5743,
      "Ġavailability": 5744,
      "Ġadaptive": 5745,
      "through": 5746,
      "Ġnotable": 5747,
      "otides": 5748,
      "Ġ150": 5749,
      "Ġcarrying": 5750,
      "Ġbiogenesis": 5751,
      "Ġartif": 5752,
      "Î¼g": 5753,
      "Ġfar": 5754,
      "ordance": 5755,
      "ĠStudy": 5756,
      "Ġdocumented": 5757,
      "Ġwidespread": 5758,
      "INK": 5759,
      "Ġrenal": 5760,
      "Ġalgorithm": 5761,
      "Ġsar": 5762,
      "Ġorganization": 5763,
      "Ġperson": 5764,
      "Ġtube": 5765,
      "Ġpersonalized": 5766,
      "elior": 5767,
      "Ġgait": 5768,
      "Ġdivided": 5769,
      "ranial": 5770,
      "Ġprin": 5771,
      "Ġinfluencing": 5772,
      "ĠCri": 5773,
      "lect": 5774,
      "Ġpor": 5775,
      "Ġperce": 5776,
      "AÎ²": 5777,
      "Ġsero": 5778,
      "Ġcontribution": 5779,
      "NI": 5780,
      "Ġgap": 5781,
      "ats": 5782,
      "ĠRES": 5783,
      "hyth": 5784,
      "Ġ;": 5785,
      "Ġfatigue": 5786,
      "Ġdrive": 5787,
      "Ġheterogeneous": 5788,
      "tile": 5789,
      "rad": 5790,
      "Ġisolation": 5791,
      "Da": 5792,
      "ime": 5793,
      "ensus": 5794,
      "Ġmetrics": 5795,
      "Ġneutroph": 5796,
      "adj": 5797,
      "Ġ32": 5798,
      "ocking": 5799,
      "Ġapproval": 5800,
      "Ġgangl": 5801,
      "aravone": 5802,
      "Ġillness": 5803,
      "ĠRP": 5804,
      "Ġinnate": 5805,
      "Ġdevices": 5806,
      "Ġrequ": 5807,
      "Ġdors": 5808,
      "activated": 5809,
      "Ġ36": 5810,
      "Ġtherapeutics": 5811,
      "ĠHIV": 5812,
      "Ġsensor": 5813,
      "ĠSam": 5814,
      "Ġreceiving": 5815,
      ",\"": 5816,
      "Ġintroduc": 5817,
      "Ġ43": 5818,
      "Ġcomm": 5819,
      "Ġteam": 5820,
      "ysteine": 5821,
      "Ġlifespan": 5822,
      "Ġhydrogen": 5823,
      "Ġswal": 5824,
      "cor": 5825,
      "Ġpotent": 5826,
      "HP": 5827,
      "acting": 5828,
      "tid": 5829,
      "Ġland": 5830,
      "eli": 5831,
      "Ġreplication": 5832,
      "urine": 5833,
      "Ġexperienced": 5834,
      "resent": 5835,
      "Ġvectors": 5836,
      "amental": 5837,
      "ĠEm": 5838,
      "Ġinfluences": 5839,
      "Ã³": 5840,
      "Ġcleavage": 5841,
      "Ġspeed": 5842,
      "Ġerror": 5843,
      "ĠTheir": 5844,
      "Ġ29": 5845,
      "Ġserves": 5846,
      "ĠInstitute": 5847,
      "Ġsurround": 5848,
      "Ġintermediate": 5849,
      "Ġchemo": 5850,
      "respond": 5851,
      "Ġfore": 5852,
      "TC": 5853,
      "Ġdecl": 5854,
      "phosphory": 5855,
      "Ġla": 5856,
      "ĠLLPS": 5857,
      "Ġglut": 5858,
      "Ġremoval": 5859,
      "Ġevaluating": 5860,
      "Ġ2010": 5861,
      "fe": 5862,
      "morph": 5863,
      "Ġretro": 5864,
      "ĠID": 5865,
      "Ġhypoxia": 5866,
      "EX": 5867,
      "VC": 5868,
      "ĠPG": 5869,
      "Ġamelior": 5870,
      "Ġplasmid": 5871,
      "Ġcomposed": 5872,
      "Ġparad": 5873,
      "filament": 5874,
      "Ġoligodendrocytes": 5875,
      "rogl": 5876,
      "arged": 5877,
      "Ġregulators": 5878,
      "Ġpast": 5879,
      "NK": 5880,
      "plate": 5881,
      "Ġfer": 5882,
      "Ġlacking": 5883,
      "OL": 5884,
      "Tau": 5885,
      "etric": 5886,
      "Ġoccurred": 5887,
      "III": 5888,
      "Ġrehabilitation": 5889,
      "Ġintroduced": 5890,
      "ĠTLR": 5891,
      "Ġlnc": 5892,
      "âĦ¢": 5893,
      "Ġfrequent": 5894,
      "ĠSubsequently": 5895,
      "Ġlumbar": 5896,
      "MB": 5897,
      "ĠImage": 5898,
      "Ġmode": 5899,
      "Ġcascade": 5900,
      "isp": 5901,
      "Ġdecreases": 5902,
      "Ġoxidation": 5903,
      "Ġlysosomes": 5904,
      "Ġnorm": 5905,
      "Ġpersistent": 5906,
      "Ġsolid": 5907,
      "ĠProte": 5908,
      "ĠBrain": 5909,
      "Ġprecursor": 5910,
      "Ġfold": 5911,
      "Ġobtain": 5912,
      "ĠIP": 5913,
      "Ġmaterials": 5914,
      "Ġ31": 5915,
      "rand": 5916,
      "treatment": 5917,
      "Ġreferred": 5918,
      "atch": 5919,
      "Ġ96": 5920,
      "Ġgraph": 5921,
      "Ġsee": 5922,
      "Ġdiscovered": 5923,
      "ĠMin": 5924,
      "Ġadvantages": 5925,
      "Ġpancre": 5926,
      "Ġmorphological": 5927,
      "Ġhomo": 5928,
      "atum": 5929,
      "Ġconsidering": 5930,
      "embrane": 5931,
      "Ġacts": 5932,
      "Ġsynapses": 5933,
      "rometry": 5934,
      "icate": 5935,
      "Ġseparate": 5936,
      "Ġfundamental": 5937,
      "ĠTB": 5938,
      "cipl": 5939,
      "Ġcerebrospinal": 5940,
      "methyl": 5941,
      "Ap": 5942,
      "chol": 5943,
      "Ġmachine": 5944,
      "phag": 5945,
      "Ġdiffusion": 5946,
      "Ġwhose": 5947,
      "Ġimproves": 5948,
      "Ġfavor": 5949,
      "ĠFA": 5950,
      "Ġcollab": 5951,
      "Ġinterpretation": 5952,
      "Be": 5953,
      "ĠHP": 5954,
      "Ġleg": 5955,
      "ĠTGF": 5956,
      "Ġreliability": 5957,
      "ĠNAD": 5958,
      "Ġgas": 5959,
      "Ġpulmonary": 5960,
      "plex": 5961,
      "Ġabundant": 5962,
      "Ġmediators": 5963,
      "Ġconsequences": 5964,
      "Ġquestionna": 5965,
      "pended": 5966,
      "Ġdiscrim": 5967,
      "CK": 5968,
      "Ġreviewed": 5969,
      "ocom": 5970,
      "ĠRating": 5971,
      "Ġqual": 5972,
      "Ġclustering": 5973,
      "appro": 5974,
      "Ġagree": 5975,
      "Ġfeedback": 5976,
      "ĠDL": 5977,
      "Ġmedications": 5978,
      "Ġsoluble": 5979,
      "Ġmixture": 5980,
      "elles": 5981,
      "Ġ65": 5982,
      "Ġelimin": 5983,
      "Ġgender": 5984,
      "AGE": 5985,
      "Ġimplementation": 5986,
      "Ġpossibly": 5987,
      "Ġforce": 5988,
      "ula": 5989,
      "imaging": 5990,
      "ĠDep": 5991,
      "âĪĹâĪĹ": 5992,
      "Ġdigital": 5993,
      "ULT": 5994,
      "otin": 5995,
      "Ġmedication": 5996,
      "Ġvalidate": 5997,
      "HT": 5998,
      "Ġanesthe": 5999,
      "avail": 6000,
      "ÃŁ": 6001,
      "MRI": 6002,
      "dimensional": 6003,
      "ĠfÃ¼r": 6004,
      "Ġpurified": 6005,
      "ricular": 6006,
      "Ġconcerns": 6007,
      "otypes": 6008,
      "ĠÎĶ": 6009,
      "mitted": 6010,
      "Ġagent": 6011,
      "ĠGABA": 6012,
      "Ġobesity": 6013,
      "gent": 6014,
      "hing": 6015,
      "Ġoligonucle": 6016,
      "wh": 6017,
      "termin": 6018,
      "ĠCX": 6019,
      "Ġoutput": 6020,
      "Ġsets": 6021,
      "ĠPrevious": 6022,
      "Ġloading": 6023,
      "genesis": 6024,
      "HOD": 6025,
      "Ġthrom": 6026,
      "Ġguide": 6027,
      "Ġdonor": 6028,
      "vFTD": 6029,
      "Ġbir": 6030,
      "ĠHR": 6031,
      "Ġhepat": 6032,
      "Ġensuring": 6033,
      "ulum": 6034,
      "ĠPL": 6035,
      "acement": 6036,
      "Ġcorrect": 6037,
      "Ġembryonic": 6038,
      "Ġcerebellar": 6039,
      "Ġproteomic": 6040,
      "Ġexpanded": 6041,
      "Ġnucleic": 6042,
      "It": 6043,
      "Ġperoxidation": 6044,
      "Ġsuitable": 6045,
      "Ġtranscriptomic": 6046,
      "Ġdifferentiated": 6047,
      "Pre": 6048,
      "ĠSigma": 6049,
      "tention": 6050,
      "Ġtasks": 6051,
      "Ġinstructions": 6052,
      "sibility": 6053,
      "08": 6054,
      "Ġlocation": 6055,
      "targeted": 6056,
      "alse": 6057,
      "onia": 6058,
      "Ġsynthetic": 6059,
      "ĠGu": 6060,
      "ĠRIP": 6061,
      "Ġcolumn": 6062,
      "osa": 6063,
      "agent": 6064,
      "Ġ(âĪĴ": 6065,
      "weeks": 6066,
      "Ġtransient": 6067,
      "ĠAnimal": 6068,
      "Ġanalog": 6069,
      "aldehyde": 6070,
      "ĠUnited": 6071,
      "ĠOut": 6072,
      "ymmet": 6073,
      "ĠAnti": 6074,
      "AAV": 6075,
      "Ġcentrifuged": 6076,
      "odal": 6077,
      "At": 6078,
      "Ġunit": 6079,
      "Ġestimates": 6080,
      "Ġapoptotic": 6081,
      "Ġlimitation": 6082,
      "Ġrecommended": 6083,
      "Ġsurvey": 6084,
      "âĪ¼": 6085,
      "ION": 6086,
      "Ġprevalent": 6087,
      "gence": 6088,
      "Ġpartial": 6089,
      "Ġvarying": 6090,
      "Ġmicrobiome": 6091,
      "Ġdelayed": 6092,
      "ĠDifferen": 6093,
      "Ġseven": 6094,
      "Ġvolum": 6095,
      "aster": 6096,
      "Ġphenotypic": 6097,
      "ĠEEG": 6098,
      "ucleotide": 6099,
      "Ġligands": 6100,
      "ĠSU": 6101,
      "Ġaims": 6102,
      "Ġcalled": 6103,
      "ĠSyn": 6104,
      "Ġsuperoxide": 6105,
      "ĠGM": 6106,
      "osin": 6107,
      "ĠThen": 6108,
      "Ġneurotrophic": 6109,
      "Ġcognition": 6110,
      "seud": 6111,
      "Ġblue": 6112,
      "Ġarchitecture": 6113,
      "Ġclose": 6114,
      "ĠMean": 6115,
      "ĠRed": 6116,
      "Ġcandid": 6117,
      "Ġextrem": 6118,
      "lication": 6119,
      "Ġng": 6120,
      "ĠFe": 6121,
      "Ġcreate": 6122,
      "Ġdetails": 6123,
      "VD": 6124,
      "Ġloci": 6125,
      "ĠRESULT": 6126,
      "ĠFDA": 6127,
      "Ġsynthesized": 6128,
      "RG": 6129,
      "Ġforming": 6130,
      "Ġpsychological": 6131,
      "ĠAnalysis": 6132,
      "Ġadjust": 6133,
      "ramm": 6134,
      "ĠMy": 6135,
      "ĠÏ": 6136,
      "versible": 6137,
      "}$$\\": 6138,
      "Ġwors": 6139,
      "Ġimpacts": 6140,
      "Ġprobe": 6141,
      "ĠRESULTS": 6142,
      "Ġconfound": 6143,
      "ĠGl": 6144,
      "Ġrepresentative": 6145,
      "Ġprominent": 6146,
      "07": 6147,
      "Ġwindow": 6148,
      "Ġtet": 6149,
      "Ġdiameter": 6150,
      "Ġtechnical": 6151,
      "Ġthought": 6152,
      "Ġgranules": 6153,
      "Ġdiges": 6154,
      "sup": 6155,
      "Ġrepresented": 6156,
      "ĠDM": 6157,
      "vis": 6158,
      "DBP": 6159,
      "Ġinterfer": 6160,
      "Ġmelan": 6161,
      "Ġconsumption": 6162,
      "Further": 6163,
      "Ġvariance": 6164,
      "Ġrecruited": 6165,
      "Ġsubtype": 6166,
      "Ġprospective": 6167,
      "Ġconfocal": 6168,
      "ochondrial": 6169,
      "Ġpossess": 6170,
      "Ġcaregivers": 6171,
      "}_{": 6172,
      "Ġautophagic": 6173,
      "ĠHuman": 6174,
      "Ġanalysed": 6175,
      "ĠNaCl": 6176,
      "orph": 6177,
      "Ġmanifestations": 6178,
      "Ġreflecting": 6179,
      "ĠCat": 6180,
      "Ġneuroinflammatory": 6181,
      "Ġcerebellum": 6182,
      "GO": 6183,
      "Ġimbalance": 6184,
      "Ġice": 6185,
      "Ġintegrating": 6186,
      "gly": 6187,
      "Ġanalyze": 6188,
      "ĠHF": 6189,
      "Ġfragments": 6190,
      "cohol": 6191,
      "patic": 6192,
      "Ġelucid": 6193,
      "Ġretrospective": 6194,
      "Ġactin": 6195,
      "HO": 6196,
      "Ġneurotoxicity": 6197,
      "kines": 6198,
      "Ġreprogramm": 6199,
      "Ġplatforms": 6200,
      "sectional": 6201,
      "ipal": 6202,
      "Ġratios": 6203,
      "While": 6204,
      "Ġmodul": 6205,
      "ĠCON": 6206,
      "Ġmentioned": 6207,
      "Ġdup": 6208,
      "MSCs": 6209,
      "motor": 6210,
      "Ġspont": 6211,
      "Ġupreg": 6212,
      "testinal": 6213,
      "Ġcreated": 6214,
      "uclear": 6215,
      "Ġselectively": 6216,
      "Ġimmunos": 6217,
      "Ġfast": 6218,
      "Ġnor": 6219,
      "Ġions": 6220,
      "Ġsubstit": 6221,
      "pendi": 6222,
      "chymal": 6223,
      "Gl": 6224,
      "Ġ33": 6225,
      "Ġinstit": 6226,
      "Ġmethyl": 6227,
      "ĠSw": 6228,
      "east": 6229,
      "Ġcry": 6230,
      "Ġapp": 6231,
      "ĠÎ¼L": 6232,
      "ĠMCI": 6233,
      "ĠMETHOD": 6234,
      "Ġresources": 6235,
      "NE": 6236,
      "iform": 6237,
      "ĠBriefly": 6238,
      "Ġminimum": 6239,
      "ÃŃ": 6240,
      "uronal": 6241,
      "MSE": 6242,
      "Ġposterior": 6243,
      "atomical": 6244,
      "ĠPAR": 6245,
      "Ġwriting": 6246,
      "Ġflies": 6247,
      "Ġ*": 6248,
      "ĠThermo": 6249,
      "Ġaccept": 6250,
      "Ġhemat": 6251,
      "Ġbilateral": 6252,
      "Ġdriving": 6253,
      "tivation": 6254,
      "Ġinvasive": 6255,
      "erden": 6256,
      "Ġneutral": 6257,
      "Ġcm": 6258,
      "clusions": 6259,
      "Ġoccurrence": 6260,
      "Ġlist": 6261,
      "Ġencephal": 6262,
      "TI": 6263,
      "ĠTris": 6264,
      "Ġexcitatory": 6265,
      "Ġintrinsic": 6266,
      "pendix": 6267,
      "ĠNA": 6268,
      "Ġnerves": 6269,
      "del": 6270,
      "Ġspontaneous": 6271,
      "turb": 6272,
      "Ġsuper": 6273,
      "Ġcenter": 6274,
      "ĠSGs": 6275,
      "Ġpaper": 6276,
      "Ġproinflammatory": 6277,
      "Ġuncertain": 6278,
      "Ġmonth": 6279,
      "ool": 6280,
      "iton": 6281,
      "onance": 6282,
      "Ġdistributed": 6283,
      "idine": 6284,
      "Ġscientific": 6285,
      "Ġsafe": 6286,
      "Ġist": 6287,
      "Ġnusinersen": 6288,
      "MSO": 6289,
      "Ġrestore": 6290,
      "ĠcDNA": 6291,
      "Ġmiddle": 6292,
      "Ġcombining": 6293,
      "Ġconstrain": 6294,
      "idase": 6295,
      "athione": 6296,
      "flow": 6297,
      "ĠDS": 6298,
      ".)": 6299,
      "iently": 6300,
      "Ġcancers": 6301,
      "Ġgradient": 6302,
      "iosis": 6303,
      "ĠMO": 6304,
      "itary": 6305,
      "Ġcomputational": 6306,
      "ĠRBP": 6307,
      "igu": 6308,
      "Ġexert": 6309,
      "ĠMo": 6310,
      "Ġfung": 6311,
      "Ġsubstrates": 6312,
      "Ġeight": 6313,
      "sities": 6314,
      "intestinal": 6315,
      "Ġ300": 6316,
      "Ġdisrupted": 6317,
      "Ġprofiling": 6318,
      "Ġchromosome": 6319,
      "Ġfiber": 6320,
      "ij": 6321,
      "Ġenzymatic": 6322,
      "Ġestimate": 6323,
      "Ġoptions": 6324,
      "Ġelucidate": 6325,
      "ĠNPs": 6326,
      "ificant": 6327,
      "neuro": 6328,
      "Stud": 6329,
      "sur": 6330,
      "urally": 6331,
      "Ġharm": 6332,
      "Ġamplitude": 6333,
      "Ġitself": 6334,
      "Ġdiscre": 6335,
      "Ġregular": 6336,
      "Ġcorrespond": 6337,
      "Ġcardiomy": 6338,
      "aceu": 6339,
      "ways": 6340,
      "infor": 6341,
      "ĠASOs": 6342,
      "ets": 6343,
      "miR": 6344,
      "idemi": 6345,
      "Ġmarkedly": 6346,
      "hydrox": 6347,
      "med": 6348,
      "hiz": 6349,
      "Ġprotect": 6350,
      "Ġdysregulated": 6351,
      "Ġcorrelate": 6352,
      "Ġinterview": 6353,
      "Ġcopy": 6354,
      "inetics": 6355,
      "Ġcosts": 6356,
      "defic": 6357,
      "Ġcomorbid": 6358,
      "ĠOS": 6359,
      "Ġsignatures": 6360,
      "ĠTreg": 6361,
      "ĠSE": 6362,
      "La": 6363,
      "CG": 6364,
      "Ġmultiv": 6365,
      "yes": 6366,
      "RID": 6367,
      "Ġwur": 6368,
      "Ġextension": 6369,
      "orage": 6370,
      "Ġsupernatant": 6371,
      "Ġslightly": 6372,
      "gency": 6373,
      "Ġsimultaneously": 6374,
      "ĠStatistical": 6375,
      "ipot": 6376,
      "ĠCenter": 6377,
      "amer": 6378,
      "oglo": 6379,
      "Ġmot": 6380,
      "Ġunits": 6381,
      "Un": 6382,
      "ped": 6383,
      "Ġwa": 6384,
      "acent": 6385,
      "air": 6386,
      "yle": 6387,
      "ĠCompared": 6388,
      "gel": 6389,
      "Ġfibrils": 6390,
      "Ġonline": 6391,
      "Ġsplice": 6392,
      "CoV": 6393,
      "Ġperturb": 6394,
      "oprote": 6395,
      "ĠSCA": 6396,
      "ischen": 6397,
      "Ġbarriers": 6398,
      "ĠTREM": 6399,
      "cam": 6400,
      "Ġrepresenting": 6401,
      "Ġprotease": 6402,
      "cribed": 6403,
      "Ġevident": 6404,
      "Ġaddressing": 6405,
      "eng": 6406,
      "teb": 6407,
      "101": 6408,
      "Ps": 6409,
      "Ġvesicle": 6410,
      "Ġconversion": 6411,
      "Ġmammalian": 6412,
      "ĠMETHODS": 6413,
      "ĠFrom": 6414,
      "ĠNK": 6415,
      "LISA": 6416,
      "ĠPSP": 6417,
      "Ġown": 6418,
      "Ġsilencing": 6419,
      "Ġuntreated": 6420,
      "perim": 6421,
      "Ġsynergistic": 6422,
      "NN": 6423,
      "ĠThera": 6424,
      "Ġchemotherapy": 6425,
      "Ġneurotransmitter": 6426,
      "Ġfin": 6427,
      "aceutical": 6428,
      "ĠIts": 6429,
      "Ġincom": 6430,
      "Ġplots": 6431,
      "Ġreflects": 6432,
      "Ġbasic": 6433,
      "Ġinstrument": 6434,
      "ĠBMI": 6435,
      "arth": 6436,
      "resentative": 6437,
      "Ġrespective": 6438,
      "Ġembed": 6439,
      "::": 6440,
      "ĠÃ": 6441,
      "oral": 6442,
      "Ġdeviation": 6443,
      "ortic": 6444,
      "Ġoccurring": 6445,
      "Ġcomb": 6446,
      "Ġneurogenesis": 6447,
      "Ġinterplay": 6448,
      "Ġwerden": 6449,
      "uripot": 6450,
      "Ġjoint": 6451,
      "Ġpreparation": 6452,
      "Ġconsensus": 6453,
      "ĠhnRNP": 6454,
      "rank": 6455,
      "Ġminor": 6456,
      "idal": 6457,
      "ĠGWAS": 6458,
      "rontal": 6459,
      "Ġinteracts": 6460,
      "Ġdimension": 6461,
      "Ġethical": 6462,
      "gans": 6463,
      "herry": 6464,
      "Ġbox": 6465,
      "Ġischemia": 6466,
      "life": 6467,
      "Cat": 6468,
      "Ġhydrophob": 6469,
      "ĠItal": 6470,
      "ĠBo": 6471,
      "GFR": 6472,
      "ĠTogether": 6473,
      "Ġparticipate": 6474,
      "Amyotrophic": 6475,
      "Ġprograms": 6476,
      "Os": 6477,
      "Ġtwice": 6478,
      "Ġlive": 6479,
      "ĠEl": 6480,
      "Ġrecon": 6481,
      "inese": 6482,
      "Ġinjuries": 6483,
      "vironments": 6484,
      "Ġdraw": 6485,
      "ĠGD": 6486,
      "pi": 6487,
      "Ġswallowing": 6488,
      "Ġimmunity": 6489,
      "zation": 6490,
      "}$$": 6491,
      "assem": 6492,
      "Ġshorter": 6493,
      "Ġcomplementary": 6494,
      "Ġregional": 6495,
      "ords": 6496,
      "ĠSimilar": 6497,
      "Ġcirculating": 6498,
      "mean": 6499,
      "Ġcytosolic": 6500,
      "tead": 6501,
      "Ġcolle": 6502,
      "incipal": 6503,
      "FS": 6504,
      "Ġsubunits": 6505,
      "gu": 6506,
      "path": 6507,
      "Ġmostly": 6508,
      "ĠSIRT": 6509,
      "Ġdeterior": 6510,
      "MM": 6511,
      "apop": 6512,
      "transfer": 6513,
      "ping": 6514,
      "ĠLS": 6515,
      "Ġcareful": 6516,
      "ĠHDAC": 6517,
      "Ġsummarized": 6518,
      "Ġ%": 6519,
      "Ġinvestigating": 6520,
      "MNs": 6521,
      "Ġutilizing": 6522,
      "dem": 6523,
      "Ġnano": 6524,
      "ĠcG": 6525,
      "ĠPEG": 6526,
      "wa": 6527,
      "Ġscan": 6528,
      "Ġoccup": 6529,
      "Ġpropag": 6530,
      "ĠAlex": 6531,
      "Ġyeast": 6532,
      "Ġastrocytic": 6533,
      "membrane": 6534,
      "ho": 6535,
      "Ġtag": 6536,
      "CLUS": 6537,
      "Ġorganelles": 6538,
      "ROS": 6539,
      "standing": 6540,
      "Ġcolocal": 6541,
      "Ġstart": 6542,
      "Ġsch": 6543,
      "left": 6544,
      "Ġtransfection": 6545,
      "ĠTreatment": 6546,
      "Ġinsufficient": 6547,
      "300": 6548,
      "ĠNE": 6549,
      "Ġstarting": 6550,
      "Ġmacrophage": 6551,
      "UT": 6552,
      "Ġproteasome": 6553,
      "Ġacetyl": 6554,
      "Ġconstruct": 6555,
      "Ġperspective": 6556,
      "vision": 6557,
      "Ġneuroprotection": 6558,
      "Ġfalse": 6559,
      "Ġmimic": 6560,
      "ancing": 6561,
      "gative": 6562,
      "Ġcandidates": 6563,
      "aterials": 6564,
      "Ġinstability": 6565,
      "Ġmyocardi": 6566,
      "Ġlibrary": 6567,
      "Ġblocked": 6568,
      "Ġintravenous": 6569,
      "ciplinary": 6570,
      "risk": 6571,
      "ĠInformation": 6572,
      "Âµm": 6573,
      "Ġnig": 6574,
      "ĠAut": 6575,
      "apped": 6576,
      "Ġfunctioning": 6577,
      "Ġprobability": 6578,
      "ĠMg": 6579,
      "Ġadvantage": 6580,
      "Ġproblems": 6581,
      "Ġexclus": 6582,
      "ohist": 6583,
      "ECT": 6584,
      "Ġcharacterization": 6585,
      "amination": 6586,
      "QR": 6587,
      "Ġitems": 6588,
      "ĠHigh": 6589,
      "Ġsynapse": 6590,
      "Ġtransduction": 6591,
      "ĠUS": 6592,
      "oster": 6593,
      "ummary": 6594,
      "09": 6595,
      "omas": 6596,
      "Ġbehaviors": 6597,
      "ĠOP": 6598,
      "Ġdatabases": 6599,
      "Ġretic": 6600,
      "Ġtable": 6601,
      "ĠPar": 6602,
      "Ġindicators": 6603,
      "Ġdifferentiate": 6604,
      "These": 6605,
      "Ġreinfor": 6606,
      "Ġadequ": 6607,
      "Ġclinicians": 6608,
      "ĠCONCLUS": 6609,
      "ĠParticipants": 6610,
      "Ġreached": 6611,
      "pin": 6612,
      "Ġhomogen": 6613,
      "Ġbeads": 6614,
      "astoma": 6615,
      "hemistry": 6616,
      "ĠRab": 6617,
      "idi": 6618,
      "Ġcanonical": 6619,
      "ynamic": 6620,
      "Ġalcohol": 6621,
      "Cherry": 6622,
      "ras": 6623,
      "ĠMut": 6624,
      "andard": 6625,
      "Ar": 6626,
      "aments": 6627,
      "Ġworking": 6628,
      "Ġexclusion": 6629,
      "Ġphosphate": 6630,
      "sense": 6631,
      "Ġcarbon": 6632,
      "erences": 6633,
      "sitive": 6634,
      "ĠRepresentative": 6635,
      "olute": 6636,
      "raft": 6637,
      "Ġaccordance": 6638,
      "Ġsampling": 6639,
      "imens": 6640,
      "Ġstorage": 6641,
      "Ġrs": 6642,
      "Ġspl": 6643,
      "phagia": 6644,
      "disciplinary": 6645,
      "Ġenter": 6646,
      "Ġvas": 6647,
      "Ġprinci": 6648,
      "mature": 6649,
      "Ġexcept": 6650,
      "ĠMon": 6651,
      "Ġinstead": 6652,
      "Ġalmost": 6653,
      "anine": 6654,
      "ĠChinese": 6655,
      "Ġfocusing": 6656,
      "ĠCommittee": 6657,
      "elec": 6658,
      "Ġgover": 6659,
      "Ġpluripot": 6660,
      "Ġextensively": 6661,
      "Ġmovements": 6662,
      "Ġdetecting": 6663,
      "Ġquantify": 6664,
      "enia": 6665,
      "Ġlocus": 6666,
      "ĠType": 6667,
      "ologous": 6668,
      "ĠWnt": 6669,
      "Ġseizures": 6670,
      "Ġresonance": 6671,
      "Ġmotifs": 6672,
      "Ġlabeled": 6673,
      "ĠGRN": 6674,
      "Ġshape": 6675,
      "dose": 6676,
      "De": 6677,
      "diagn": 6678,
      "Ġproteomics": 6679,
      "cult": 6680,
      "obacter": 6681,
      "ĠVari": 6682,
      "Ġhypertension": 6683,
      "ĠNRF": 6684,
      "ĠStates": 6685,
      "neum": 6686,
      "ungs": 6687,
      "Ġsole": 6688,
      "rie": 6689,
      "Ġdehyd": 6690,
      "rowth": 6691,
      "Ġprogramm": 6692,
      "ĠMa": 6693,
      "Ġresidue": 6694,
      "Ġsn": 6695,
      "Ġrise": 6696,
      "ĠBios": 6697,
      "fort": 6698,
      "bound": 6699,
      "Ġfo": 6700,
      "Ġproximal": 6701,
      "Bi": 6702,
      "GD": 6703,
      "ema": 6704,
      "Ġhepatic": 6705,
      "Ã¡": 6706,
      "ĠUl": 6707,
      "ĠSI": 6708,
      "ĠGC": 6709,
      "Ġsurrounding": 6710,
      "ĠVEGF": 6711,
      "erious": 6712,
      "untington": 6713,
      "Ġmember": 6714,
      "asma": 6715,
      "Ġachieving": 6716,
      "ivered": 6717,
      "Ġalongside": 6718,
      "Ġreprogramming": 6719,
      "ĠTMEM": 6720,
      "thal": 6721,
      "Ġneurodevelop": 6722,
      "Ġchromat": 6723,
      "texts": 6724,
      "Ġinherent": 6725,
      "tious": 6726,
      "Ġelegans": 6727,
      "LN": 6728,
      "Ġloaded": 6729,
      "Fs": 6730,
      "Ġcoefficient": 6731,
      "ĠPath": 6732,
      "ĠPINK": 6733,
      "Ġmobility": 6734,
      "alamus": 6735,
      "Ġpairs": 6736,
      "ĠGSH": 6737,
      "ĠAdditional": 6738,
      "ĠCriteria": 6739,
      "Ġexpect": 6740,
      "Ġsaline": 6741,
      "sub": 6742,
      "Ġtrained": 6743,
      "ĠDue": 6744,
      "sin": 6745,
      "Wh": 6746,
      "Ġmurine": 6747,
      "Ġattem": 6748,
      "deficient": 6749,
      "eti": 6750,
      "ĠInf": 6751,
      "Ġmeasuring": 6752,
      "âī¥": 6753,
      "oclonal": 6754,
      "sa": 6755,
      "xtended": 6756,
      "Ġrestricted": 6757,
      "orial": 6758,
      "yptic": 6759,
      "Ġintervals": 6760,
      "Ġnecrosis": 6761,
      "zer": 6762,
      "ĠAUC": 6763,
      "Ġpediatric": 6764,
      "ĠPRO": 6765,
      "Ġze": 6766,
      "Ġdas": 6767,
      "Ġcontexts": 6768,
      "Ã¤t": 6769,
      "Î¼L": 6770,
      "Ġalgorithms": 6771,
      "controlled": 6772,
      "Ġrescue": 6773,
      "Ġleak": 6774,
      "mediately": 6775,
      "ĠNext": 6776,
      "Ġ34": 6777,
      "Ġneurotoxic": 6778,
      "Ġlimits": 6779,
      "Ġmissing": 6780,
      "Ġlandsc": 6781,
      "armaceutical": 6782,
      "kal": 6783,
      "Ġdisrupts": 6784,
      "ĠResults": 6785,
      "Pati": 6786,
      "Ġcovari": 6787,
      "Ġconfirming": 6788,
      "Ġswit": 6789,
      "Ġpolymorph": 6790,
      "acing": 6791,
      "Ġbegin": 6792,
      "ĠHsp": 6793,
      "Ġdescribe": 6794,
      "Ġ55": 6795,
      "Ġmicrotubule": 6796,
      "ĠDAP": 6797,
      "Ġaven": 6798,
      "Ġvisit": 6799,
      "folding": 6800,
      "Ġtrauma": 6801,
      "Ġdisturbances": 6802,
      "Ġfetal": 6803,
      "Ġbrainstem": 6804,
      "order": 6805,
      "Ġparadig": 6806,
      "rig": 6807,
      "Ġoligomer": 6808,
      "ican": 6809,
      "Ġataxia": 6810,
      "Ġnative": 6811,
      "patient": 6812,
      "peptide": 6813,
      "Ġproject": 6814,
      "ĠPhase": 6815,
      "techn": 6816,
      "Ġbelie": 6817,
      "Ġdemographic": 6818,
      "ditionally": 6819,
      "ritis": 6820,
      "Ġtermin": 6821,
      "Ġmethodology": 6822,
      "AI": 6823,
      "PK": 6824,
      "Ġfewer": 6825,
      "ba": 6826,
      "Ġaid": 6827,
      "Ġmakes": 6828,
      "Ġcompletely": 6829,
      "Ġ2000": 6830,
      "Ġupstream": 6831,
      "Ġmapping": 6832,
      "natal": 6833,
      "rog": 6834,
      "ilities": 6835,
      "Ġscal": 6836,
      "oscop": 6837,
      "ĠFL": 6838,
      "150": 6839,
      "ĠTechnologies": 6840,
      "Despite": 6841,
      "SI": 6842,
      "ĠOb": 6843,
      "Ġcorrelates": 6844,
      "Ġremove": 6845,
      "Ġsecreted": 6846,
      "Ġgastrointestinal": 6847,
      "Ġcompl": 6848,
      "Di": 6849,
      "Ġ42": 6850,
      "Ġtranslocation": 6851,
      "ĠAC": 6852,
      "alities": 6853,
      "Ġovercome": 6854,
      "FUS": 6855,
      "ĠGroup": 6856,
      "Ġoder": 6857,
      "Ġdiabetic": 6858,
      "atur": 6859,
      "inetic": 6860,
      "PI": 6861,
      "radi": 6862,
      "ogram": 6863,
      "abolic": 6864,
      "ĠSDS": 6865,
      "lich": 6866,
      "vestig": 6867,
      "ners": 6868,
      "elen": 6869,
      "Ġexploration": 6870,
      "Ġvulnerability": 6871,
      "Ġagreement": 6872,
      "Ġnucleotide": 6873,
      "Ġengineered": 6874,
      "Ġcollagen": 6875,
      "On": 6876,
      "Ġphases": 6877,
      "Ġconclud": 6878,
      "ĠNSC": 6879,
      "Ġcaptured": 6880,
      "Ġcolleag": 6881,
      "Ġlimiting": 6882,
      "Ġservices": 6883,
      "Ġextract": 6884,
      "Ġ2009": 6885,
      "Ġcoupled": 6886,
      "Ġconsists": 6887,
      "Ġcurcumin": 6888,
      "Ġpractical": 6889,
      "Ġunderscores": 6890,
      "Ġglutathione": 6891,
      "Ġmultic": 6892,
      "Ġdorsal": 6893,
      "PTP": 6894,
      "rium": 6895,
      "Ġintern": 6896,
      "Ġubiquitination": 6897,
      "Ġassigned": 6898,
      "Ġoutside": 6899,
      "Ġcen": 6900,
      "TG": 6901,
      "ĠCK": 6902,
      "gre": 6903,
      "derly": 6904,
      "+)": 6905,
      "Ġput": 6906,
      "Ġsimulations": 6907,
      "Pad": 6908,
      "Ġsor": 6909,
      "ĠEA": 6910,
      "Ġcontained": 6911,
      "Ġshare": 6912,
      "Ġphenomenon": 6913,
      "Ġfall": 6914,
      "rosine": 6915,
      "Ġgenetically": 6916,
      "ĠIs": 6917,
      "Ġspecialized": 6918,
      "ĠTARDBP": 6919,
      "Ġpostoperative": 6920,
      "Ġpersist": 6921,
      "Ġtriggering": 6922,
      "TM": 6923,
      "tened": 6924,
      "ĠMAPK": 6925,
      "ĠÎ³": 6926,
      "negative": 6927,
      "ars": 6928,
      "Ġgreen": 6929,
      "Ġobserve": 6930,
      "ĠÂµM": 6931,
      "vation": 6932,
      "Ġnutritional": 6933,
      "Over": 6934,
      "Ġinsight": 6935,
      "Ġworldwide": 6936,
      "Ġexons": 6937,
      "ĠEp": 6938,
      "itability": 6939,
      "/-": 6940,
      "gthen": 6941,
      "bre": 6942,
      "Ġmediate": 6943,
      "Ġroutine": 6944,
      "Ġhex": 6945,
      "stim": 6946,
      "Ġspectrometry": 6947,
      "ocytic": 6948,
      "apoptotic": 6949,
      "Ġequi": 6950,
      "enari": 6951,
      "Ġface": 6952,
      "Ġrequiring": 6953,
      "TE": 6954,
      "Ġimplemented": 6955,
      "Ġinnovative": 6956,
      "NG": 6957,
      "Ġbirth": 6958,
      "utional": 6959,
      "oxyl": 6960,
      "Ġpack": 6961,
      "tumor": 6962,
      "Ġtransporter": 6963,
      "Ġbiosyn": 6964,
      "zo": 6965,
      "Ġ38": 6966,
      "Ġfolding": 6967,
      "Ġrecords": 6968,
      "Ġretention": 6969,
      "ĠIR": 6970,
      "Results": 6971,
      "Ġunc": 6972,
      "ĠSTING": 6973,
      "Ġhypothesized": 6974,
      "Ġsubstantially": 6975,
      "Ġlayers": 6976,
      "Ġmodif": 6977,
      "urrence": 6978,
      "Ġexpansions": 6979,
      "Ġheterozygous": 6980,
      "Ġcycles": 6981,
      "Ġple": 6982,
      "produc": 6983,
      "ĠNew": 6984,
      "ibco": 6985,
      "Ġdecreasing": 6986,
      "Ġvac": 6987,
      "ĠHA": 6988,
      "Ġmetastasis": 6989,
      "Ġneurofilament": 6990,
      "Ġarm": 6991,
      "bor": 6992,
      "Ġjust": 6993,
      "Ġaccurately": 6994,
      "Ġdiscussion": 6995,
      "ĠCare": 6996,
      "Ġconsiderable": 6997,
      "Ġsimple": 6998,
      "Ġtolerance": 6999,
      "Ġelig": 7000,
      "ĠSLC": 7001,
      "elihood": 7002,
      "ĠControl": 7003,
      "ifer": 7004,
      "formed": 7005,
      "leu": 7006,
      "Ġhypoth": 7007,
      "Ġedaravone": 7008,
      "ĠbvFTD": 7009,
      "ĠPE": 7010,
      "ÂµM": 7011,
      "Ġcolleagues": 7012,
      "Ġimmunofluorescence": 7013,
      "raphPad": 7014,
      "ypical": 7015,
      "hand": 7016,
      "Ġadvancements": 7017,
      "pop": 7018,
      "ey": 7019,
      "ients": 7020,
      "Ġmultim": 7021,
      "inten": 7022,
      "Ġexchange": 7023,
      "iral": 7024,
      "Ġpig": 7025,
      "ĠMedi": 7026,
      "recip": 7027,
      "Ġreviews": 7028,
      "ĠSm": 7029,
      "Ġmotone": 7030,
      "Ġsuppressing": 7031,
      "tor": 7032,
      "ĠeIF": 7033,
      "Ġnic": 7034,
      "Ġstop": 7035,
      "ude": 7036,
      "Invitrogen": 7037,
      "Ġfailed": 7038,
      "Ġexcitability": 7039,
      "onin": 7040,
      "Ġapparent": 7041,
      "Ġneurite": 7042,
      "Ġcondensate": 7043,
      "ĠSV": 7044,
      "Ġcontrolling": 7045,
      "Ġhomozygous": 7046,
      "Ġspine": 7047,
      "Ġtel": 7048,
      "alking": 7049,
      "orac": 7050,
      "ĠBecause": 7051,
      "Ġtrue": 7052,
      "Ġfractions": 7053,
      "ively": 7054,
      "Ġwall": 7055,
      "Ġappeared": 7056,
      "LE": 7057,
      "avy": 7058,
      "ophren": 7059,
      "Ġresuspended": 7060,
      "aven": 7061,
      "Ġshock": 7062,
      "aryn": 7063,
      "Ġreveals": 7064,
      "Ġtake": 7065,
      "ĠHER": 7066,
      "Ġclearly": 7067,
      "Ġbreath": 7068,
      "Ġlatter": 7069,
      ")/": 7070,
      "ĠApo": 7071,
      "Ġidenti": 7072,
      "Ġexplained": 7073,
      "ocrine": 7074,
      "ĠMan": 7075,
      "Ġengagement": 7076,
      "ĠMMP": 7077,
      "Ġtiming": 7078,
      "enchymal": 7079,
      "Ġcoverage": 7080,
      "SM": 7081,
      "vate": 7082,
      "ĠNDDs": 7083,
      "ĠQuantif": 7084,
      "Ġnotably": 7085,
      "Ġunderscore": 7086,
      "cellular": 7087,
      "Ġhydrox": 7088,
      "Ġdepends": 7089,
      "Ġlimbs": 7090,
      "ĠDiagn": 7091,
      "ident": 7092,
      "trophy": 7093,
      "Ġresidual": 7094,
      "Ġautosomal": 7095,
      "ĠTriton": 7096,
      "raz": 7097,
      "otrop": 7098,
      "matched": 7099,
      "llig": 7100,
      "Ġtriggered": 7101,
      "Ser": 7102,
      "Ġauthor": 7103,
      "Ġgyr": 7104,
      "Ġanatomical": 7105,
      "Ġflux": 7106,
      "Ġdimer": 7107,
      "2020": 7108,
      "ĠMeas": 7109,
      "unts": 7110,
      "Ġposts": 7111,
      "Ġdiminished": 7112,
      "Ġnearly": 7113,
      "Ġreporter": 7114,
      "Ġfresh": 7115,
      "Ġcirculation": 7116,
      "ares": 7117,
      "Ġelectrical": 7118,
      "Ġpel": 7119,
      "amma": 7120,
      "2021": 7121,
      "Ġ).": 7122,
      "Ġseparated": 7123,
      "localization": 7124,
      "Ġgenerating": 7125,
      "Ġhydrophobic": 7126,
      "Ġcopies": 7127,
      "loop": 7128,
      "Ġimmunosup": 7129,
      "Ġelderly": 7130,
      "zyme": 7131,
      "irus": 7132,
      "Ġventral": 7133,
      "yelin": 7134,
      "-(": 7135,
      "Ġcit": 7136,
      "ese": 7137,
      "rozen": 7138,
      "Ġprimers": 7139,
      "Ġentry": 7140,
      "Ġconstant": 7141,
      "alamic": 7142,
      "Ġlactate": 7143,
      "ĠTU": 7144,
      "leukin": 7145,
      "Ġpregnancy": 7146,
      "Ġmodule": 7147,
      "Ġoverlapping": 7148,
      "Ġmap": 7149,
      "Ġcoding": 7150,
      "ĠDN": 7151,
      "Ġexosome": 7152,
      "BE": 7153,
      "ĠDA": 7154,
      "ĠLip": 7155,
      "rip": 7156,
      "ĠcGAS": 7157,
      "lytic": 7158,
      "Ġexcitotoxicity": 7159,
      "Ġserious": 7160,
      "jection": 7161,
      "Ġreceive": 7162,
      "Ġangiogenesis": 7163,
      "Ġneuroimaging": 7164,
      "Ġcham": 7165,
      "ERBB": 7166,
      "Ġantisense": 7167,
      "ĠCal": 7168,
      "Ġty": 7169,
      "Ġarray": 7170,
      "Ġvisualization": 7171,
      "ada": 7172,
      "ĠECM": 7173,
      "Seq": 7174,
      "Ġequal": 7175,
      "Ġforward": 7176,
      "Ġimmediately": 7177,
      "tage": 7178,
      "110": 7179,
      "ĠTu": 7180,
      "Ġum": 7181,
      "ogs": 7182,
      "%;": 7183,
      "Ġband": 7184,
      "itative": 7185,
      "Ġconformational": 7186,
      "aved": 7187,
      "ĠDMSO": 7188,
      "Ġsimilarly": 7189,
      "ĠGenetic": 7190,
      "planted": 7191,
      "oprecip": 7192,
      "sw": 7193,
      "ĠMedicine": 7194,
      "Ġbioavail": 7195,
      "crip": 7196,
      "Ġfragment": 7197,
      "inger": 7198,
      "Ġsolub": 7199,
      "ĠASD": 7200,
      "Ġundergoing": 7201,
      "ĠReview": 7202,
      "assive": 7203,
      "SR": 7204,
      "ash": 7205,
      "Ġrabbit": 7206,
      "ortical": 7207,
      "vered": 7208,
      "ks": 7209,
      "ariate": 7210,
      "yt": 7211,
      "Ġprion": 7212,
      "where": 7213,
      "Ġregenerative": 7214,
      "omotor": 7215,
      "Ġaggregate": 7216,
      "Ġintact": 7217,
      "âģ": 7218,
      "Ġincomplete": 7219,
      "ostatic": 7220,
      "Ġmanus": 7221,
      "181": 7222,
      "CNS": 7223,
      "YP": 7224,
      "ĠEth": 7225,
      "ĠâĨ": 7226,
      "volution": 7227,
      "Sc": 7228,
      "Ġpredicting": 7229,
      "ottom": 7230,
      "ĠHuntington": 7231,
      "Ġlinking": 7232,
      "-,": 7233,
      "PBS": 7234,
      "ending": 7235,
      "olgi": 7236,
      "ĠLew": 7237,
      "Ġscenari": 7238,
      "Ġlabeling": 7239,
      "independent": 7240,
      "unn": 7241,
      "Ġexhibiting": 7242,
      "roscopy": 7243,
      "Ġdelivered": 7244,
      "ritten": 7245,
      "Ġarrest": 7246,
      "Ġabsorption": 7247,
      "He": 7248,
      "Ġtracking": 7249,
      "Ġetc": 7250,
      "points": 7251,
      "However": 7252,
      "One": 7253,
      "rance": 7254,
      "Ġclasses": 7255,
      "sk": 7256,
      "Ġetiology": 7257,
      "greg": 7258,
      "Ġstriatum": 7259,
      "Ġsti": 7260,
      "Ġprevents": 7261,
      "Ġconflic": 7262,
      "Ġseroton": 7263,
      "ophrenia": 7264,
      "Ġprogenitor": 7265,
      "2023": 7266,
      "Ġoligomers": 7267,
      "Ġaddressed": 7268,
      "Ġcategory": 7269,
      ".\"": 7270,
      "FL": 7271,
      "Ġlisted": 7272,
      "BAC": 7273,
      "OC": 7274,
      "ĠVal": 7275,
      "Ġinteracting": 7276,
      "Ġvisualized": 7277,
      "Ġdecades": 7278,
      "sychiatric": 7279,
      "viral": 7280,
      "Ġwestern": 7281,
      "oL": 7282,
      "Ġpresenting": 7283,
      "ĠAlexa": 7284,
      "pus": 7285,
      "utaneous": 7286,
      "Ġpathophysiological": 7287,
      "ualization": 7288,
      "PH": 7289,
      "ĠMotor": 7290,
      "cells": 7291,
      "Ġdosing": 7292,
      "ĠOA": 7293,
      "ĠMAPT": 7294,
      "Ġpancreatic": 7295,
      "itin": 7296,
      "Pl": 7297,
      "rist": 7298,
      "Ġpreced": 7299,
      "ĠDr": 7300,
      "Ġrevealing": 7301,
      "adian": 7302,
      "pers": 7303,
      "ĠAK": 7304,
      "Ġconstructed": 7305,
      "Ġsuppressed": 7306,
      "Ġtren": 7307,
      "CAG": 7308,
      "ĠRN": 7309,
      "Ġdysphagia": 7310,
      "Ġplaque": 7311,
      "Ġenvironments": 7312,
      "ĠSARS": 7313,
      "Ġinjections": 7314,
      "Ġzinc": 7315,
      "ĠCollectively": 7316,
      "Ġrecombinant": 7317,
      "120": 7318,
      "ĠWriting": 7319,
      "atically": 7320,
      "artment": 7321,
      "Ġharb": 7322,
      "virus": 7323,
      "Ġcontributed": 7324,
      "Ġcentrifugation": 7325,
      "Ġseeded": 7326,
      "Ġwarran": 7327,
      "une": 7328,
      "Ġexploring": 7329,
      "morrh": 7330,
      "Ġwound": 7331,
      "Ġcarcinoma": 7332,
      "Ġparticipation": 7333,
      "Ġcreating": 7334,
      "ische": 7335,
      "ragm": 7336,
      "Ġbecomes": 7337,
      "Ġextra": 7338,
      "irc": 7339,
      "Ġyounger": 7340,
      "body": 7341,
      "Ġunderscoring": 7342,
      "entation": 7343,
      "iminary": 7344,
      "mal": 7345,
      "ĠNC": 7346,
      "Ġoptimization": 7347,
      "Ġlandscape": 7348,
      "ĠJan": 7349,
      "Ġlikelihood": 7350,
      "Qu": 7351,
      "FAs": 7352,
      "amycin": 7353,
      "times": 7354,
      "expressing": 7355,
      "Ġlittle": 7356,
      "Ca": 7357,
      "Ġcatalytic": 7358,
      "conjug": 7359,
      "Ġpublication": 7360,
      "ico": 7361,
      "Ġenrolled": 7362,
      "Ġultrasound": 7363,
      "Ġconsisting": 7364,
      "Ġ(%)": 7365,
      "Ġsubstances": 7366,
      "Ġengineering": 7367,
      "Ġcompartments": 7368,
      "Ġfunctionality": 7369,
      "Ġethanol": 7370,
      "Ġpseud": 7371,
      "Ġconstructs": 7372,
      "Ġlaser": 7373,
      "ĠThrough": 7374,
      "Ġepis": 7375,
      "Ġmeaningful": 7376,
      "Ġfigure": 7377,
      "ulties": 7378,
      "atase": 7379,
      "mb": 7380,
      "Ġble": 7381,
      "ref": 7382,
      "outh": 7383,
      "Ġcytotoxicity": 7384,
      "enn": 7385,
      "ĠRA": 7386,
      "values": 7387,
      "azole": 7388,
      "Fisher": 7389,
      "Ġinterface": 7390,
      "Ġgyrus": 7391,
      "Ġlysates": 7392,
      "umber": 7393,
      "Ġinner": 7394,
      "Ġinfar": 7395,
      "ournal": 7396,
      "Ġmachin": 7397,
      "ĠOnly": 7398,
      "Ġplants": 7399,
      "Ġbrid": 7400,
      "ĠEngl": 7401,
      "Ġhemorrh": 7402,
      "ATP": 7403,
      "+,": 7404,
      "Ġcryptic": 7405,
      "beta": 7406,
      ".(": 7407,
      "lational": 7408,
      "Ġtherm": 7409,
      "urg": 7410,
      "clos": 7411,
      "Ġfavorable": 7412,
      "Ġfoci": 7413,
      "Ġguidance": 7414,
      "Ġmyocardial": 7415,
      "pension": 7416,
      "Ġcoordination": 7417,
      "ĠFGF": 7418,
      "yth": 7419,
      "phase": 7420,
      "104": 7421,
      "Ġstatistics": 7422,
      "Ġfine": 7423,
      "Ġmodulates": 7424,
      "Ġschiz": 7425,
      "Ġrot": 7426,
      "ERK": 7427,
      "Ġexperiences": 7428,
      "ĠSNPs": 7429,
      "Ġprioriti": 7430,
      "targeting": 7431,
      "ofil": 7432,
      "Ġpromoted": 7433,
      "Ġenhancement": 7434,
      "Ġmonitor": 7435,
      "ills": 7436,
      "Ġcharacterize": 7437,
      "Ġstudying": 7438,
      "Ġaug": 7439,
      "Ġglia": 7440,
      "sian": 7441,
      "Ġmonoclonal": 7442,
      "Ġang": 7443,
      "Ġmanuscript": 7444,
      "HS": 7445,
      "ben": 7446,
      "ĠCAG": 7447,
      "Ġneuropathological": 7448,
      "Ġamplification": 7449,
      "reported": 7450,
      "CAT": 7451,
      "Ġgoal": 7452,
      "uments": 7453,
      "Ġoppos": 7454,
      "Ġyielded": 7455,
      "ĠPoly": 7456,
      "Ġpooled": 7457,
      "Ġabsolute": 7458,
      "Ġreticulum": 7459,
      "GE": 7460,
      "Ġvaried": 7461,
      "ĠScience": 7462,
      "GP": 7463,
      "omod": 7464,
      "ĠNMR": 7465,
      "Ġaver": 7466,
      "Ġfiltered": 7467,
      "chang": 7468,
      "Ġann": 7469,
      "Ġclassical": 7470,
      "Ġdismut": 7471,
      "Ġsignature": 7472,
      "ĠGR": 7473,
      "Ġvulnerable": 7474,
      "phosphate": 7475,
      "Ġseques": 7476,
      "ĠAnd": 7477,
      "ĠAlso": 7478,
      "Ġparameter": 7479,
      "gic": 7480,
      "Ġest": 7481,
      "icin": 7482,
      "ofl": 7483,
      "oro": 7484,
      "Ġdark": 7485,
      "ĠRR": 7486,
      "Ġvolumes": 7487,
      "Ġbars": 7488,
      "2022": 7489,
      "ĠHTT": 7490,
      "Ġconnections": 7491,
      "Ġparalysis": 7492,
      "Ġcapabilities": 7493,
      "Ġthromb": 7494,
      "CAM": 7495,
      "ĠAF": 7496,
      "struction": 7497,
      "Ġcharge": 7498,
      "sch": 7499,
      "Ġconnected": 7500,
      "while": 7501,
      "Ġoxide": 7502,
      "tel": 7503,
      "Ġsystematically": 7504,
      "iel": 7505,
      "max": 7506,
      "Ġinitiated": 7507,
      "Ġdefense": 7508,
      "making": 7509,
      "Ġnons": 7510,
      "ĠDD": 7511,
      "Ġsubgroups": 7512,
      "Ġcomputed": 7513,
      "ĠWang": 7514,
      "ived": 7515,
      "Ġhormone": 7516,
      "ĠFDR": 7517,
      "Ġrhyth": 7518,
      "Ġalleles": 7519,
      "Ġster": 7520,
      "Ġabsent": 7521,
      "Ġrecommendations": 7522,
      "Ġsolutions": 7523,
      "ĠAMPK": 7524,
      "ĠNeurolog": 7525,
      "Ġvor": 7526,
      "ĠDem": 7527,
      "Ġlobe": 7528,
      "ori": 7529,
      "ĠQuantification": 7530,
      "Ġuses": 7531,
      "abolism": 7532,
      "ĠLys": 7533,
      "lices": 7534,
      "Ġaccessible": 7535,
      "ĠConsistent": 7536,
      "Ġhor": 7537,
      "SEM": 7538,
      "Ġblind": 7539,
      "ison": 7540,
      "Ġamb": 7541,
      "Ġelic": 7542,
      "ino": 7543,
      "ĠIncre": 7544,
      "Ġbioavailability": 7545,
      "ift": 7546,
      "Ġsegment": 7547,
      "ofib": 7548,
      "ĠGlu": 7549,
      "Ġâī¤": 7550,
      "Rad": 7551,
      "nit": 7552,
      "Ġfields": 7553,
      "Ġchanged": 7554,
      "pH": 7555,
      "Ġretrie": 7556,
      "Ġkinases": 7557,
      "Ġtraumatic": 7558,
      "Ġcategorized": 7559,
      "ĠTRI": 7560,
      "Ġartery": 7561,
      "Ġmodalities": 7562,
      "Ġquestionnaire": 7563,
      "ustom": 7564,
      "Ġ1000": 7565,
      "Ġchromatography": 7566,
      "Ġmanip": 7567,
      "poly": 7568,
      "size": 7569,
      "Ġmix": 7570,
      "Ġdonors": 7571,
      "Ġproblem": 7572,
      "ĠZe": 7573,
      "Ġplus": 7574,
      "resistant": 7575,
      "auc": 7576,
      "Ġtrends": 7577,
      "jured": 7578,
      "Ġseems": 7579,
      "roglia": 7580,
      "Ġmachinery": 7581,
      "Ġrestoring": 7582,
      "ĠATXN": 7583,
      "Ġdifficulties": 7584,
      "ĠELISA": 7585,
      "aving": 7586,
      "asia": 7587,
      "Ġconsistency": 7588,
      "Ġinfected": 7589,
      "Ġformal": 7590,
      "Ġreflex": 7591,
      "Ġdeterioration": 7592,
      "ĠSchw": 7593,
      "Ġmatched": 7594,
      "sel": 7595,
      "process": 7596,
      "emic": 7597,
      "Ġimpairs": 7598,
      ")âĪĴ": 7599,
      "ĠVD": 7600,
      "Ġelong": 7601,
      "hel": 7602,
      "ida": 7603,
      "Ġperiods": 7604,
      "aternal": 7605,
      "Ġ2008": 7606,
      "Ġtit": 7607,
      "Ġemission": 7608,
      "Ġstre": 7609,
      "Ġmethodological": 7610,
      "Ġalleviate": 7611,
      "pur": 7612,
      "Ġprincipal": 7613,
      "Ġissue": 7614,
      "acetyl": 7615,
      "ĠLewy": 7616,
      "Ġdefine": 7617,
      "Ġmmol": 7618,
      "ĠEP": 7619,
      "poses": 7620,
      "Ġproteostasis": 7621,
      "Ġpharmacok": 7622,
      "ontin": 7623,
      "Ġexacerbate": 7624,
      "Ġdemyelination": 7625,
      "ĠSamples": 7626,
      "olving": 7627,
      "glutam": 7628,
      "Ġdia": 7629,
      "aden": 7630,
      "Ġvessels": 7631,
      "sign": 7632,
      "Ġcann": 7633,
      "ĠCS": 7634,
      "Ġdrop": 7635,
      "modifying": 7636,
      "Ġcontinued": 7637,
      "ĠTBK": 7638,
      "Ġnodes": 7639,
      "Ġrepeti": 7640,
      "Ġsusceptible": 7641,
      "Ġrespir": 7642,
      "PTN": 7643,
      "Ġcurves": 7644,
      "Ġpublications": 7645,
      "erge": 7646,
      "Ġinfec": 7647,
      "illin": 7648,
      "Ġdroplets": 7649,
      "Ġori": 7650,
      "Ġscreened": 7651,
      "Ġreplacement": 7652,
      "ĠAssess": 7653,
      "ĠâĪ¼": 7654,
      "En": 7655,
      "ayer": 7656,
      "Ġnone": 7657,
      "ĠCF": 7658,
      "Ġ39": 7659,
      "Ġnewly": 7660,
      "technology": 7661,
      "ĠSR": 7662,
      "Ġconformation": 7663,
      "Ġpathogens": 7664,
      "uz": 7665,
      "Ġdepos": 7666,
      "Ġpeaks": 7667,
      "Ġglycolysis": 7668,
      "Ġincons": 7669,
      "Ġpaired": 7670,
      "las": 7671,
      "ĠGSK": 7672,
      "ĠNDs": 7673,
      "Ġrandomly": 7674,
      "Ġnecessit": 7675,
      "affec": 7676,
      "Ġprobes": 7677,
      "labeled": 7678,
      "Ġincorporating": 7679,
      "Ġau": 7680,
      "Ġelement": 7681,
      "Ġmitigating": 7682,
      "illed": 7683,
      "axis": 7684,
      "limb": 7685,
      "cos": 7686,
      "Ġcarrier": 7687,
      "loaded": 7688,
      "LM": 7689,
      "Ġsyndrom": 7690,
      "Ġexogenous": 7691,
      "berg": 7692,
      "Ġdiagnoses": 7693,
      "Ġlysis": 7694,
      "Ġstandards": 7695,
      "thase": 7696,
      "ĠGPX": 7697,
      "Ġremark": 7698,
      "Ġtranscriptome": 7699,
      "Ġschizophrenia": 7700,
      "ackground": 7701,
      "Ġ120": 7702,
      "keleton": 7703,
      "Ġminimize": 7704,
      "ĠEnd": 7705,
      "Ġstrengthen": 7706,
      "Ġpluripotent": 7707,
      "NM": 7708,
      "Ġpostmortem": 7709,
      "Ġrestored": 7710,
      "vant": 7711,
      "onine": 7712,
      "Ġmonitored": 7713,
      "Ġcover": 7714,
      "Ġouter": 7715,
      "Ġencaps": 7716,
      "KG": 7717,
      "uctu": 7718,
      "ĠPrism": 7719,
      "Ġfeeding": 7720,
      "Ġradiation": 7721,
      "Ġneon": 7722,
      "ĠHu": 7723,
      "orous": 7724,
      "Ġsmoking": 7725,
      "Ġscans": 7726,
      "Ġdocking": 7727,
      "ilience": 7728,
      "esides": 7729,
      "ĠDrug": 7730,
      "Ġvalidity": 7731,
      "Ġamounts": 7732,
      "ĠDAPI": 7733,
      "ĠCM": 7734,
      "Ġsqu": 7735,
      "Ġhoc": 7736,
      "ĠqPCR": 7737,
      "Ġmodest": 7738,
      "Ġscaven": 7739,
      "Ġsich": 7740,
      "Ġacetylation": 7741,
      "etin": 7742,
      "amily": 7743,
      "ĠMany": 7744,
      "Ġcomorbidities": 7745,
      "Ġdismutase": 7746,
      "but": 7747,
      "Ġpolarization": 7748,
      "Ġdilution": 7749,
      "Ġvisits": 7750,
      "uscle": 7751,
      "Ġheavy": 7752,
      "2019": 7753,
      "Clinical": 7754,
      "Ġderivatives": 7755,
      "Ġhapl": 7756,
      "Ġprofound": 7757,
      "ysical": 7758,
      "ĠNI": 7759,
      "Ġoption": 7760,
      "Ġradicals": 7761,
      "conjugated": 7762,
      "ĠMultiple": 7763,
      "Ġ52": 7764,
      "Ġanalyzing": 7765,
      "Ġobservational": 7766,
      "arities": 7767,
      "Ġexcess": 7768,
      "Ġepidemi": 7769,
      "ĠSB": 7770,
      "Cre": 7771,
      "Ġaccumulate": 7772,
      "ĠACh": 7773,
      "Ġdurch": 7774,
      "ĠDys": 7775,
      "ĠGTP": 7776,
      "ĠPH": 7777,
      "Ġrelation": 7778,
      "Ġoptic": 7779,
      "Ġpredictions": 7780,
      "resolution": 7781,
      "Ġsegments": 7782,
      "Ġaccessibility": 7783,
      "Ġsarcop": 7784,
      "ALSFRS": 7785,
      "ochemistry": 7786,
      "Ġspectra": 7787,
      "Ġdispl": 7788,
      "Ġdisrupting": 7789,
      "Ġexecutive": 7790,
      "score": 7791,
      "Âµg": 7792,
      "ĠImageJ": 7793,
      "ĠEd": 7794,
      "cycl": 7795,
      "Ġpall": 7796,
      "ara": 7797,
      "Tr": 7798,
      "Ġfilter": 7799,
      "ĠCp": 7800,
      "xin": 7801,
      "Ġstronger": 7802,
      "Li": 7803,
      "Ġidentity": 7804,
      "Ġimmunohist": 7805,
      "ĠHeLa": 7806,
      "Ġwalking": 7807,
      "Ġaccelerated": 7808,
      "Ġbiopsy": 7809,
      "Ġdetectable": 7810,
      "high": 7811,
      "Ġnach": 7812,
      "400": 7813,
      "Methods": 7814,
      "QTL": 7815,
      "orough": 7816,
      "ala": 7817,
      "ovine": 7818,
      "Ġlargest": 7819,
      "sil": 7820,
      "Ġcis": 7821,
      "Ġalignment": 7822,
      "ĠPO": 7823,
      "ĠGSE": 7824,
      "ĠPost": 7825,
      "ĠKIF": 7826,
      "Reg": 7827,
      "Ġhealing": 7828,
      "Ġoptimized": 7829,
      "Ġadding": 7830,
      "Ġfix": 7831,
      "unted": 7832,
      "Ġlamin": 7833,
      "Ġacting": 7834,
      "Ġenabled": 7835,
      "Ġpneum": 7836,
      "Ġtransformation": 7837,
      "Ġmarrow": 7838,
      "Ġod": 7839,
      "Ġadjacent": 7840,
      "Ġscales": 7841,
      "ĠSTAT": 7842,
      "Ġencour": 7843,
      "Ġnine": 7844,
      "coated": 7845,
      "Ġadaptation": 7846,
      "otropic": 7847,
      "NfL": 7848,
      "Ġaus": 7849,
      "Ġnicht": 7850,
      "Ġmonocytes": 7851,
      "Ġreturn": 7852,
      "Ġlever": 7853,
      "gluc": 7854,
      "MND": 7855,
      "Ġcomprising": 7856,
      "SO": 7857,
      "Ġevidenced": 7858,
      "Ġreductions": 7859,
      "Ġcaps": 7860,
      "Ġpoorly": 7861,
      "Ġconduction": 7862,
      "td": 7863,
      "Ġimaged": 7864,
      "ĠIniti": 7865,
      "Ġcoron": 7866,
      "Ġmetabolite": 7867,
      "Ġreasons": 7868,
      "ĠLong": 7869,
      "Ġfluctu": 7870,
      "ĠMice": 7871,
      "fficiency": 7872,
      "Ġpolic": 7873,
      "Ġcollectively": 7874,
      "Ġelevation": 7875,
      "Ġfaster": 7876,
      "Ġartificial": 7877,
      "UTR": 7878,
      "yroid": 7879,
      "Ġaltering": 7880,
      "ocompati": 7881,
      "Inter": 7882,
      "Ġtyrosine": 7883,
      "Ġexplan": 7884,
      "Ġsuspension": 7885,
      "Ġfatal": 7886,
      "Ġinvasion": 7887,
      "ĠThree": 7888,
      "Ġunex": 7889,
      "Ġsustain": 7890,
      "ĠAmerican": 7891,
      "ĠSoci": 7892,
      "Ġslides": 7893,
      "ycl": 7894,
      "Ġrequirements": 7895,
      "Ġconcern": 7896,
      "etail": 7897,
      "Ġprel": 7898,
      "Ġsuffer": 7899,
      "ĠnM": 7900,
      "umina": 7901,
      "actin": 7902,
      "Ġestablishing": 7903,
      "ellow": 7904,
      "Ġcompensatory": 7905,
      "romal": 7906,
      "Ġproteome": 7907,
      "Ġshifts": 7908,
      "Ġbelong": 7909,
      "Ġadipose": 7910,
      "yo": 7911,
      "Ġtext": 7912,
      "plam": 7913,
      "Ġnanom": 7914,
      "Ġstabilization": 7915,
      "DG": 7916,
      "aseline": 7917,
      "Ġpreserved": 7918,
      "Ġsatis": 7919,
      "Ġthorough": 7920,
      "ĠHence": 7921,
      "tailed": 7922,
      "Ġjunctions": 7923,
      "Ġresource": 7924,
      "ĠAf": 7925,
      "ĠDie": 7926,
      "Ġphagocytosis": 7927,
      "Ġunable": 7928,
      "Ġglob": 7929,
      "sec": 7930,
      "Ġcompet": 7931,
      "Ġelectrophysiological": 7932,
      "non": 7933,
      "Ġcontinue": 7934,
      "Ġchains": 7935,
      "gRNA": 7936,
      "Ġpresynaptic": 7937,
      "Ġpurpose": 7938,
      "Ġbulk": 7939,
      "Ġbiosynthesis": 7940,
      "ĠGA": 7941,
      "Ġsynthase": 7942,
      "TS": 7943,
      "ipped": 7944,
      "Ġencodes": 7945,
      "Ġbuil": 7946,
      "Ġsessions": 7947,
      "demic": 7948,
      "Ġtraits": 7949,
      "Ġbuild": 7950,
      "Ġvoltage": 7951,
      "iPSC": 7952,
      "oracic": 7953,
      "cts": 7954,
      "acchar": 7955,
      "Ġgray": 7956,
      "Ġirre": 7957,
      "Ġchosen": 7958,
      "Ġdecis": 7959,
      "Ġrespiration": 7960,
      "Ġcysteine": 7961,
      "More": 7962,
      "Ġmissense": 7963,
      "Ġcontrac": 7964,
      "Ġseparately": 7965,
      "oked": 7966,
      "Ġdepth": 7967,
      "Ġorganoid": 7968,
      "Ġcontributions": 7969,
      "Ġfocal": 7970,
      "sam": 7971,
      "ĠFR": 7972,
      "Ġlowest": 7973,
      "Ġalways": 7974,
      "ĠHyp": 7975,
      "Ġindirectly": 7976,
      "onom": 7977,
      "opic": 7978,
      "ĠAppendix": 7979,
      "ĠTechnology": 7980,
      "UND": 7981,
      "Ġven": 7982,
      "Ġhelps": 7983,
      "Ġecon": 7984,
      "Ġoverview": 7985,
      "Ġparas": 7986,
      "Ġcircuit": 7987,
      "Furthermore": 7988,
      "Ġpuncta": 7989,
      "atid": 7990,
      "factory": 7991,
      "Ġharves": 7992,
      "ĠPatienten": 7993,
      "Mit": 7994,
      "istribu": 7995,
      "ĠDes": 7996,
      "Ġmutated": 7997,
      "Ġexcell": 7998,
      "ibration": 7999,
      "itone": 8000,
      "apit": 8001,
      "lective": 8002,
      "Ġinsoluble": 8003,
      "Ġaligned": 8004,
      "acr": 8005,
      "130": 8006,
      "mouse": 8007,
      "ached": 8008,
      "Ġimmunotherapy": 8009,
      "Given": 8010,
      "ĠKD": 8011,
      "oz": 8012,
      "Ġcros": 8013,
      "Ġdetermining": 8014,
      "ĠNor": 8015,
      "chron": 8016,
      "Ġlost": 8017,
      "sitivity": 8018,
      "ĠInvestig": 8019,
      "ideo": 8020,
      "Ġrely": 8021,
      "Ġiden": 8022,
      "ĠCDK": 8023,
      "Ġfeasibility": 8024,
      "ĠMI": 8025,
      "arriers": 8026,
      "otyp": 8027,
      "Ġimmunomod": 8028,
      "Ġackn": 8029,
      "Ġdetrim": 8030,
      "Ġpartners": 8031,
      "Ġconnection": 8032,
      "Ġchaperone": 8033,
      "ĠTA": 8034,
      "ĠMat": 8035,
      "Ig": 8036,
      "ĠDMEM": 8037,
      "Ġvel": 8038,
      "Ġreproducibility": 8039,
      "Ġrepresentation": 8040,
      "Glu": 8041,
      "hl": 8042,
      "ulative": 8043,
      "phragm": 8044,
      "Another": 8045,
      "Ġpol": 8046,
      "Ġcircum": 8047,
      "transferase": 8048,
      "Ġendoplasmic": 8049,
      "ĠCent": 8050,
      "ĠWh": 8051,
      "Ġsense": 8052,
      "HTT": 8053,
      "ĠDPR": 8054,
      "hanol": 8055,
      "Ġviruses": 8056,
      "ĠTukey": 8057,
      "llumina": 8058,
      "..": 8059,
      "Ġraw": 8060,
      "LO": 8061,
      "Ġproven": 8062,
      "ĠSciences": 8063,
      "assi": 8064,
      "expression": 8065,
      "Ġsimilarity": 8066,
      "Ls": 8067,
      "Ġsuppresses": 8068,
      "ĠPe": 8069,
      "',": 8070,
      "AUC": 8071,
      "robial": 8072,
      "Ġuniform": 8073,
      "ĠFluor": 8074,
      "Ġsimulation": 8075,
      "functional": 8076,
      "Ġreplicate": 8077,
      "Ġgranule": 8078,
      "NOS": 8079,
      "Ġrespect": 8080,
      "Ġglass": 8081,
      "Ġ),": 8082,
      "Ġpowerful": 8083,
      "adjusted": 8084,
      "Ġcolor": 8085,
      "which": 8086,
      "Ġneigh": 8087,
      "Ġcytometry": 8088,
      "105": 8089,
      "Ġcompromised": 8090,
      "Ġ85": 8091,
      "ĠZhang": 8092,
      "Ġ2007": 8093,
      "146": 8094,
      "Ġexamining": 8095,
      "Ġcoupling": 8096,
      "Ġnamely": 8097,
      "ĠRecently": 8098,
      "Ġframe": 8099,
      "tagged": 8100,
      "Ġdifficulty": 8101,
      "Ġtheore": 8102,
      "Ġefficiently": 8103,
      "Ġconduct": 8104,
      "translational": 8105,
      "Ġsyndromes": 8106,
      "Ġzur": 8107,
      "Ġequil": 8108,
      "atonin": 8109,
      "Ġadherence": 8110,
      "Tg": 8111,
      "orator": 8112,
      "Ġresilience": 8113,
      "ĠZn": 8114,
      "Ġ2006": 8115,
      "Ġintricate": 8116,
      "amyloid": 8117,
      "Ġexclusively": 8118,
      "Ġmodules": 8119,
      "TNF": 8120,
      "Ġintellig": 8121,
      "olinergic": 8122,
      "Ġapplying": 8123,
      "Ġpap": 8124,
      "illip": 8125,
      "Ġ44": 8126,
      "Ġinteresting": 8127,
      "Ġelu": 8128,
      "Ġones": 8129,
      "Ġconsideration": 8130,
      "pred": 8131,
      "Ġtaking": 8132,
      "Ġconsisted": 8133,
      "Ġcustom": 8134,
      "Ġdepressive": 8135,
      "Ġrich": 8136,
      "estyle": 8137,
      "2024": 8138,
      "âī¤": 8139,
      "Ġhab": 8140,
      "Ġintrathe": 8141,
      "loride": 8142,
      "lie": 8143,
      "icillin": 8144,
      "itory": 8145,
      "Ġproducing": 8146,
      "Ġencoded": 8147,
      "affected": 8148,
      "geal": 8149,
      "edic": 8150,
      "Ġcovers": 8151,
      "Ġotherwise": 8152,
      "inking": 8153,
      "Ġlenti": 8154,
      "Ġsolubility": 8155,
      "itting": 8156,
      "prising": 8157,
      "Ġnitrogen": 8158,
      "chain": 8159,
      "Ġmediating": 8160,
      "ropy": 8161,
      "imb": 8162,
      "Ġindicator": 8163,
      "Ġhyperphosphory": 8164,
      "Ġfrequencies": 8165,
      "iers": 8166,
      "Ġexcellent": 8167,
      "Ġerrors": 8168,
      "oler": 8169,
      "Ġoptimize": 8170,
      "Ġ46": 8171,
      "vented": 8172,
      "rited": 8173,
      "Ġquad": 8174,
      "NLS": 8175,
      "TAC": 8176,
      "ĠSY": 8177,
      "Summary": 8178,
      "ĠLRR": 8179,
      "Ġconverted": 8180,
      "ĠSpe": 8181,
      "Ġtumour": 8182,
      "Ġdetrimental": 8183,
      "ĠCN": 8184,
      "Ġcombinations": 8185,
      "Ġadequate": 8186,
      "Ġplasmids": 8187,
      "ethe": 8188,
      "ĠChan": 8189,
      "unk": 8190,
      "sychological": 8191,
      "Ġvacu": 8192,
      "Ġcathe": 8193,
      "Ġket": 8194,
      "ĠIndia": 8195,
      "Ġcircuits": 8196,
      "Supplemental": 8197,
      "Ġperic": 8198,
      "Ġmanifes": 8199,
      "Ġ64": 8200,
      "Ġqualitative": 8201,
      "icans": 8202,
      "ĠTE": 8203,
      "002": 8204,
      "Ġhair": 8205,
      "levant": 8206,
      "oche": 8207,
      "ĠRG": 8208,
      "Ġrestoration": 8209,
      "Ġattenuated": 8210,
      "Ġpipeline": 8211,
      "Ġground": 8212,
      "Ġpreserving": 8213,
      "ĠCAR": 8214,
      "ĠBM": 8215,
      "ĠOx": 8216,
      "Ġcytotoxic": 8217,
      "Ġreplaced": 8218,
      "ĠWM": 8219,
      "ethylation": 8220,
      "tell": 8221,
      "ĠÂµg": 8222,
      "Ġ56": 8223,
      "hibition": 8224,
      "site": 8225,
      "EGG": 8226,
      "Ġshap": 8227,
      "Ġcoli": 8228,
      "Protein": 8229,
      "Ġaud": 8230,
      "rectional": 8231,
      "Ġpreliminary": 8232,
      "col": 8233,
      "Ġprofessionals": 8234,
      "Ġ41": 8235,
      "ĠÂµL": 8236,
      "Ġneurodevelopmental": 8237,
      "aryngeal": 8238,
      "Ġ63": 8239,
      "Ġmisfolding": 8240,
      "ĠMSA": 8241,
      "Ġautonomic": 8242,
      "Ġcenters": 8243,
      "Ġidentical": 8244,
      "ards": 8245,
      "qPCR": 8246,
      "Ġlymphocytes": 8247,
      "STING": 8248,
      "After": 8249,
      "olve": 8250,
      "Ġproxim": 8251,
      "Ġeasily": 8252,
      "Ġ53": 8253,
      "ĠATG": 8254,
      "Ġtom": 8255,
      "human": 8256,
      "Sim": 8257,
      "rus": 8258,
      "Ġreversed": 8259,
      "erex": 8260,
      "veness": 8261,
      "Ġincorporated": 8262,
      "amb": 8263,
      "Ġperforming": 8264,
      "âĤ": 8265,
      "ĠSan": 8266,
      "Ġcompartment": 8267,
      "rod": 8268,
      "oside": 8269,
      "domain": 8270,
      "fibr": 8271,
      "nM": 8272,
      "ferred": 8273,
      "ocyt": 8274,
      "Ġexamples": 8275,
      "ĠPF": 8276,
      "Ġrodent": 8277,
      "ĠNS": 8278,
      "Ġhub": 8279,
      "Ġdiscrepan": 8280,
      "zes": 8281,
      "Ġverteb": 8282,
      "Ġgenotypes": 8283,
      "Ġtransmembrane": 8284,
      "Ġscaffolds": 8285,
      "ca": 8286,
      "Ġgold": 8287,
      "elled": 8288,
      "Ġgrown": 8289,
      "Ref": 8290,
      "Age": 8291,
      "Ġabdom": 8292,
      "ĠUpon": 8293,
      "Ġligase": 8294,
      "PET": 8295,
      "oratories": 8296,
      "Ġprolifer": 8297,
      "ĠCMT": 8298,
      "Ġchoice": 8299,
      "Ġgaps": 8300,
      "Ġheigh": 8301,
      "Ġtrunc": 8302,
      "ĠEDTA": 8303,
      "ato": 8304,
      "from": 8305,
      "Ġtailored": 8306,
      "Ġexerts": 8307,
      "Ġmotion": 8308,
      "Ġpositions": 8309,
      "Ġacidic": 8310,
      "Ġnoise": 8311,
      "Ġoligodendrocyte": 8312,
      "Ġconsequence": 8313,
      "draw": 8314,
      "Not": 8315,
      "Ġsum": 8316,
      "Ġphospholip": 8317,
      "Ġpropose": 8318,
      "Ġroot": 8319,
      "Ġtrajectories": 8320,
      "ĠMP": 8321,
      "Ġupd": 8322,
      "Ġdegenerative": 8323,
      "Mod": 8324,
      "Ġstimulate": 8325,
      "Ġ/": 8326,
      "ĠAst": 8327,
      "ĠCompar": 8328,
      "Ġparticle": 8329,
      "ĠHist": 8330,
      "Ġurine": 8331,
      "Ġresting": 8332,
      "SMN": 8333,
      "Ġdogs": 8334,
      "Ġadmission": 8335,
      "ĠTest": 8336,
      "world": 8337,
      "Ġcul": 8338,
      "\".": 8339,
      "uning": 8340,
      "Ġscar": 8341,
      "Ġdeeper": 8342,
      "ĠHis": 8343,
      "Ġlogistic": 8344,
      "Data": 8345,
      ")).": 8346,
      "kB": 8347,
      "Ġpure": 8348,
      "etheless": 8349,
      "ĠCurrently": 8350,
      "Ġmaps": 8351,
      "Ġblotting": 8352,
      "ĠRNAi": 8353,
      "ĠRCT": 8354,
      "itus": 8355,
      "Ġsperm": 8356,
      "ectin": 8357,
      "Ġembryos": 8358,
      "Ġalbumin": 8359,
      "Ġstructured": 8360,
      "Ġnigra": 8361,
      "Ġeyes": 8362,
      "Ġroute": 8363,
      "Ġdiscrimin": 8364,
      "quality": 8365,
      "Ġtransporters": 8366,
      "throughput": 8367,
      "Ġharmful": 8368,
      "Ġprevented": 8369,
      "Ġpurch": 8370,
      "Ġoil": 8371,
      "Ġworm": 8372,
      "Ġanalytical": 8373,
      "Ġbovine": 8374,
      "partic": 8375,
      "Ġcannab": 8376,
      "rail": 8377,
      "Ag": 8378,
      "Ġthi": 8379,
      "ministration": 8380,
      "ystems": 8381,
      "modified": 8382,
      "Ġbehavioural": 8383,
      "rapie": 8384,
      "APP": 8385,
      "Ã¼ber": 8386,
      "Ġairway": 8387,
      "CB": 8388,
      "Gibco": 8389,
      "Ġsaliv": 8390,
      "}\\": 8391,
      "Ġ(#": 8392,
      "Ġpenetration": 8393,
      "IQR": 8394,
      "earson": 8395,
      "Ġrecapit": 8396,
      "ĠPU": 8397,
      "ĠGolgi": 8398,
      "Ġantioxidants": 8399,
      "SN": 8400,
      "Ġris": 8401,
      "Ġpractices": 8402,
      "Ġannotated": 8403,
      "Ġ(\"": 8404,
      "MF": 8405,
      "aturation": 8406,
      "randed": 8407,
      "being": 8408,
      "ĠSpinal": 8409,
      "Ġattrac": 8410,
      "Ġrefine": 8411,
      "illipore": 8412,
      "ĠPan": 8413,
      "ĠIntern": 8414,
      "ĠNCT": 8415,
      "Ġinterleukin": 8416,
      "Ġadvancing": 8417,
      "Ġsegmentation": 8418,
      "Ġthresholds": 8419,
      "ceptor": 8420,
      "romy": 8421,
      "Ġdepic": 8422,
      "LK": 8423,
      "cape": 8424,
      "ĠCar": 8425,
      "ĠNov": 8426,
      "ercial": 8427,
      "sensitive": 8428,
      "Ġoptical": 8429,
      "Ġextracts": 8430,
      "Ġages": 8431,
      "Ġopening": 8432,
      "Ġopportunities": 8433,
      "ĠTaken": 8434,
      "Ġagonist": 8435,
      "uffered": 8436,
      "Ġmultimodal": 8437,
      "Several": 8438,
      "ĠRel": 8439,
      "Ġheight": 8440,
      "Ġ***": 8441,
      "Ġsubpop": 8442,
      "varian": 8443,
      "Ġprimer": 8444,
      "ĠTP": 8445,
      "125": 8446,
      "ĠExperim": 8447,
      "Ġsenescent": 8448,
      "Ġconfounding": 8449,
      "Mic": 8450,
      "Ġarrow": 8451,
      "Ġdrives": 8452,
      "changed": 8453,
      "ĠNT": 8454,
      "Ġround": 8455,
      "ĠOPTN": 8456,
      "Ġfacilitated": 8457,
      "Ġpostsynaptic": 8458,
      "essive": 8459,
      "ĠRBPs": 8460,
      "Ġabsorb": 8461,
      "Recent": 8462,
      "Ġinterferon": 8463,
      "ĠBSA": 8464,
      "Ġselectivity": 8465,
      "ĠTH": 8466,
      "ĠCE": 8467,
      "abs": 8468,
      "Ġeventually": 8469,
      "Background": 8470,
      "rotic": 8471,
      "Ġfission": 8472,
      "Ġthin": 8473,
      "acted": 8474,
      "molecule": 8475,
      "hydroxy": 8476,
      "degenerative": 8477,
      "Ġgradually": 8478,
      "Ġ(>": 8479,
      "ĠGAP": 8480,
      "Ġplan": 8481,
      "Ġvaccine": 8482,
      "uth": 8483,
      "lux": 8484,
      "Ġrelies": 8485,
      "Ġmanaging": 8486,
      "124": 8487,
      "ĠAfric": 8488,
      "Ġpresymptomatic": 8489,
      "ĠEarly": 8490,
      "Ġspin": 8491,
      "Ġchamber": 8492,
      "growth": 8493,
      "urance": 8494,
      "yrate": 8495,
      "Trans": 8496,
      "Ġautomated": 8497,
      "Ġdiver": 8498,
      "orest": 8499,
      "Ġeffector": 8500,
      "Ġfoot": 8501,
      "Ġimmunost": 8502,
      "DS": 8503,
      "Ġdecisions": 8504,
      "ĠMethods": 8505,
      "Ġwhy": 8506,
      "Ġperf": 8507,
      "comit": 8508,
      "Ġregardless": 8509,
      "Ġstratification": 8510,
      "ĠCd": 8511,
      "Ġsubstantia": 8512,
      "ĠTe": 8513,
      "217": 8514,
      "Ġcharged": 8515,
      "fluid": 8516,
      "ĠUB": 8517,
      "ĠFour": 8518,
      "Ġcorrected": 8519,
      "lik": 8520,
      "Ġmesenchymal": 8521,
      "Ġsham": 8522,
      "Ġcytoskeletal": 8523,
      "ella": 8524,
      "Ġbands": 8525,
      "Ġmediates": 8526,
      "Ġinfer": 8527,
      "inform": 8528,
      "idering": 8529,
      "iled": 8530,
      "Ġlifestyle": 8531,
      "ĠBiom": 8532,
      "vae": 8533,
      "Ġmonomer": 8534,
      "Ġpreferen": 8535,
      "Park": 8536,
      "Sup": 8537,
      "Ġgoat": 8538,
      "mol": 8539,
      "ĠNSCs": 8540,
      "Ġworkflow": 8541,
      "Ġfiles": 8542,
      "izations": 8543,
      "ember": 8544,
      "Ġprefrontal": 8545,
      "Ġparadigm": 8546,
      "Ġageing": 8547,
      "ogenetic": 8548,
      "ĠtRNA": 8549,
      "ĠVCP": 8550,
      "Ġlatency": 8551,
      "ellar": 8552,
      "Ġpolymerase": 8553,
      "NAP": 8554,
      "ĠÎµ": 8555,
      "Ġmyot": 8556,
      "va": 8557,
      "Ġsecret": 8558,
      "Ġsubcellular": 8559,
      "ĠHO": 8560,
      "Ã³n": 8561,
      "ĠSep": 8562,
      "Ġuser": 8563,
      "ĠUnlike": 8564,
      "Ġmyeloid": 8565,
      "Ġactions": 8566,
      "mers": 8567,
      "Ġretained": 8568,
      "Ġstarted": 8569,
      "Ġinherited": 8570,
      "ontal": 8571,
      "Ġfragmentation": 8572,
      "ilot": 8573,
      "angles": 8574,
      "Ġvag": 8575,
      "Ġarise": 8576,
      "Ġcomparative": 8577,
      "Ġdraft": 8578,
      "loro": 8579,
      "ĠWithin": 8580,
      "Ġmalignant": 8581,
      "vol": 8582,
      "Ġneuropsychiatric": 8583,
      "Ġdiag": 8584,
      "Ġasked": 8585,
      "Ġ47": 8586,
      "Ġyou": 8587,
      "UG": 8588,
      "ls": 8589,
      "Ġneutrophils": 8590,
      "ened": 8591,
      "KL": 8592,
      "Ġbiofil": 8593,
      "ĠMC": 8594,
      "ĠNH": 8595,
      "ought": 8596,
      "phing": 8597,
      "Ġdenervation": 8598,
      "Ġbis": 8599,
      "ump": 8600,
      "diplam": 8601,
      "Ġsensors": 8602,
      "Ġpredictors": 8603,
      "Ġaspect": 8604,
      "Ġnational": 8605,
      "âĪĨ": 8606,
      "NAc": 8607,
      "assium": 8608,
      "Ġresistant": 8609,
      "tially": 8610,
      "ystal": 8611,
      "Ġemploying": 8612,
      "ancial": 8613,
      "Ġseizure": 8614,
      "Ġactively": 8615,
      "Ġorganisms": 8616,
      "vidence": 8617,
      "âĢĳ": 8618,
      "ĠHLA": 8619,
      "ACE": 8620,
      "ĠStudent": 8621,
      "Ġbioactive": 8622,
      "ĠSignaling": 8623,
      "mentioned": 8624,
      "Ġsarcopenia": 8625,
      "IG": 8626,
      "Ġargin": 8627,
      "biosis": 8628,
      "Ġillustrated": 8629,
      "ĠGraphPad": 8630,
      "illance": 8631,
      "neurons": 8632,
      "itol": 8633,
      "Ġ51": 8634,
      "aria": 8635,
      "Ġranges": 8636,
      "adily": 8637,
      "Ġhistological": 8638,
      "Ġhemisp": 8639,
      "ĠLike": 8640,
      "Ġdirections": 8641,
      "untary": 8642,
      "iative": 8643,
      "{{\\": 8644,
      "Ġrecurrence": 8645,
      "atenin": 8646,
      "Ġganglia": 8647,
      "Ġbrief": 8648,
      "ĠMethod": 8649,
      "ĠMechan": 8650,
      "otrans": 8651,
      "ĠChen": 8652,
      "Ġtrajectory": 8653,
      "ensor": 8654,
      "mt": 8655,
      "Ġintegrate": 8656,
      "Ġrobustness": 8657,
      "Ġglycos": 8658,
      "nis": 8659,
      "Ġintron": 8660,
      "ĠRNase": 8661,
      "iance": 8662,
      "CAS": 8663,
      "Ġdosage": 8664,
      "ogenicity": 8665,
      "Ġholds": 8666,
      "Revised": 8667,
      "Ġren": 8668,
      "ĠTG": 8669,
      "Ġlinks": 8670,
      "atter": 8671,
      "Ġdriver": 8672,
      "atergic": 8673,
      "ĠMi": 8674,
      "Ġverified": 8675,
      "CHD": 8676,
      "Ġwritten": 8677,
      "Ġlon": 8678,
      "ĠLaboratory": 8679,
      "Ġrecordings": 8680,
      "ĠMann": 8681,
      "Ġuns": 8682,
      "ĠcircRNAs": 8683,
      "Ġdeploy": 8684,
      "IONS": 8685,
      "ĠBA": 8686,
      "ously": 8687,
      "Ã¤n": 8688,
      "Ġclarify": 8689,
      "Ġrating": 8690,
      "Ġexacerbating": 8691,
      "ĠMicro": 8692,
      "itors": 8693,
      "Ġreagent": 8694,
      "Ġtransgene": 8695,
      "Ġalteration": 8696,
      "ecal": 8697,
      "ega": 8698,
      "lium": 8699,
      "Ġmening": 8700,
      "iguing": 8701,
      "atics": 8702,
      "Ġproximity": 8703,
      "âĢĵâĢĵ": 8704,
      "Ġbonds": 8705,
      "Ġpropagation": 8706,
      "itney": 8707,
      "Ġclon": 8708,
      "Ġpotentials": 8709,
      "Ġcollabor": 8710,
      "Ġcum": 8711,
      "Ġharvested": 8712,
      "OB": 8713,
      "Ġquick": 8714,
      "adder": 8715,
      "Ġfoundation": 8716,
      "Ġcircadian": 8717,
      "Ġinfectious": 8718,
      "opathological": 8719,
      "Ġagonists": 8720,
      "iness": 8721,
      "Ġprostate": 8722,
      "ĠERK": 8723,
      "Ġresolved": 8724,
      "la": 8725,
      "Ġinside": 8726,
      "FTLD": 8727,
      "Ġfrozen": 8728,
      "worth": 8729,
      "Ġinternational": 8730,
      "rated": 8731,
      "Ġovarian": 8732,
      "ĠIF": 8733,
      "Ġusers": 8734,
      "Ġreaching": 8735,
      "Ġnormally": 8736,
      "jury": 8737,
      "Ġnormalization": 8738,
      "Ġanticip": 8739,
      "Ġoligonucleotides": 8740,
      "Ġauch": 8741,
      "eds": 8742,
      "istribution": 8743,
      "Ġ250": 8744,
      "catenin": 8745,
      "Ġdies": 8746,
      "ĠResp": 8747,
      "Ġaccelerate": 8748,
      "ogly": 8749,
      "Ġkept": 8750,
      "ĠAA": 8751,
      "Ġdefect": 8752,
      "ĠVDAC": 8753,
      "Ġapt": 8754,
      "ister": 8755,
      "ĠMPTP": 8756,
      "2018": 8757,
      "Ġpurchased": 8758,
      "ĠLife": 8759,
      "amino": 8760,
      "roids": 8761,
      "Met": 8762,
      "Ġduplic": 8763,
      "+-": 8764,
      "ault": 8765,
      "Ġelect": 8766,
      "siveness": 8767,
      "ĠhSOD": 8768,
      "Ġblocks": 8769,
      "responsive": 8770,
      "Ġflexibility": 8771,
      "Ġspi": 8772,
      "Ġdisch": 8773,
      "ĠItaly": 8774,
      "%âĢĵ": 8775,
      "Ġdim": 8776,
      "Ġcapability": 8777,
      "Ġperceived": 8778,
      "Ġsolely": 8779,
      "ĠRRID": 8780,
      "Ġframes": 8781,
      "Ġtubes": 8782,
      "Ġelucidated": 8783,
      "Ġskills": 8784,
      "Ġsought": 8785,
      "Ġhorn": 8786,
      "faceted": 8787,
      "Ġasymmet": 8788,
      "Ġtight": 8789,
      "Ġactivator": 8790,
      "Ġmood": 8791,
      "Ġmanual": 8792,
      "Ġinfusion": 8793,
      "Ġnutrient": 8794,
      "Ġdebris": 8795,
      "orect": 8796,
      "Ġdiaphragm": 8797,
      "mRNA": 8798,
      "copro": 8799,
      "Ġinjured": 8800,
      "Ġschem": 8801,
      "Ġnanos": 8802,
      "Ġlabel": 8803,
      "Ġethn": 8804,
      "Ġmelanoma": 8805,
      "Ġathe": 8806,
      "actic": 8807,
      "Ġinfants": 8808,
      "requency": 8809,
      "linear": 8810,
      "UP": 8811,
      "ocity": 8812,
      "Ġreflected": 8813,
      "ĠParkin": 8814,
      "Ġservice": 8815,
      "bodies": 8816,
      "pf": 8817,
      "Ġcaregiver": 8818,
      "phyl": 8819,
      "olding": 8820,
      "Ġ49": 8821,
      "Ġelectronic": 8822,
      "forming": 8823,
      "cience": 8824,
      "Ġlysosome": 8825,
      "ĠEB": 8826,
      "field": 8827,
      "ĠDel": 8828,
      "aching": 8829,
      "olytic": 8830,
      "cerol": 8831,
      "ilent": 8832,
      "ĠGLP": 8833,
      "tron": 8834,
      "ĠAssessment": 8835,
      "ming": 8836,
      "ĠSl": 8837,
      "Ġdiffuse": 8838,
      "Ġcommercial": 8839,
      "Ġserotonin": 8840,
      "yc": 8841,
      "Ġ400": 8842,
      "lined": 8843,
      "Ġaggregated": 8844,
      "Ġimped": 8845,
      "Ġtomography": 8846,
      "ini": 8847,
      "ancer": 8848,
      "ĠME": 8849,
      "ĠBCI": 8850,
      "oblot": 8851,
      "'-": 8852,
      "Ġplanning": 8853,
      "Ġconsecutive": 8854,
      "ĠKn": 8855,
      "repres": 8856,
      "112": 8857,
      "ĠNan": 8858,
      "Ġturnover": 8859,
      "Ġasymptomatic": 8860,
      "stalk": 8861,
      "ĠEC": 8862,
      "ĠVis": 8863,
      "choline": 8864,
      "Ġgive": 8865,
      "nea": 8866,
      "Ġstimulated": 8867,
      "Ġgeneraliz": 8868,
      "TBI": 8869,
      "emale": 8870,
      "idirectional": 8871,
      "ochondria": 8872,
      "ĠHS": 8873,
      "Ġ54": 8874,
      "Ġfibrill": 8875,
      "cies": 8876,
      "Ġpore": 8877,
      "ochrome": 8878,
      "Ġ58": 8879,
      "erging": 8880,
      "Ġsomatic": 8881,
      "Ġdeaths": 8882,
      "Ġutilization": 8883,
      "ette": 8884,
      "Ġexception": 8885,
      "ĠAN": 8886,
      "Ġequivalent": 8887,
      "selves": 8888,
      "--": 8889,
      "Ġselen": 8890,
      "lets": 8891,
      "Ġarth": 8892,
      "bone": 8893,
      "omo": 8894,
      "Ġworse": 8895,
      "ĠIDR": 8896,
      "Ġmodulators": 8897,
      "Ġ66": 8898,
      "Ġsynapt": 8899,
      "Ġlarvae": 8900,
      "ĠNPC": 8901,
      "Ġrecurrent": 8902,
      "Finally": 8903,
      "Additional": 8904,
      "Ġmilk": 8905,
      "perfusion": 8906,
      "Ġheightened": 8907,
      "Ts": 8908,
      "Ġhum": 8909,
      "ifies": 8910,
      "Ġreactivity": 8911,
      "Ġlineage": 8912,
      "olecules": 8913,
      "Ġcascades": 8914,
      "ĠsALS": 8915,
      "ĠDH": 8916,
      "anned": 8917,
      "ĠAge": 8918,
      "Ġorganic": 8919,
      "Ġsuspected": 8920,
      "robic": 8921,
      "ĠRIPK": 8922,
      "ibrium": 8923,
      "Ġconfer": 8924,
      "weighted": 8925,
      "Whitney": 8926,
      "bs": 8927,
      "map": 8928,
      "Ġpark": 8929,
      "ĠLRRK": 8930,
      "Ġflav": 8931,
      "Ġmask": 8932,
      "102": 8933,
      "Ġinitiate": 8934,
      "Ġsubtle": 8935,
      "Ġord": 8936,
      "Ġbiocompati": 8937,
      "tice": 8938,
      "ĠDay": 8939,
      "Ġcutoff": 8940,
      "Ġautophagosome": 8941,
      "Ġneonatal": 8942,
      "ĠEsc": 8943,
      "Ġcalculate": 8944,
      "cic": 8945,
      "Ġprecip": 8946,
      "Ġhier": 8947,
      "ygd": 8948,
      "afety": 8949,
      "Ġ2005": 8950,
      "ifferenti": 8951,
      "Ġsind": 8952,
      "orectal": 8953,
      "Ġmapped": 8954,
      "Ġadoles": 8955,
      "ATE": 8956,
      "Ġgrade": 8957,
      "ĠOnce": 8958,
      "Ġgovern": 8959,
      "Ġdram": 8960,
      "ĠTotal": 8961,
      "oprecipitation": 8962,
      "Ġimmunore": 8963,
      "Ġindicative": 8964,
      "sm": 8965,
      "Ġsatisf": 8966,
      "ĠLV": 8967,
      "ĠCONCLUSIONS": 8968,
      "Ġribosome": 8969,
      "Ġopposite": 8970,
      "Ġwithdraw": 8971,
      "Ġdefective": 8972,
      "lege": 8973,
      "microbial": 8974,
      "Ġfacial": 8975,
      "Ġfungal": 8976,
      "Ġsearc": 8977,
      "Ġfibril": 8978,
      "Ġrecognize": 8979,
      "coun": 8980,
      "tism": 8981,
      "Ġventricular": 8982,
      "Ġsuperv": 8983,
      "ĠAdv": 8984,
      "ker": 8985,
      "Ġfused": 8986,
      "Ġpremature": 8987,
      "Ġspasticity": 8988,
      "orti": 8989,
      "])": 8990,
      "Ġnurs": 8991,
      "Figs": 8992,
      "TF": 8993,
      "Ġfunctionally": 8994,
      "Ġgi": 8995,
      "ĠFl": 8996,
      "Ġfinancial": 8997,
      "103": 8998,
      "ypsin": 8999,
      "Ġuncover": 9000,
      "usting": 9001,
      "amil": 9002,
      "Ġabilities": 9003,
      "scill": 9004,
      "Ã¶r": 9005,
      "Ġmounted": 9006,
      "Ġformulation": 9007,
      "Ġparents": 9008,
      "levated": 9009,
      "using": 9010,
      "Ġantibiotic": 9011,
      "Ġdownreg": 9012,
      "keit": 9013,
      "Ġinsertion": 9014,
      "stud": 9015,
      "Ġdirected": 9016,
      "ermal": 9017,
      "arv": 9018,
      "Based": 9019,
      "HCl": 9020,
      "tt": 9021,
      "reness": 9022,
      "Ġ62": 9023,
      "induc": 9024,
      "Ġocular": 9025,
      "Ġprobably": 9026,
      "Ġtoo": 9027,
      "Ġperfusion": 9028,
      "Ġnanoc": 9029,
      "GGG": 9030,
      "Ġprobable": 9031,
      "Ġconsiderations": 9032,
      "tase": 9033,
      "Ġmir": 9034,
      "ĠPa": 9035,
      "Ġurinary": 9036,
      "ĠOutcome": 9037,
      "ĠInternational": 9038,
      "ongue": 9039,
      "Ġannotation": 9040,
      "vival": 9041,
      "ĠTherapeutic": 9042,
      "agnetic": 9043,
      "Ġimpairing": 9044,
      "Ġthemselves": 9045,
      "Ġretina": 9046,
      "plies": 9047,
      "Ġexacerbates": 9048,
      "Ġserine": 9049,
      "Ġlibraries": 9050,
      "Ġmono": 9051,
      "conn": 9052,
      "Ġunpaired": 9053,
      "Ġmultidisciplinary": 9054,
      "ĠBV": 9055,
      "Ġdeno": 9056,
      "aggreg": 9057,
      "Ġcode": 9058,
      "Ġaccounting": 9059,
      "Ġbeg": 9060,
      "ĠBC": 9061,
      "Ġspectral": 9062,
      "Ġdisordered": 9063,
      "Ġembedded": 9064,
      "Ġoverload": 9065,
      "Ġamplified": 9066,
      "Ġpix": 9067,
      "ĠTBS": 9068,
      "Anal": 9069,
      "Ġnode": 9070,
      "pecific": 9071,
      "Ġinterference": 9072,
      "With": 9073,
      "sies": 9074,
      "ĠGL": 9075,
      "Ġhaz": 9076,
      "Net": 9077,
      "Ġcompeti": 9078,
      "actures": 9079,
      "Ġhallmarks": 9080,
      "dentif": 9081,
      "ĠSchwann": 9082,
      "ĠUp": 9083,
      "111": 9084,
      "ĠATF": 9085,
      "Ġmaternal": 9086,
      "Ġintercellular": 9087,
      "KGRO": 9088,
      "Ġvaries": 9089,
      "Ġtax": 9090,
      "Ġviable": 9091,
      "Ġstimulus": 9092,
      "KGROUND": 9093,
      "Ġhered": 9094,
      "formaldehyde": 9095,
      "ĠBP": 9096,
      "established": 9097,
      "Ġmagnitude": 9098,
      "Ġcytosol": 9099,
      "effective": 9100,
      "Ġplated": 9101,
      "Ġmultifaceted": 9102,
      "Next": 9103,
      "Ġintrathecal": 9104,
      "ularly": 9105,
      "Ġawa": 9106,
      "Ġhemorrhage": 9107,
      "Ġways": 9108,
      "Ġ68": 9109,
      "rogenase": 9110,
      "ĠTw": 9111,
      "ĠCurrent": 9112,
      "Ġmedial": 9113,
      "Ġtele": 9114,
      "Inte": 9115,
      "Ġdistress": 9116,
      "Ġprinciples": 9117,
      "Ġcrosstalk": 9118,
      "ĠCr": 9119,
      "illus": 9120,
      "ĠAppro": 9121,
      "Additionally": 9122,
      "Ġendpoints": 9123,
      "Ġfunding": 9124,
      "Cor": 9125,
      "gia": 9126,
      "132": 9127,
      "Ġevaluations": 9128,
      "AKT": 9129,
      "Ġrecip": 9130,
      "psis": 9131,
      "Ġglutamatergic": 9132,
      "ukary": 9133,
      "Ġrigorous": 9134,
      "ĠTra": 9135,
      "Ġpotassium": 9136,
      "occus": 9137,
[...]
